<pad>	0
<unk>	0
<s>	0
</s>	0
▁t	-0
en	-1
in	-2
is	-3
an	-4
on	-5
▁th	-6
it	-7
▁s	-8
▁a	-9
ta	-10
es	-11
▁p	-12
▁m	-13
er	-14
▁o	-15
▁the	-16
at	-17
ll	-18
▁k	-19
▁e	-20
▁c	-21
▁j	-22
re	-23
▁v	-24
al	-25
te	-26
tä	-27
▁w	-28
ion	-29
▁h	-30
▁to	-31
ar	-32
us	-33
or	-34
as	-35
ro	-36
▁b	-37
▁of	-38
et	-39
▁n	-40
▁in	-41
ks	-42
un	-43
ut	-44
om	-45
▁l	-46
▁f	-47
▁on	-48
▁an	-49
ti	-50
ent	-51
le	-52
im	-53
os	-54
▁d	-55
el	-56
ed	-57
id	-58
▁and	-59
ing	-60
sa	-61
ik	-62
▁ja	-63
ic	-64
än	-65
ul	-66
ot	-67
ia	-68
ur	-69
em	-70
▁y	-71
ka	-72
▁r	-73
op	-74
il	-75
▁re	-76
ist	-77
ol	-78
ttä	-79
ill	-80
mis	-81
▁be	-82
▁is	-83
iv	-84
▁eu	-85
ation	-86
▁as	-87
am	-88
▁that	-89
▁com	-90
uks	-91
all	-92
▁tä	-93
▁(	-94
ell	-95
▁euro	-96
ys	-97
▁ma	-98
av	-99
ec	-100
ir	-101
▁g	-102
▁for	-103
▁wh	-104
ää	-105
▁it	-106
ke	-107
▁pro	-108
▁i	-109
▁su	-110
▁jo	-111
ud	-112
▁että	-113
▁par	-114
io	-115
▁con	-116
een	-117
ista	-118
▁-	-119
▁al	-120
ly	-121
hd	-122
me	-123
ment	-124
pe	-125
yö	-126
ess	-127
tu	-128
ity	-129
ksi	-130
ies	-131
▁va	-132
▁un	-133
ce	-134
▁se	-135
▁ta	-136
ty	-137
▁co	-138
iden	-139
äs	-140
▁pu	-141
itä	-142
▁en	-143
aa	-144
ais	-145
▁we	-146
to	-147
aan	-148
inen	-149
mä	-150
vä	-151
▁this	-152
▁ne	-153
▁te	-154
utta	-155
ort	-156
hte	-157
sion	-158
ien	-159
tr	-160
oit	-161
iin	-162
pp	-163
tö	-164
ct	-165
ith	-166
kin	-167
▁are	-168
▁tu	-169
ans	-170
▁pr	-171
ch	-172
▁mu	-173
▁me	-174
ter	-175
▁with	-176
ust	-177
ja	-178
tav	-179
ow	-180
ko	-181
ad	-182
▁parl	-183
ere	-184
▁europe	-185
ich	-186
uld	-187
ers	-188
ig	-189
tel	-190
▁euroop	-191
asta	-192
▁not	-193
oll	-194
▁es	-195
▁hav	-196
▁ar	-197
▁ku	-198
▁vo	-199
taa	-200
▁ka	-201
ble	-202
ih	-203
▁which	-204
▁si	-205
▁ex	-206
sä	-207
ises	-208
pa	-209
th	-210
▁de	-211
▁have	-212
▁ole	-213
▁yhte	-214
ike	-215
▁by	-216
▁so	-217
uv	-218
um	-219
ould	-220
▁ei	-221
qu	-222
▁val	-223
ann	-224
ver	-225
ään	-226
▁sh	-227
ark	-228
▁kom	-229
▁comm	-230
issa	-231
▁la	-232
isen	-233
▁ol	-234
ten	-235
port	-236
▁puh	-237
vat	-238
se	-239
▁ko	-240
ittä	-241
äl	-242
▁european	-243
ra	-244
mission	-245
ate	-246
isi	-247
▁euroopan	-248
iel	-249
▁union	-250
od	-251
est	-252
ille	-253
▁u	-254
▁per	-255
▁commission	-256
assa	-257
jen	-258
▁sa	-259
▁myö	-260
▁pol	-261
istä	-262
iet	-263
ve	-264
unn	-265
usta	-266
▁toim	-267
▁at	-268
▁ra	-269
är	-270
mme	-271
ita	-272
ber	-273
).	-274
▁coun	-275
äy	-276
itte	-277
▁or	-278
▁pres	-279
▁sta	-280
▁komis	-281
▁mr	-282
vo	-283
men	-284
▁us	-285
st	-286
▁has	-287
▁er	-288
ie	-289
ts	-290
män	-291
▁hy	-292
ff	-293
▁res	-294
▁kos	-295
ue	-296
▁ag	-297
▁le	-298
ön	-299
esta	-300
isten	-301
ore	-302
ions	-303
ted	-304
▁im	-305
uksen	-306
la	-307
isesti	-308
iit	-309
▁hu	-310
ial	-311
si	-312
▁tr	-313
▁jäs	-314
▁will	-315
isu	-316
ki	-317
jo	-318
taan	-319
▁jäsen	-320
man	-321
▁pää	-322
▁all	-323
▁pa	-324
ou	-325
▁parlam	-326
essa	-327
▁nä	-328
so	-329
and	-330
▁vu	-331
▁ed	-332
▁no	-333
ident	-334
yy	-335
▁myös	-336
ure	-337
ian	-338
lla	-339
vel	-340
▁lu	-341
inn	-342
▁mem	-343
iik	-344
▁sen	-345
yt	-346
▁ac	-347
ect	-348
▁käy	-349
▁jot	-350
igh	-351
▁there	-352
ard	-353
ma	-354
ive	-355
▁he	-356
▁di	-357
▁do	-358
ost	-359
ku	-360
tet	-361
▁parlament	-362
ations	-363
▁president	-364
▁työ	-365
val	-366
de	-367
▁min	-368
▁but	-369
ge	-370
ant	-371
▁kes	-372
▁var	-373
ärj	-374
kä	-375
▁should	-376
ite	-377
▁joka	-378
ast	-379
va	-380
▁parlia	-381
oin	-382
▁kys	-383
▁kaik	-384
▁reg	-385
▁ch	-386
▁ad	-387
äär	-388
▁väl	-389
▁ovat	-390
isa	-391
rom	-392
ous	-393
tic	-394
ärjes	-395
▁ke	-396
mp	-397
ne	-398
▁kans	-399
▁ver	-400
▁from	-401
illä	-402
▁its	-403
▁hal	-404
ip	-405
▁tark	-406
▁parliament	-407
ish	-408
uden	-409
hta	-410
essä	-411
eksi	-412
tava	-413
▁comp	-414
▁yhteis	-415
ok	-416
▁inter	-417
▁jos	-418
ied	-419
▁qu	-420
▁am	-421
ella	-422
▁puhem	-423
▁arvo	-424
▁wor	-425
äh	-426
lle	-427
our	-428
▁also	-429
iten	-430
iz	-431
▁go	-432
▁member	-433
▁oike	-434
alla	-435
▁would	-436
per	-437
min	-438
▁been	-439
illa	-440
▁koske	-441
ken	-442
pos	-443
▁mon	-444
opim	-445
▁report	-446
ement	-447
▁app	-448
▁tal	-449
▁puhemies	-450
▁hyvä	-451
ime	-452
llä	-453
▁neuv	-454
▁vasta	-455
ansa	-456
up	-457
fic	-458
ction	-459
▁halu	-460
▁was	-461
ät	-462
der	-463
teen	-464
▁cons	-465
▁ec	-466
▁tämä	-467
uksia	-468
estä	-469
ksen	-470
▁os	-471
▁must	-472
out	-473
▁san	-474
ally	-475
▁can	-476
cil	-477
sio	-478
og	-479
▁ro	-480
ther	-481
▁stat	-482
du	-483
tam	-484
▁ni	-485
ine	-486
▁jotka	-487
▁ab	-488
reat	-489
lo	-490
yh	-491
ay	-492
ical	-493
bl	-494
▁arvoisa	-495
▁komissio	-496
ua	-497
ym	-498
ms	-499
kaan	-500
pr	-501
▁our	-502
▁käs	-503
ssä	-504
▁miel	-505
▁tar	-506
gr	-507
isä	-508
▁pos	-509
ihin	-510
▁countr	-511
ational	-512
▁il	-513
▁committe	-514
▁fa	-515
▁council	-516
▁sam	-517
ana	-518
▁trans	-519
ome	-520
▁tämän	-521
▁tule	-522
▁inc	-523
gh	-524
▁komission	-525
▁teh	-526
tain	-527
▁str	-528
▁tod	-529
▁siitä	-530
asti	-531
onn	-532
▁commun	-533
idän	-534
▁tai	-535
yn	-536
her	-537
▁el	-538
▁huom	-539
rit	-540
pec	-541
hdoll	-542
▁mutta	-543
▁states	-544
ese	-545
▁tav	-546
▁toe	-547
▁aik	-548
ance	-549
ult	-550
ens	-551
tään	-552
▁keh	-553
ced	-554
▁more	-555
for	-556
▁miet	-557
kunn	-558
▁fin	-559
hdot	-560
iä	-561
▁tiet	-562
ank	-563
elm	-564
alta	-565
cial	-566
▁you	-567
▁määr	-568
▁vi	-569
▁conc	-570
▁dem	-571
und	-572
ij	-573
ition	-574
fer	-575
▁kuin	-576
aus	-577
ear	-578
ments	-579
▁dire	-580
▁sitä	-581
▁if	-582
▁committee	-583
tive	-584
▁kesk	-585
▁mer	-586
udell	-587
▁mahdoll	-588
▁propos	-589
▁sel	-590
▁dec	-591
mista	-592
iset	-593
▁they	-594
▁these	-595
▁pal	-596
issä	-597
▁men	-598
vit	-599
tal	-600
vät	-601
▁pe	-602
tion	-603
▁polic	-604
ina	-605
tiin	-606
▁one	-607
ak	-608
ink	-609
ight	-610
▁parlamentin	-611
ely	-612
▁ens	-613
▁what	-614
▁kansa	-615
isiin	-616
isia	-617
▁agre	-618
ence	-619
▁polit	-620
stä	-621
▁puol	-622
▁kun	-623
▁sit	-624
▁gro	-625
▁other	-626
▁sub	-627
▁yhd	-628
▁bec	-629
oc	-630
▁dis	-631
uten	-632
▁pre	-633
van	-634
ong	-635
▁ter	-636
▁mark	-637
tio	-638
▁very	-639
ide	-640
ary	-641
▁sekä	-642
tom	-643
jan	-644
▁use	-645
▁liit	-646
ivat	-647
ac	-648
alais	-649
▁hall	-650
ain	-651
▁hyväks	-652
▁po	-653
ose	-654
rke	-655
▁out	-656
rat	-657
▁esit	-658
amme	-659
▁work	-660
ution	-661
▁tapa	-662
end	-663
▁mitä	-664
ry	-665
▁saa	-666
hj	-667
ärjestel	-668
one	-669
▁voi	-670
▁ehdot	-671
▁op	-672
▁kuiten	-673
tää	-674
▁tärke	-675
pu	-676
ern	-677
▁tur	-678
▁import	-679
vin	-680
▁their	-681
▁jäsenval	-682
▁vaik	-683
▁who	-684
ellä	-685
▁perus	-686
▁how	-687
▁community	-688
onom	-689
velop	-690
▁kul	-691
▁ser	-692
▁unionin	-693
▁up	-694
▁rec	-695
mend	-696
▁asia	-697
▁sopim	-698
▁leg	-699
ated	-700
ihe	-701
ves	-702
▁quest	-703
▁kanssa	-704
▁kysym	-705
▁develop	-706
▁acc	-707
ase	-708
form	-709
▁mat	-710
▁kor	-711
ino	-712
ures	-713
▁puheen	-714
▁olisi	-715
ven	-716
▁ind	-717
elle	-718
▁sec	-719
▁need	-720
ivät	-721
▁countries	-722
▁bet	-723
▁osa	-724
yste	-725
jat	-726
▁maa	-727
▁tied	-728
yttä	-729
▁erity	-730
▁tut	-731
pport	-732
ttö	-733
misen	-734
are	-735
▁only	-736
ities	-737
ukset	-738
ces	-739
▁any	-740
▁meidän	-741
yd	-742
▁syste	-743
usten	-744
▁päätö	-745
able	-746
▁imp	-747
ign	-748
▁rat	-749
ause	-750
▁resp	-751
tely	-752
uta	-753
ib	-754
cy	-755
▁hän	-756
▁yks	-757
▁tas	-758
fore	-759
▁keskus	-760
▁alue	-761
jä	-762
▁yh	-763
▁policy	-764
▁seur	-765
uttaa	-766
),	-767
▁new	-768
johta	-769
▁til	-770
ang	-771
ikä	-772
▁vir	-773
▁tul	-774
ious	-775
▁main	-776
▁econom	-777
▁progr	-778
ky	-779
▁fir	-780
▁yhteisön	-781
▁like	-782
stit	-783
▁partic	-784
▁kuten	-785
▁time	-786
▁year	-787
▁fr	-788
kem	-789
▁st	-790
▁cont	-791
▁ha	-792
▁void	-793
▁my	-794
▁liitty	-795
sible	-796
▁ot	-797
osta	-798
▁proposal	-799
pä	-800
ystä	-801
▁poin	-802
mu	-803
▁läh	-804
ach	-805
▁eff	-806
minen	-807
ass	-808
pol	-809
▁because	-810
emp	-811
▁ih	-812
joit	-813
▁prov	-814
▁ob	-815
ular	-816
▁lop	-817
▁merk	-818
▁koska	-819
eet	-820
▁about	-821
telu	-822
imme	-823
▁laa	-824
ppe	-825
▁suur	-826
▁jon	-827
▁some	-828
kun	-829
▁"	-830
tan	-831
mat	-832
▁tässä	-833
▁kuitenkin	-834
su	-835
vän	-836
ala	-837
net	-838
fr	-839
kunnan	-840
▁under	-841
pan	-842
▁'	-843
▁niin	-844
▁rah	-845
king	-846
▁pit	-847
lear	-848
▁concern	-849
iitt	-850
oks	-851
▁gen	-852
▁peop	-853
oa	-854
▁now	-855
ull	-856
bil	-857
olog	-858
ojen	-859
aisu	-860
▁proble	-861
oston	-862
▁olen	-863
oun	-864
▁li	-865
kaa	-866
▁such	-867
ossa	-868
ord	-869
ulk	-870
▁amend	-871
▁social	-872
yr	-873
ween	-874
etta	-875
▁group	-876
▁aut	-877
▁produ	-878
▁ker	-879
▁question	-880
▁aihe	-881
▁rel	-882
iseen	-883
▁väh	-884
▁appro	-885
▁into	-886
▁between	-887
▁man	-888
▁diff	-889
▁again	-890
ject	-891
▁hyvin	-892
▁important	-893
▁vain	-894
vu	-895
▁part	-896
▁bas	-897
ention	-898
miseksi	-899
ire	-900
nyt	-901
▁talo	-902
▁agreement	-903
▁those	-904
uc	-905
▁lisä	-906
▁kann	-907
ins	-908
itiik	-909
ise	-910
▁people	-911
oja	-912
eration	-913
▁economic	-914
ittää	-915
▁first	-916
tävä	-917
nö	-918
▁take	-919
▁bud	-920
istyö	-921
gan	-922
isin	-923
▁oli	-924
ice	-925
▁tull	-926
▁her	-927
▁puheenjohta	-928
▁ryh	-929
mään	-930
▁sos	-931
▁tote	-932
ope	-933
vern	-934
▁koko	-935
vir	-936
▁joh	-937
▁ong	-938
enk	-939
▁system	-940
ree	-941
▁national	-942
▁kir	-943
▁yle	-944
▁hel	-945
▁eivät	-946
▁made	-947
▁nyt	-948
uksessa	-949
▁when	-950
ved	-951
pse	-952
emme	-953
▁valio	-954
▁huomio	-955
▁were	-956
air	-957
ugh	-958
▁kyse	-959
▁seura	-960
▁kol	-961
▁parlamentti	-962
ond	-963
ielä	-964
▁vuod	-965
iaal	-966
inta	-967
▁inform	-968
lud	-969
ific	-970
kir	-971
osto	-972
▁vielä	-973
ision	-974
▁make	-975
▁mietinn	-976
▁particular	-977
▁olemme	-978
uk	-979
ile	-980
ag	-981
istö	-982
ural	-983
▁tulee	-984
▁intern	-985
cep	-986
yyd	-987
▁treat	-988
get	-989
now	-990
▁ään	-991
isuus	-992
▁jonka	-993
par	-994
kseen	-995
alle	-996
maan	-997
ussa	-998
its	-999
▁market	-1000
▁support	-1001
▁oll	-1002
▁ass	-1003
ism	-1004
..	-1005
ni	-1006
blic	-1007
▁bel	-1008
iew	-1009
ap	-1010
▁enn	-1011
▁br	-1012
uman	-1013
▁may	-1014
▁jäsenvaltio	-1015
vien	-1016
kim	-1017
tary	-1018
▁cour	-1019
jec	-1020
enti	-1021
▁spec	-1022
▁fact	-1023
tun	-1024
tetaan	-1025
erg	-1026
▁think	-1027
▁mo	-1028
ech	-1029
▁asi	-1030
ääd	-1031
▁inv	-1032
▁yhteistyö	-1033
▁talous	-1034
▁käsitte	-1035
▁hyväksy	-1036
▁pla	-1037
kea	-1038
▁clear	-1039
▁cl	-1040
▁joita	-1041
väl	-1042
▁deb	-1043
▁coop	-1044
if	-1045
▁ent	-1046
▁kysymy	-1047
▁mielestä	-1048
▁sillä	-1049
▁kaikki	-1050
▁political	-1051
▁tehd	-1052
▁instit	-1053
▁poliitt	-1054
▁sisä	-1055
▁emp	-1056
cess	-1057
kti	-1058
▁sosiaal	-1059
vall	-1060
jet	-1061
ward	-1062
uu	-1063
järjestel	-1064
intö	-1065
▁than	-1066
▁tw	-1067
ante	-1068
tuu	-1069
ting	-1070
▁suhte	-1071
dam	-1072
miseen	-1073
▁niiden	-1074
▁voidaan	-1075
loy	-1076
ors	-1077
▁muut	-1078
▁good	-1079
▁haluais	-1080
▁human	-1081
tavat	-1082
▁tarkist	-1083
▁arv	-1084
tettu	-1085
keen	-1086
bility	-1087
immä	-1088
yys	-1089
▁hallit	-1090
▁tätä	-1091
▁ins	-1092
▁kansall	-1093
▁et	-1094
▁neuvoston	-1095
▁yl	-1096
asto	-1097
▁know	-1098
▁development	-1099
▁olla	-1100
bers	-1101
▁say	-1102
ustr	-1103
▁gu	-1104
mistä	-1105
▁disc	-1106
amp	-1107
kö	-1108
▁requ	-1109
xt	-1110
tia	-1111
ever	-1112
▁meas	-1113
▁ilm	-1114
tön	-1115
▁being	-1116
dr	-1117
mpär	-1118
▁har	-1119
ister	-1120
hor	-1121
ons	-1122
lan	-1123
▁consid	-1124
tik	-1125
▁ri	-1126
isiä	-1127
▁taloudell	-1128
ittäin	-1129
▁organ	-1130
ory	-1131
▁them	-1132
▁offic	-1133
▁mar	-1134
red	-1135
▁proced	-1136
lemen	-1137
▁tarkoit	-1138
eg	-1139
politiik	-1140
▁toiv	-1141
▁where	-1142
▁käsit	-1143
▁state	-1144
imer	-1145
▁liik	-1146
ough	-1147
▁govern	-1148
▁pass	-1149
inc	-1150
▁vah	-1151
▁määrä	-1152
yty	-1153
kn	-1154
oitte	-1155
▁tuot	-1156
▁cooperation	-1157
▁ympär	-1158
pite	-1159
▁cer	-1160
▁over	-1161
ihen	-1162
kon	-1163
hän	-1164
▁siihen	-1165
lic	-1166
▁ki	-1167
ttää	-1168
he	-1169
ights	-1170
ktiiv	-1171
oike	-1172
rough	-1173
▁fund	-1174
ästi	-1175
▁mietintö	-1176
sopim	-1177
▁num	-1178
ustom	-1179
▁jotta	-1180
▁public	-1181
ew	-1182
▁point	-1183
atta	-1184
▁raken	-1185
▁contr	-1186
eral	-1187
kset	-1188
▁respon	-1189
ksiä	-1190
ating	-1191
▁ihmis	-1192
▁exp	-1193
▁far	-1194
ettely	-1195
▁author	-1196
▁therefore	-1197
▁members	-1198
oj	-1199
▁kohd	-1200
▁kehit	-1201
▁however	-1202
▁asian	-1203
▁haluaisin	-1204
▁two	-1205
ings	-1206
▁many	-1207
▁uus	-1208
▁kas	-1209
▁selv	-1210
wn	-1211
▁way	-1212
▁custom	-1213
▁information	-1214
atim	-1215
ind	-1216
▁does	-1217
▁mil	-1218
▁prote	-1219
▁form	-1220
▁had	-1221
▁serv	-1222
▁giv	-1223
tän	-1224
▁view	-1225
▁here	-1226
▁rights	-1227
viron	-1228
▁tarvit	-1229
▁euroopp	-1230
▁jossa	-1231
▁lo	-1232
istu	-1233
▁kaikk	-1234
▁environ	-1235
▁regard	-1236
▁ever	-1237
uh	-1238
▁great	-1239
▁jäl	-1240
▁koskev	-1241
▁even	-1242
▁kon	-1243
uation	-1244
▁van	-1245
ck	-1246
iseksi	-1247
da	-1248
int	-1249
▁see	-1250
ilö	-1251
▁edell	-1252
ukseen	-1253
▁puolesta	-1254
ole	-1255
▁mrs	-1256
oma	-1257
▁just	-1258
▁myön	-1259
▁jat	-1260
▁regul	-1261
▁certain	-1262
▁huol	-1263
▁neuvosto	-1264
▁oikeus	-1265
▁trad	-1266
▁mukaan	-1267
▁could	-1268
▁shall	-1269
sin	-1270
▁erityisesti	-1271
▁ratka	-1272
▁customs	-1273
▁epä	-1274
ppor	-1275
▁artik	-1276
▁pä	-1277
▁possible	-1278
▁sp	-1279
▁vas	-1280
▁huomioon	-1281
▁muka	-1282
eng	-1283
iksi	-1284
▁jota	-1285
ual	-1286
ture	-1287
▁des	-1288
▁vuoden	-1289
laus	-1290
ative	-1291
▁sol	-1292
▁sch	-1293
▁sään	-1294
▁includ	-1295
▁measures	-1296
▁set	-1297
▁democ	-1298
oksi	-1299
▁cann	-1300
go	-1301
isl	-1302
▁osoit	-1303
▁cr	-1304
ieve	-1305
▁tällä	-1306
telij	-1307
▁matter	-1308
▁against	-1309
▁tähän	-1310
▁kuul	-1311
▁käyttö	-1312
ady	-1313
▁nim	-1314
ents	-1315
tettava	-1316
▁kiin	-1317
isuuden	-1318
▁within	-1319
ently	-1320
▁palj	-1321
muka	-1322
imp	-1323
▁sti	-1324
▁tapah	-1325
▁tästä	-1326
▁car	-1327
massa	-1328
▁vaan	-1329
▁tra	-1330
▁cannot	-1331
yky	-1332
▁treaty	-1333
▁princ	-1334
▁lisäksi	-1335
▁adop	-1336
▁law	-1337
▁energ	-1338
▁järjes	-1339
▁direc	-1340
▁kat	-1341
▁ohj	-1342
lly	-1343
aisen	-1344
▁dra	-1345
uksesta	-1346
▁princip	-1347
misesta	-1348
▁päätös	-1349
uksista	-1350
omen	-1351
▁incre	-1352
tation	-1353
▁sect	-1354
▁right	-1355
▁debate	-1356
▁esittä	-1357
▁aff	-1358
uus	-1359
enkilö	-1360
▁siksi	-1361
pres	-1362
▁ele	-1363
▁med	-1364
▁sin	-1365
▁commissioner	-1366
▁consider	-1367
▁viime	-1368
ata	-1369
▁sc	-1370
▁level	-1371
▁pros	-1372
att	-1373
ited	-1374
▁years	-1375
▁gr	-1376
▁aino	-1377
▁ennen	-1378
▁vuos	-1379
▁through	-1380
jien	-1381
astaan	-1382
elma	-1383
▁eri	-1384
▁same	-1385
tanut	-1386
blish	-1387
▁nyky	-1388
▁ris	-1389
▁näin	-1390
▁tech	-1391
▁voim	-1392
cts	-1393
äädän	-1394
oth	-1395
aiset	-1396
kunta	-1397
▁ollut	-1398
▁esimer	-1399
isesta	-1400
uot	-1401
enpite	-1402
land	-1403
elman	-1404
▁most	-1405
▁situation	-1406
llis	-1407
utions	-1408
les	-1409
▁beh	-1410
itiz	-1411
▁lis	-1412
avat	-1413
neet	-1414
▁taken	-1415
▁käsittele	-1416
ices	-1417
▁pet	-1418
▁country	-1419
▁finan	-1420
▁industr	-1421
kes	-1422
▁erittäin	-1423
▁put	-1424
▁legisl	-1425
▁yr	-1426
▁resol	-1427
▁ask	-1428
▁cent	-1429
itse	-1430
arv	-1431
▁common	-1432
▁number	-1433
▁emme	-1434
teur	-1435
aisia	-1436
▁aset	-1437
▁paljon	-1438
▁jä	-1439
▁mieltä	-1440
▁international	-1441
▁fut	-1442
inväl	-1443
▁perusta	-1444
tele	-1445
▁kan	-1446
▁every	-1447
▁mielestäni	-1448
uksien	-1449
pporteur	-1450
▁future	-1451
iko	-1452
▁vä	-1453
▁esittelij	-1454
ds	-1455
loyment	-1456
▁techn	-1457
▁tutkim	-1458
▁koh	-1459
▁subject	-1460
kan	-1461
utus	-1462
▁eikä	-1463
com	-1464
kään	-1465
ecess	-1466
tien	-1467
▁high	-1468
▁täys	-1469
ri	-1470
▁demok	-1471
▁ju	-1472
▁legal	-1473
viä	-1474
▁tän	-1475
▁koll	-1476
▁ensimmä	-1477
▁itse	-1478
▁citiz	-1479
▁rapporteur	-1480
▁well	-1481
▁mietinnö	-1482
itus	-1483
tern	-1484
▁too	-1485
▁tunn	-1486
eth	-1487
▁puheenjohtaja	-1488
▁foll	-1489
▁vaikka	-1490
▁his	-1491
▁interest	-1492
esti	-1493
▁then	-1494
ohj	-1495
▁differ	-1496
▁haluan	-1497
▁ongelm	-1498
▁transit	-1499
▁henkilö	-1500
▁order	-1501
▁af	-1502
▁vahv	-1503
tamaan	-1504
insäädän	-1505
▁kansainväl	-1506
▁conf	-1507
▁second	-1508
▁said	-1509
▁enem	-1510
▁kunn	-1511
▁action	-1512
▁uud	-1513
▁pys	-1514
▁siir	-1515
▁vaka	-1516
ute	-1517
▁om	-1518
olla	-1519
asia	-1520
ästä	-1521
▁help	-1522
▁discus	-1523
til	-1524
▁case	-1525
urr	-1526
kino	-1527
▁nämä	-1528
▁oper	-1529
▁vastaan	-1530
▁fur	-1531
▁long	-1532
▁pyr	-1533
itet	-1534
▁kolm	-1535
▁follow	-1536
▁järjestel	-1537
▁def	-1538
▁tehdä	-1539
▁pitää	-1540
▁still	-1541
ether	-1542
onna	-1543
▁turvall	-1544
▁ympäristö	-1545
▁sy	-1546
▁invol	-1547
▁hyö	-1548
mental	-1549
▁problem	-1550
▁jälkeen	-1551
▁tulev	-1552
▁politiik	-1553
▁programme	-1554
eu	-1555
▁antaa	-1556
▁osall	-1557
▁since	-1558
järjes	-1559
▁both	-1560
uri	-1561
▁reas	-1562
ouse	-1563
▁elä	-1564
ization	-1565
▁pid	-1566
▁hank	-1567
▁pers	-1568
▁sano	-1569
▁pat	-1570
▁vuoksi	-1571
ateg	-1572
▁today	-1573
▁decision	-1574
▁yhteyd	-1575
▁necess	-1576
▁further	-1577
▁ir	-1578
▁vuonna	-1579
▁maan	-1580
▁problems	-1581
▁budget	-1582
▁contin	-1583
▁pitä	-1584
▁fo	-1585
iaat	-1586
ipp	-1587
istaa	-1588
▁edusta	-1589
▁region	-1590
▁direktiiv	-1591
▁keskustel	-1592
ference	-1593
▁much	-1594
▁int	-1595
▁tekn	-1596
▁jul	-1597
ays	-1598
▁syy	-1599
ttämä	-1600
▁kirj	-1601
▁mikä	-1602
imin	-1603
puol	-1604
▁contro	-1605
▁esta	-1606
tua	-1607
udessa	-1608
act	-1609
ful	-1610
ieh	-1611
ready	-1612
▁own	-1613
▁course	-1614
ld	-1615
▁consum	-1616
▁given	-1617
▁directive	-1618
elf	-1619
▁compet	-1620
tyä	-1621
▁kansalais	-1622
▁transport	-1623
▁already	-1624
ene	-1625
▁rik	-1626
▁sis	-1627
▁maj	-1628
▁impro	-1629
▁artic	-1630
▁real	-1631
▁valv	-1632
amm	-1633
▁rahoit	-1634
▁ulk	-1635
▁curr	-1636
▁procedure	-1637
emmin	-1638
ässä	-1639
itions	-1640
▁meet	-1641
nä	-1642
▁effec	-1643
▁lainsäädän	-1644
pro	-1645
vää	-1646
tin	-1647
ityks	-1648
▁vote	-1649
▁hope	-1650
▁examp	-1651
▁joiden	-1652
usti	-1653
▁na	-1654
▁end	-1655
▁major	-1656
anne	-1657
▁jäsenvaltioiden	-1658
▁accep	-1659
otta	-1660
▁onn	-1661
▁voit	-1662
uksi	-1663
nl	-1664
icult	-1665
▁trade	-1666
▁laaj	-1667
▁opin	-1668
▁means	-1669
onta	-1670
▁rul	-1671
▁spe	-1672
▁toimenpite	-1673
▁cond	-1674
▁kaup	-1675
ysten	-1676
▁before	-1677
▁pur	-1678
▁koul	-1679
▁without	-1680
ily	-1681
ior	-1682
▁ur	-1683
alaisten	-1684
▁maks	-1685
▁pl	-1686
▁siis	-1687
▁eh	-1688
uring	-1689
▁citizens	-1690
mark	-1691
▁pow	-1692
▁arvio	-1693
▁repres	-1694
▁kil	-1695
enta	-1696
▁het	-1697
▁call	-1698
oista	-1699
ityksen	-1700
▁establish	-1701
gl	-1702
▁protection	-1703
eseen	-1704
▁vaike	-1705
▁julk	-1706
▁suor	-1707
▁osalta	-1708
▁niitä	-1709
istun	-1710
ci	-1711
ru	-1712
▁tie	-1713
tettä	-1714
▁stand	-1715
▁pyy	-1716
▁asio	-1717
▁seuraav	-1718
kom	-1719
▁aina	-1720
▁government	-1721
▁sisäl	-1722
▁last	-1723
uva	-1724
▁want	-1725
ety	-1726
▁equ	-1727
▁ky	-1728
▁kau	-1729
▁sm	-1730
alth	-1731
▁tekem	-1732
ft	-1733
alf	-1734
isions	-1735
▁kolleg	-1736
▁amendments	-1737
mär	-1738
eh	-1739
esty	-1740
ivan	-1741
▁sign	-1742
▁believe	-1743
▁process	-1744
itta	-1745
au	-1746
ession	-1747
▁nor	-1748
▁saav	-1749
ount	-1750
ster	-1751
ork	-1752
▁basis	-1753
▁ette	-1754
iti	-1755
kij	-1756
ivers	-1757
minist	-1758
aal	-1759
sue	-1760
▁yhteydessä	-1761
▁yksi	-1762
▁why	-1763
ustann	-1764
▁mill	-1765
own	-1766
▁deal	-1767
▁provid	-1768
▁necessary	-1769
uct	-1770
ran	-1771
paik	-1772
▁after	-1773
▁ach	-1774
uksiin	-1775
▁present	-1776
ilta	-1777
▁add	-1778
urity	-1779
▁ph	-1780
kuuta	-1781
▁rules	-1782
ph	-1783
▁thir	-1784
▁specific	-1785
▁behalf	-1786
▁kuu	-1787
▁house	-1788
toa	-1789
▁acti	-1790
sel	-1791
bour	-1792
▁peruste	-1793
▁ainoastaan	-1794
▁fra	-1795
ier	-1796
▁maail	-1797
▁kal	-1798
▁guar	-1799
▁able	-1800
▁vaku	-1801
▁puut	-1802
issaar	-1803
oim	-1804
kka	-1805
cing	-1806
▁give	-1807
teiden	-1808
▁meillä	-1809
rem	-1810
▁yhteen	-1811
▁authorities	-1812
ettu	-1813
▁valmis	-1814
ss	-1815
että	-1816
▁let	-1817
ilu	-1818
cu	-1819
▁exc	-1820
▁example	-1821
▁security	-1822
▁ajat	-1823
▁article	-1824
▁soc	-1825
▁vapa	-1826
▁yhteisö	-1827
▁applic	-1828
▁välttämä	-1829
▁avo	-1830
▁financial	-1831
lus	-1832
▁fre	-1833
▁työn	-1834
▁inde	-1835
▁position	-1836
▁olemassa	-1837
▁control	-1838
▁fish	-1839
▁mone	-1840
ctions	-1841
▁aid	-1842
▁gre	-1843
▁tieto	-1844
▁hänen	-1845
▁kulutta	-1846
ized	-1847
▁siin	-1848
▁komissaar	-1849
bly	-1850
▁general	-1851
▁ym	-1852
ency	-1853
▁objec	-1854
ates	-1855
tives	-1856
▁whether	-1857
mien	-1858
▁tuom	-1859
gement	-1860
kuv	-1861
▁ref	-1862
▁tehok	-1863
▁edistä	-1864
▁wish	-1865
▁place	-1866
▁health	-1867
▁services	-1868
▁your	-1869
udesta	-1870
▁third	-1871
▁und	-1872
▁päiv	-1873
▁aloit	-1874
▁ase	-1875
ange	-1876
itive	-1877
▁ilmoit	-1878
ger	-1879
▁tax	-1880
▁area	-1881
▁simp	-1882
kiksi	-1883
ii	-1884
uutta	-1885
▁kilpa	-1886
▁suoj	-1887
▁guarante	-1888
vaa	-1889
ining	-1890
▁laus	-1891
▁suos	-1892
astus	-1893
▁madam	-1894
isessa	-1895
ah	-1896
▁fe	-1897
▁todell	-1898
▁administ	-1899
ani	-1900
kohta	-1901
▁require	-1902
ulttu	-1903
tend	-1904
▁democrat	-1905
▁tulevaisu	-1906
▁noud	-1907
▁sing	-1908
▁concerned	-1909
▁kiel	-1910
▁tärkeää	-1911
▁agr	-1912
▁issue	-1913
▁respect	-1914
▁menettely	-1915
vement	-1916
ties	-1917
▁prev	-1918
▁sitten	-1919
▁siinä	-1920
kk	-1921
▁chair	-1922
▁dut	-1923
▁sector	-1924
▁areas	-1925
▁miten	-1926
▁näiden	-1927
▁päätöslaus	-1928
icul	-1929
iety	-1930
▁world	-1931
mit	-1932
unnit	-1933
▁ep	-1934
▁saada	-1935
▁mis	-1936
anta	-1937
▁täysin	-1938
paa	-1939
▁ev	-1940
▁ymmär	-1941
ila	-1942
▁proposals	-1943
▁paik	-1944
▁ensure	-1945
▁maiden	-1946
hip	-1947
▁amster	-1948
▁talousarv	-1949
attom	-1950
▁valiokunnan	-1951
▁käyttöön	-1952
▁passitus	-1953
▁saf	-1954
▁mod	-1955
▁luonn	-1956
▁vel	-1957
ges	-1958
ha	-1959
▁united	-1960
▁enemmän	-1961
▁todella	-1962
▁prac	-1963
▁employment	-1964
▁mahdollisu	-1965
cc	-1966
▁tele	-1967
▁kehittä	-1968
tavan	-1969
öy	-1970
▁muod	-1971
▁legislation	-1972
▁pel	-1973
▁minun	-1974
▁vastu	-1975
▁opp	-1976
udet	-1977
joon	-1978
▁kulttu	-1979
pend	-1980
▁pien	-1981
▁rans	-1982
▁affair	-1983
▁bo	-1984
age	-1985
ueen	-1986
▁office	-1987
▁forward	-1988
▁opinion	-1989
▁juuri	-1990
taminen	-1991
▁ti	-1992
rodu	-1993
▁fraud	-1994
▁esimerkiksi	-1995
▁sovel	-1996
▁aikana	-1997
▁jäsenvalti	-1998
euro	-1999
▁compan	-2000
▁aw	-2001
tetään	-2002
nön	-2003
▁miljoon	-2004
ps	-2005
▁nat	-2006
▁ecu	-2007
▁women	-2008
▁adopted	-2009
ale	-2010
tyy	-2011
ällä	-2012
▁ann	-2013
▁sw	-2014
▁cre	-2015
pportun	-2016
▁opportun	-2017
▁regulation	-2018
▁ste	-2019
lar	-2020
▁relations	-2021
▁od	-2022
▁lar	-2023
▁inte	-2024
isty	-2025
▁amendment	-2026
utu	-2027
▁increas	-2028
▁merkittä	-2029
uvat	-2030
▁suun	-2031
▁ottaa	-2032
▁introdu	-2033
▁muu	-2034
▁ital	-2035
▁sell	-2036
isestä	-2037
▁toimin	-2038
ek	-2039
▁tehtä	-2040
▁voivat	-2041
ially	-2042
▁työllis	-2043
▁neuvot	-2044
pri	-2045
▁strateg	-2046
▁asiassa	-2047
▁exist	-2048
ov	-2049
▁yrit	-2050
ential	-2051
▁three	-2052
astr	-2053
ize	-2054
▁ava	-2055
▁dist	-2056
▁progress	-2057
▁single	-2058
▁resolution	-2059
▁av	-2060
▁ul	-2061
ines	-2062
▁tavar	-2063
▁eurooppalais	-2064
▁siten	-2065
▁thank	-2066
▁tavoit	-2067
ferens	-2068
talous	-2069
led	-2070
isista	-2071
ined	-2072
▁eli	-2073
▁sil	-2074
▁mahdollista	-2075
ttöm	-2076
▁stud	-2077
aisiin	-2078
▁ilman	-2079
▁direct	-2080
▁tärkeä	-2081
tojen	-2082
tavasti	-2083
▁ru	-2084
▁fore	-2085
ner	-2086
▁serious	-2087
apa	-2088
ination	-2089
▁saat	-2090
▁kysymys	-2091
▁välillä	-2092
▁industry	-2093
gin	-2094
▁yhtä	-2095
▁koskevan	-2096
▁toiminta	-2097
oita	-2098
other	-2099
▁full	-2100
▁terve	-2101
ral	-2102
▁crit	-2103
erta	-2104
▁ajan	-2105
▁sanoa	-2106
▁cos	-2107
▁used	-2108
▁herra	-2109
▁kiinn	-2110
▁kehitys	-2111
▁hand	-2112
▁aivan	-2113
▁käytän	-2114
▁affairs	-2115
▁contrib	-2116
▁minister	-2117
anom	-2118
▁allow	-2119
▁som	-2120
▁ext	-2121
▁mietinnön	-2122
ottaa	-2123
▁implemen	-2124
ately	-2125
▁toimiel	-2126
▁lad	-2127
▁rep	-2128
▁annet	-2129
▁ihmisoike	-2130
▁environment	-2131
▁prior	-2132
▁keskustelu	-2133
ote	-2134
▁mukaisesti	-2135
imen	-2136
sibility	-2137
▁mana	-2138
▁agree	-2139
▁ladies	-2140
▁tänään	-2141
une	-2142
ving	-2143
ett	-2144
▁conference	-2145
▁exper	-2146
▁jolla	-2147
▁yhden	-2148
▁joilla	-2149
▁vastaav	-2150
▁institution	-2151
änä	-2152
▁syn	-2153
avour	-2154
▁kustann	-2155
eldr	-2156
▁redu	-2157
▁pay	-2158
▁terms	-2159
▁kuljet	-2160
▁comple	-2161
goti	-2162
isessä	-2163
▁valtio	-2164
▁kasv	-2165
▁att	-2166
▁ban	-2167
▁negoti	-2168
▁vaikut	-2169
▁whole	-2170
ettava	-2171
▁voimme	-2172
med	-2173
tenä	-2174
▁etu	-2175
▁tun	-2176
ality	-2177
▁tutkin	-2178
▁joissa	-2179
toja	-2180
▁sov	-2181
▁prosent	-2182
kee	-2183
▁ide	-2184
oksia	-2185
▁issu	-2186
▁amsterdam	-2187
kojen	-2188
raatt	-2189
▁costs	-2190
▁particularly	-2191
▁initi	-2192
▁different	-2193
ases	-2194
yyden	-2195
▁käyttä	-2196
inten	-2197
▁ehkä	-2198
▁säännö	-2199
▁näkö	-2200
▁pan	-2201
▁yleis	-2202
▁toimiv	-2203
▁principle	-2204
▁gent	-2205
▁presiden	-2206
jects	-2207
▁aikaan	-2208
enn	-2209
usin	-2210
▁fram	-2211
▁kahd	-2212
stan	-2213
ences	-2214
iokunnan	-2215
▁each	-2216
▁role	-2217
▁bal	-2218
▁sä	-2219
etty	-2220
▁sopimuksen	-2221
▁struct	-2222
kia	-2223
▁find	-2224
▁asiasta	-2225
ack	-2226
uuden	-2227
▁yli	-2228
iassa	-2229
▁lead	-2230
▁another	-2231
▁aim	-2232
▁avu	-2233
▁suhteen	-2234
▁agreements	-2235
ryh	-2236
▁sum	-2237
▁result	-2238
▁yhtenä	-2239
earch	-2240
osten	-2241
▁research	-2242
▁pain	-2243
▁del	-2244
▁democratic	-2245
▁anal	-2246
▁refer	-2247
▁avulla	-2248
asio	-2249
▁come	-2250
▁riittä	-2251
▁pitäisi	-2252
▁esittelijä	-2253
▁quite	-2254
▁mitään	-2255
▁toteutta	-2256
soci	-2257
▁kaksi	-2258
▁job	-2259
▁bene	-2260
uksissa	-2261
▁koskee	-2262
bur	-2263
mon	-2264
wards	-2265
ytyy	-2266
ostaa	-2267
▁teoll	-2268
▁kaikkia	-2269
▁following	-2270
▁mik	-2271
▁energy	-2272
▁minu	-2273
▁reason	-2274
▁lat	-2275
▁appropri	-2276
aston	-2277
▁asem	-2278
▁writ	-2279
ton	-2280
▁nu	-2281
ying	-2282
▁next	-2283
▁tarpe	-2284
▁toivon	-2285
▁approach	-2286
▁maailman	-2287
töön	-2288
▁sat	-2289
isivat	-2290
isuutta	-2291
▁goods	-2292
▁periaat	-2293
▁products	-2294
▁gentlemen	-2295
▁puheenjohtaj	-2296
▁going	-2297
▁did	-2298
yttää	-2299
▁vaar	-2300
allisesti	-2301
▁itä	-2302
▁rece	-2303
▁accord	-2304
▁alalla	-2305
▁associ	-2306
▁onko	-2307
ida	-2308
▁laat	-2309
▁mainit	-2310
▁toiminn	-2311
▁occ	-2312
vention	-2313
▁tavalla	-2314
▁expr	-2315
▁täll	-2316
als	-2317
▁ty	-2318
ämme	-2319
▁during	-2320
öytä	-2321
teell	-2322
▁cor	-2323
ember	-2324
▁ment	-2325
▁green	-2326
▁presidency	-2327
uksena	-2328
▁happ	-2329
▁unioni	-2330
▁uudell	-2331
▁ess	-2332
▁done	-2333
▁speak	-2334
▁laatim	-2335
▁rajoit	-2336
▁look	-2337
▁kokon	-2338
▁framew	-2339
▁small	-2340
▁voida	-2341
▁regional	-2342
▁kiit	-2343
▁suure	-2344
▁suc	-2345
▁vaih	-2346
▁tehtävä	-2347
▁temp	-2348
▁conditions	-2349
res	-2350
▁olevan	-2351
▁komissaari	-2352
▁institutions	-2353
misestä	-2354
▁tiedon	-2355
ient	-2356
ikke	-2357
▁docu	-2358
▁met	-2359
yyttä	-2360
▁kaupp	-2361
▁tavoitte	-2362
ivid	-2363
sequ	-2364
▁lim	-2365
▁brit	-2366
▁artiklan	-2367
han	-2368
▁seem	-2369
▁favour	-2370
▁vaatim	-2371
▁amer	-2372
▁hyöd	-2373
▁tulisi	-2374
come	-2375
▁hetk	-2376
▁vaat	-2377
amaan	-2378
▁framework	-2379
▁standard	-2380
ep	-2381
▁prom	-2382
▁educ	-2383
▁olev	-2384
▁ettei	-2385
▁non	-2386
▁least	-2387
▁otta	-2388
lu	-2389
▁clos	-2390
tettiin	-2391
velu	-2392
usiness	-2393
▁tapauksessa	-2394
▁ulkop	-2395
koja	-2396
▁ohjelm	-2397
▁oikeudell	-2398
▁eas	-2399
yhte	-2400
▁abs	-2401
▁väär	-2402
▁varten	-2403
▁environmental	-2404
▁em	-2405
isti	-2406
▁vall	-2407
▁resour	-2408
▁unders	-2409
▁back	-2410
▁tarjo	-2411
▁free	-2412
uteen	-2413
▁asiakir	-2414
▁business	-2415
▁technolog	-2416
▁joint	-2417
▁uudelleen	-2418
▁sanot	-2419
▁koskevat	-2420
istön	-2421
▁down	-2422
ilj	-2423
▁bro	-2424
ically	-2425
▁kannat	-2426
taneet	-2427
▁net	-2428
▁really	-2429
▁few	-2430
tru	-2431
▁saan	-2432
▁guarantee	-2433
entä	-2434
sopimuksen	-2435
ogn	-2436
ration	-2437
▁various	-2438
the	-2439
▁mor	-2440
▁kansalaisten	-2441
▁hä	-2442
▁justi	-2443
▁discuss	-2444
utes	-2445
▁hyvät	-2446
▁heidän	-2447
ital	-2448
▁hist	-2449
▁täy	-2450
inkerta	-2451
nn	-2452
mää	-2453
▁recogn	-2454
ffic	-2455
▁tasolla	-2456
ict	-2457
ives	-2458
▁rev	-2459
▁yksity	-2460
mät	-2461
▁grow	-2462
▁täyd	-2463
▁inves	-2464
▁party	-2465
▁account	-2466
▁internal	-2467
▁kaikkien	-2468
▁lopuksi	-2469
järjestelmän	-2470
aut	-2471
pects	-2472
▁sopimus	-2473
▁programm	-2474
ena	-2475
▁less	-2476
vities	-2477
▁den	-2478
▁osallist	-2479
aik	-2480
▁kum	-2481
▁näy	-2482
▁vot	-2483
▁involved	-2484
▁kään	-2485
▁ryhmän	-2486
▁activities	-2487
gue	-2488
▁kulttuur	-2489
▁demokrat	-2490
▁valtu	-2491
▁täällä	-2492
▁working	-2493
▁äänestä	-2494
▁hetkellä	-2495
ised	-2496
öiden	-2497
▁muiden	-2498
▁points	-2499
kul	-2500
▁kuinka	-2501
▁täytyy	-2502
▁tapahtu	-2503
▁yhä	-2504
ways	-2505
▁open	-2506
isella	-2507
▁edelleen	-2508
▁parlamenti	-2509
▁mietinnössä	-2510
▁espec	-2511
▁tor	-2512
▁perio	-2513
tetty	-2514
▁nope	-2515
▁keske	-2516
▁regions	-2517
ror	-2518
▁meille	-2519
▁tyy	-2520
▁perustamis	-2521
ota	-2522
▁konferens	-2523
eltä	-2524
▁tah	-2525
▁special	-2526
▁communic	-2527
▁proposed	-2528
ged	-2529
oksen	-2530
▁riipp	-2531
▁resources	-2532
ding	-2533
▁kuitenkaan	-2534
▁asiaa	-2535
ba	-2536
unut	-2537
▁johta	-2538
▁clearly	-2539
ues	-2540
▁effort	-2541
▁mention	-2542
▁towards	-2543
ban	-2544
tand	-2545
ette	-2546
▁ehd	-2547
ified	-2548
▁once	-2549
▁based	-2550
▁liber	-2551
äätö	-2552
▁questions	-2553
var	-2554
▁finally	-2555
▁maatalous	-2556
▁wel	-2557
▁vuor	-2558
▁though	-2559
iste	-2560
töjen	-2561
▁safety	-2562
▁prof	-2563
politiikan	-2564
▁programmes	-2565
ngl	-2566
▁lait	-2567
▁ear	-2568
▁enc	-2569
▁funds	-2570
▁tarkas	-2571
▁itself	-2572
▁tiedot	-2573
▁bse	-2574
iir	-2575
ength	-2576
▁power	-2577
urn	-2578
itsee	-2579
▁eten	-2580
▁needs	-2581
▁samaa	-2582
▁express	-2583
▁service	-2584
din	-2585
isem	-2586
▁accept	-2587
▁issues	-2588
▁kertom	-2589
▁rather	-2590
ium	-2591
▁z	-2592
son	-2593
▁sal	-2594
istan	-2595
▁rauh	-2596
▁velv	-2597
▁rouva	-2598
▁especially	-2599
▁individ	-2600
▁minä	-2601
▁difficult	-2602
▁responsible	-2603
▁univers	-2604
jaan	-2605
tific	-2606
▁central	-2607
itsem	-2608
▁project	-2609
cted	-2610
▁bar	-2611
▁foreign	-2612
▁consumer	-2613
▁projects	-2614
enä	-2615
opan	-2616
quir	-2617
table	-2618
▁benef	-2619
▁kysymyksen	-2620
elu	-2621
ket	-2622
koh	-2623
otion	-2624
▁selke	-2625
▁former	-2626
▁koskeva	-2627
▁turvallisuus	-2628
gu	-2629
▁myönte	-2630
▁suunnit	-2631
▁training	-2632
▁vih	-2633
....	-2634
▁ans	-2635
▁recom	-2636
▁million	-2637
▁society	-2638
tor	-2639
raph	-2640
▁yet	-2641
▁tilante	-2642
▁importance	-2643
▁better	-2644
▁toinen	-2645
over	-2646
▁pääs	-2647
▁rema	-2648
▁ammat	-2649
▁read	-2650
▁chang	-2651
aisesti	-2652
racy	-2653
▁ger	-2654
▁ten	-2655
▁achie	-2656
enda	-2657
tavaa	-2658
▁perh	-2659
▁vara	-2660
idence	-2661
▁alueella	-2662
ething	-2663
määr	-2664
▁tukea	-2665
ace	-2666
▁rem	-2667
▁viit	-2668
▁star	-2669
▁muuta	-2670
ulation	-2671
▁pyyd	-2672
▁usein	-2673
▁policies	-2674
▁käyttää	-2675
▁eurooppa	-2676
▁recommend	-2677
▁concerning	-2678
äli	-2679
▁off	-2680
▁hallinn	-2681
▁something	-2682
▁individual	-2683
▁bod	-2684
▁show	-2685
▁bring	-2686
vuor	-2687
▁esittää	-2688
▁kaikkea	-2689
▁fiel	-2690
ame	-2691
▁sur	-2692
▁cases	-2693
▁integr	-2694
▁liiken	-2695
▁harjoit	-2696
▁risk	-2697
▁rad	-2698
tekij	-2699
▁paper	-2700
▁continue	-2701
koko	-2702
▁congr	-2703
▁esitys	-2704
▁provide	-2705
▁demokraatt	-2706
rib	-2707
▁vai	-2708
etaan	-2709
▁huomat	-2710
co	-2711
ho	-2712
▁kind	-2713
▁always	-2714
▁niistä	-2715
▁las	-2716
▁alger	-2717
▁addition	-2718
▁including	-2719
▁implementation	-2720
gal	-2721
▁uh	-2722
▁never	-2723
▁bu	-2724
▁poh	-2725
▁näitä	-2726
▁obs	-2727
▁agenda	-2728
▁structural	-2729
okset	-2730
▁things	-2731
▁education	-2732
ppan	-2733
▁saks	-2734
upe	-2735
▁hyväksyä	-2736
aps	-2737
▁colle	-2738
▁vapaa	-2739
▁terror	-2740
fe	-2741
▁mene	-2742
kinoiden	-2743
▁understand	-2744
eter	-2745
ohjelm	-2746
▁inquir	-2747
▁act	-2748
▁appe	-2749
▁suuri	-2750
▁making	-2751
▁period	-2752
▁meeting	-2753
▁lä	-2754
teet	-2755
▁hankke	-2756
▁indeed	-2757
▁esiin	-2758
▁syr	-2759
inä	-2760
▁cro	-2761
▁become	-2762
▁laajen	-2763
▁creat	-2764
▁proper	-2765
▁por	-2766
▁conte	-2767
▁josta	-2768
▁kunnio	-2769
▁increase	-2770
ulu	-2771
xem	-2772
ived	-2773
▁tälla	-2774
eto	-2775
rug	-2776
tynyt	-2777
▁sop	-2778
ioistu	-2779
▁toat	-2780
▁oltava	-2781
▁conclus	-2782
estys	-2783
▁sall	-2784
▁success	-2785
▁discussion	-2786
toim	-2787
▁loc	-2788
▁technical	-2789
kus	-2790
teita	-2791
▁cover	-2792
▁merkit	-2793
▁monetary	-2794
▁particip	-2795
▁interests	-2796
sv	-2797
wer	-2798
▁nel	-2799
▁viol	-2800
▁while	-2801
▁budjet	-2802
▁consequ	-2803
▁samalla	-2804
ove	-2805
▁objective	-2806
elta	-2807
ible	-2808
▁commit	-2809
inti	-2810
▁dele	-2811
ustus	-2812
▁chairman	-2813
imes	-2814
tunut	-2815
▁alle	-2816
▁char	-2817
▁avail	-2818
▁yksinkerta	-2819
tle	-2820
ness	-2821
ither	-2822
▁drug	-2823
▁enter	-2824
puh	-2825
ret	-2826
▁johd	-2827
▁luku	-2828
gether	-2829
▁luxem	-2830
▁muist	-2831
▁taking	-2832
▁systems	-2833
▁attention	-2834
töntä	-2835
▁application	-2836
▁.	-2837
▁exam	-2838
▁enää	-2839
▁farm	-2840
▁puheenvuor	-2841
▁subs	-2842
ettävä	-2843
kuussa	-2844
▁mikäli	-2845
▁noudat	-2846
oilla	-2847
▁missä	-2848
▁kannalta	-2849
▁administrat	-2850
västi	-2851
▁vast	-2852
▁court	-2853
▁lisää	-2854
▁sovit	-2855
▁congrat	-2856
▁hon	-2857
ettel	-2858
imman	-2859
▁found	-2860
▁assist	-2861
▁companies	-2862
istic	-2863
▁sill	-2864
öytäkir	-2865
töä	-2866
▁actu	-2867
▁anne	-2868
▁maata	-2869
▁valit	-2870
emm	-2871
ume	-2872
▁luom	-2873
▁supp	-2874
▁resul	-2875
▁available	-2876
jaa	-2877
▁rule	-2878
rah	-2879
▁demand	-2880
▁german	-2881
▁toimia	-2882
▁congratul	-2883
of	-2884
pl	-2885
▁peace	-2886
▁writing	-2887
▁procedures	-2888
has	-2889
opa	-2890
thers	-2891
▁impos	-2892
ilar	-2893
ists	-2894
▁get	-2895
▁sella	-2896
▁contain	-2897
▁hallitusten	-2898
▁fle	-2899
▁hol	-2900
anoma	-2901
▁monit	-2902
▁provided	-2903
▁voisi	-2904
▁kautta	-2905
▁official	-2906
ogue	-2907
wh	-2908
▁voitaisiin	-2909
oon	-2910
▁large	-2911
▁analys	-2912
▁kerran	-2913
▁democracy	-2914
ench	-2915
ented	-2916
oda	-2917
▁mean	-2918
▁others	-2919
▁yhdessä	-2920
kien	-2921
▁johon	-2922
▁inquiry	-2923
taval	-2924
▁voin	-2925
▁month	-2926
▁decisions	-2927
▁effective	-2928
▁valiokunta	-2929
▁uuden	-2930
▁jäsenet	-2931
pal	-2932
tim	-2933
▁puhu	-2934
▁person	-2935
kunnassa	-2936
ath	-2937
▁espan	-2938
▁liian	-2939
▁request	-2940
ience	-2941
▁greater	-2942
▁deta	-2943
▁korke	-2944
▁having	-2945
▁perhaps	-2946
aval	-2947
ceed	-2948
▁matters	-2949
though	-2950
▁might	-2951
▁tehokka	-2952
▁strength	-2953
▁ecua	-2954
kot	-2955
▁uskon	-2956
▁joista	-2957
menettely	-2958
▁together	-2959
▁responsibility	-2960
täntöön	-2961
▁dial	-2962
▁majority	-2963
ulta	-2964
▁tehty	-2965
▁fisher	-2966
▁administrative	-2967
art	-2968
▁lab	-2969
annin	-2970
▁reach	-2971
▁invest	-2972
▁practic	-2973
imiel	-2974
▁access	-2975
▁suosit	-2976
▁miljoonaa	-2977
▁appropriate	-2978
kel	-2979
enty	-2980
▁inn	-2981
▁appl	-2982
▁uusi	-2983
▁representa	-2984
uminen	-2985
▁deleg	-2986
▁silloin	-2987
▁although	-2988
▁yhteisen	-2989
▁päätöksen	-2990
▁neuvottelu	-2991
▁teks	-2992
▁context	-2993
▁adv	-2994
▁lää	-2995
▁toisa	-2996
▁convention	-2997
▁text	-2998
▁draft	-2999
▁simply	-3000
▁fis	-3001
▁ple	-3002
▁jopa	-3003
.)	-3004
alue	-3005
▁varm	-3006
▁aware	-3007
▁often	-3008
▁negotiations	-3009
▁lit	-3010
▁ryhmä	-3011
▁selvästi	-3012
▁competition	-3013
▁perusteella	-3014
▁comb	-3015
tettävä	-3016
".	-3017
▁sää	-3018
oiden	-3019
▁teille	-3020
▁täytäntöön	-3021
opp	-3022
ksiin	-3023
▁essential	-3024
▁provisions	-3025
'.	-3026
yssä	-3027
▁certainly	-3028
▁liittyvät	-3029
▁lyh	-3030
▁luot	-3031
▁among	-3032
▁ulkopu	-3033
icultural	-3034
miä	-3035
▁words	-3036
▁varmis	-3037
▁production	-3038
▁jäsenvaltiot	-3039
▁communication	-3040
iaa	-3041
uut	-3042
utet	-3043
olitiik	-3044
▁dialogue	-3045
▁ge	-3046
itetään	-3047
▁oikeuden	-3048
▁above	-3049
▁toisaalta	-3050
▁kirjallisesti	-3051
▁parlamentissa	-3052
day	-3053
▁bur	-3054
tavia	-3055
▁press	-3056
▁kyseessä	-3057
ave	-3058
iltä	-3059
▁avoim	-3060
▁kohta	-3061
▁kollegat	-3062
▁management	-3063
▁opportunity	-3064
▁ber	-3065
▁kansan	-3066
▁organis	-3067
▁agricultural	-3068
ility	-3069
▁final	-3070
▁short	-3071
▁table	-3072
▁change	-3073
▁markkin	-3074
▁valitet	-3075
▁unf	-3076
arity	-3077
▁four	-3078
▁vaad	-3079
innä	-3080
missa	-3081
mällä	-3082
joiden	-3083
▁positive	-3084
▁euroopassa	-3085
▁luo	-3086
iselle	-3087
▁paran	-3088
oo	-3089
era	-3090
käs	-3091
kseni	-3092
▁meth	-3093
▁seems	-3094
▁yhdys	-3095
▁aspects	-3096
▁otetaan	-3097
tice	-3098
▁pois	-3099
▁indic	-3100
arvo	-3101
tions	-3102
▁vaihto	-3103
gg	-3104
▁coord	-3105
▁encour	-3106
▁reform	-3107
▁results	-3108
oub	-3109
alan	-3110
▁alku	-3111
▁kalastus	-3112
▁war	-3113
itykset	-3114
kiv	-3115
ler	-3116
▁cul	-3117
▁rais	-3118
uvoston	-3119
▁assess	-3120
▁ratkaisu	-3121
ikan	-3122
▁emphas	-3123
▁cult	-3124
▁enlar	-3125
▁increasing	-3126
anto	-3127
ehto	-3128
ners	-3129
▁air	-3130
▁etenkin	-3131
▁prosenttia	-3132
▁bl	-3133
omme	-3134
maiden	-3135
▁apply	-3136
▁onnit	-3137
▁esille	-3138
▁strong	-3139
▁colleag	-3140
▁pöytäkir	-3141
by	-3142
▁jobs	-3143
▁kuuka	-3144
▁minist	-3145
▁subsid	-3146
▁korva	-3147
▁vihre	-3148
▁method	-3149
▁tavoitteen	-3150
▁dr	-3151
kail	-3152
pect	-3153
ju	-3154
itaan	-3155
ittava	-3156
uclear	-3157
ning	-3158
▁työs	-3159
astrich	-3160
▁parlamentille	-3161
osu	-3162
▁unemp	-3163
▁käsittely	-3164
▁ehdotuksen	-3165
oh	-3166
▁jär	-3167
▁groups	-3168
▁constit	-3169
koa	-3170
▁lang	-3171
▁puitte	-3172
mpi	-3173
isto	-3174
tuna	-3175
▁tempus	-3176
▁tom	-3177
imatta	-3178
▁uudist	-3179
▁työpaik	-3180
opuh	-3181
▁muita	-3182
▁valtion	-3183
▁maastrich	-3184
jän	-3185
amen	-3186
▁answer	-3187
▁tilanne	-3188
intar	-3189
▁oppos	-3190
▁nuclear	-3191
▁työntekij	-3192
edn	-3193
▁bio	-3194
▁regulations	-3195
mer	-3196
itsi	-3197
▁effect	-3198
▁powers	-3199
hing	-3200
bourg	-3201
▁artikl	-3202
▁welcome	-3203
iu	-3204
▁jouk	-3205
▁huole	-3206
▁french	-3207
▁tietty	-3208
▁vuotta	-3209
por	-3210
▁anim	-3211
▁muun	-3212
▁histor	-3213
▁ongelmia	-3214
mun	-3215
▁pop	-3216
▁belg	-3217
▁orig	-3218
▁päät	-3219
▁swed	-3220
▁ongelma	-3221
▁partners	-3222
tie	-3223
▁ras	-3224
▁plan	-3225
▁budge	-3226
▁alueen	-3227
▁field	-3228
▁monitor	-3229
yks	-3230
▁care	-3231
▁extrem	-3232
▁maissa	-3233
▁kumppan	-3234
▁liikkuv	-3235
▁haluamme	-3236
▁force	-3237
▁lain	-3238
▁netw	-3239
ettiin	-3240
▁parem	-3241
▁instru	-3242
▁vuoropuh	-3243
▁vol	-3244
isistä	-3245
▁pysty	-3246
▁reports	-3247
iku	-3248
tif	-3249
tyvä	-3250
▁wto	-3251
▁fail	-3252
▁reasons	-3253
perä	-3254
▁konk	-3255
▁budgetary	-3256
ants	-3257
▁siv	-3258
▁katso	-3259
▁ihm	-3260
▁rele	-3261
▁freed	-3262
▁arvois	-3263
▁lisään	-3264
▁urg	-3265
mitte	-3266
▁alban	-3267
▁osoittaa	-3268
ament	-3269
iiken	-3270
lleen	-3271
lleet	-3272
ellisen	-3273
▁aiheutta	-3274
hti	-3275
ineet	-3276
▁food	-3277
▁vakav	-3278
▁esitysl	-3279
▁include	-3280
isimme	-3281
▁julka	-3282
▁total	-3283
▁verot	-3284
▁unionissa	-3285
▁säil	-3286
▁ensi	-3287
utettu	-3288
▁current	-3289
▁freedom	-3290
▁naisten	-3291
▁yksityis	-3292
yyn	-3293
thing	-3294
▁sure	-3295
▁happen	-3296
▁määrit	-3297
▁huolimatta	-3298
pt	-3299
jojen	-3300
▁uusia	-3301
▁syrj	-3302
▁koulut	-3303
llisesti	-3304
▁kiittää	-3305
▁secondly	-3306
▁vaal	-3307
uksella	-3308
▁ottaen	-3309
mässä	-3310
ryhmän	-3311
▁local	-3312
gos	-3313
ensä	-3314
▁mie	-3315
ustaa	-3316
▁santer	-3317
▁viranom	-3318
ica	-3319
mieh	-3320
▁kolme	-3321
▁kilpailu	-3322
▁au	-3323
▁inf	-3324
▁coll	-3325
▁kuuluu	-3326
▁olivat	-3327
▁luonnoll	-3328
▁toiseksi	-3329
▁buil	-3330
▁cost	-3331
▁pitkä	-3332
iculture	-3333
▁yksimiel	-3334
ab	-3335
▁prec	-3336
anomaisten	-3337
▁välttämätöntä	-3338
▁create	-3339
iiv	-3340
jia	-3341
▁play	-3342
ittele	-3343
▁monet	-3344
▁sever	-3345
▁kilpail	-3346
▁kolmann	-3347
kki	-3348
less	-3349
▁eril	-3350
▁liittyy	-3351
▁substan	-3352
▁yhteistyötä	-3353
▁civ	-3354
▁origin	-3355
▁rahoitus	-3356
ided	-3357
amental	-3358
▁huomiota	-3359
▁feel	-3360
▁lack	-3361
▁motion	-3362
enc	-3363
into	-3364
▁movement	-3365
mi	-3366
▁carr	-3367
▁lent	-3368
▁tode	-3369
allisen	-3370
▁aiheut	-3371
▁efforts	-3372
▁extremely	-3373
▁she	-3374
▁vis	-3375
▁laad	-3376
▁portu	-3377
▁growth	-3378
▁patent	-3379
▁justice	-3380
▁sovelta	-3381
▁strengthen	-3382
ee	-3383
pit	-3384
tar	-3385
eria	-3386
ollisu	-3387
▁improve	-3388
ade	-3389
blig	-3390
parl	-3391
▁tot	-3392
vissä	-3393
▁centre	-3394
▁prevent	-3395
▁fun	-3396
▁achieve	-3397
▁mahdollis	-3398
unnon	-3399
▁ydin	-3400
▁suhta	-3401
▁direktiivin	-3402
ikö	-3403
▁hi	-3404
ynyt	-3405
▁vahvista	-3406
gen	-3407
ona	-3408
▁him	-3409
engen	-3410
▁thing	-3411
vernmental	-3412
▁association	-3413
▁käsittelevän	-3414
▁uk	-3415
▁best	-3416
▁sääd	-3417
▁oblig	-3418
▁initiative	-3419
▁hallituksen	-3420
▁chil	-3421
▁aloitte	-3422
iss	-3423
ingas	-3424
▁pidä	-3425
▁ruot	-3426
▁youn	-3427
ellään	-3428
uttava	-3429
elun	-3430
tens	-3431
▁pysy	-3432
asioita	-3433
▁signific	-3434
▁restr	-3435
misessa	-3436
▁jatkuv	-3437
itar	-3438
kohd	-3439
▁toimi	-3440
▁sisäll	-3441
▁enlargement	-3442
olle	-3443
yttävä	-3444
▁istun	-3445
▁yhdenmuka	-3446
umme	-3447
▁wul	-3448
▁palvelu	-3449
▁underta	-3450
▁erityisen	-3451
▁tuomioistu	-3452
▁agriculture	-3453
▁fundamental	-3454
▁kre	-3455
▁anta	-3456
tended	-3457
▁voimak	-3458
▁välisen	-3459
kää	-3460
▁varsin	-3461
▁tarvitaan	-3462
▁tulevaisuudessa	-3463
ikka	-3464
ising	-3465
taisiin	-3466
▁little	-3467
▁selvää	-3468
▁concerns	-3469
pid	-3470
▁money	-3471
▁offer	-3472
▁kohtaan	-3473
▁valtuus	-3474
▁kuningas	-3475
voim	-3476
▁ing	-3477
▁näistä	-3478
▁mission	-3479
▁mom	-3480
iljel	-3481
▁valti	-3482
▁transl	-3483
▁cultural	-3484
▁talousarvio	-3485
▁bre	-3486
yhteis	-3487
▁ollen	-3488
▁staff	-3489
▁enough	-3490
▁tarvitse	-3491
tekn	-3492
▁harmon	-3493
▁asioita	-3494
uts	-3495
▁sul	-3496
▁aikais	-3497
▁culture	-3498
▁käsitel	-3499
▁parties	-3500
▁actually	-3501
vious	-3502
▁head	-3503
▁konkre	-3504
▁minutes	-3505
▁difficul	-3506
▁existing	-3507
atio	-3508
endit	-3509
ively	-3510
lement	-3511
▁japan	-3512
inte	-3513
▁wat	-3514
ymmen	-3515
▁advan	-3516
▁young	-3517
▁vaikuttaa	-3518
▁tutkintaval	-3519
reg	-3520
ased	-3521
eless	-3522
iation	-3523
minister	-3524
▁konkreett	-3525
gn	-3526
pre	-3527
töm	-3528
▁fed	-3529
▁erin	-3530
▁kahden	-3531
▁muutta	-3532
▁syystä	-3533
▁kr	-3534
töjä	-3535
▁lyhy	-3536
▁päättä	-3537
ellisesti	-3538
usi	-3539
omaan	-3540
▁myöh	-3541
▁miksi	-3542
▁välit	-3543
▁koulutus	-3544
je	-3545
▁infr	-3546
▁tänä	-3547
▁employ	-3548
▁recent	-3549
▁koskevien	-3550
▁komissiota	-3551
▁ympäristön	-3552
päiv	-3553
▁draw	-3554
▁obvious	-3555
▁työsken	-3556
▁edustaja	-3557
▁du	-3558
▁disa	-3559
▁ensisi	-3560
▁consumers	-3561
▁yritysten	-3562
▁esityslista	-3563
▁oma	-3564
mättä	-3565
▁lopull	-3566
▁ensinnä	-3567
▁puhemieh	-3568
lain	-3569
▁cir	-3570
▁jälleen	-3571
off	-3572
▁cam	-3573
oissa	-3574
▁civil	-3575
alainen	-3576
▁quality	-3577
governmental	-3578
lä	-3579
bud	-3580
▁pen	-3581
▁viik	-3582
isille	-3583
▁basic	-3584
▁keski	-3585
▁prepa	-3586
▁työttöm	-3587
▁principles	-3588
ika	-3589
▁tir	-3590
elves	-3591
tella	-3592
▁hoit	-3593
▁step	-3594
▁teitä	-3595
▁mielip	-3596
▁regards	-3597
▁mentioned	-3598
eks	-3599
imum	-3600
nessä	-3601
▁hard	-3602
tavien	-3603
▁asked	-3604
▁honour	-3605
▁several	-3606
erv	-3607
▁ai	-3608
ternal	-3609
▁keino	-3610
▁loppu	-3611
valio	-3612
▁taka	-3613
▁veto	-3614
▁practice	-3615
▁received	-3616
▁mahdollisimman	-3617
isf	-3618
iled	-3619
vänä	-3620
▁toi	-3621
▁yes	-3622
▁thems	-3623
▁themselves	-3624
▁ensimmäinen	-3625
ean	-3626
▁sav	-3627
▁heik	-3628
▁thus	-3629
▁vice	-3630
ection	-3631
▁dutch	-3632
▁ret	-3633
▁sim	-3634
atory	-3635
▁ilma	-3636
▁france	-3637
▁standards	-3638
▁mc	-3639
pact	-3640
▁aikaa	-3641
▁gener	-3642
▁excell	-3643
▁laajent	-3644
▁päätöslauselm	-3645
dom	-3646
▁repu	-3647
▁months	-3648
▁produc	-3649
ification	-3650
medi	-3651
▁circ	-3652
▁pyyn	-3653
▁fl	-3654
▁longer	-3655
▁objectives	-3656
oto	-3657
▁jud	-3658
▁klo	-3659
order	-3660
▁tasapa	-3661
▁tulliv	-3662
▁solution	-3663
nös	-3664
olta	-3665
▁lin	-3666
dress	-3667
▁mies	-3668
▁labour	-3669
▁toisen	-3670
▁according	-3671
▁kansallisten	-3672
ava	-3673
use	-3674
kana	-3675
orth	-3676
suoj	-3677
▁huume	-3678
▁hallitus	-3679
▁ihmisten	-3680
▁deter	-3681
▁mater	-3682
kirjoit	-3683
▁joihin	-3684
▁määräy	-3685
▁external	-3686
▁maintain	-3687
▁nimittäin	-3688
▁congratulate	-3689
ait	-3690
most	-3691
side	-3692
▁idea	-3693
▁nuor	-3694
osuhte	-3695
▁aikoo	-3696
▁until	-3697
johtaja	-3698
▁nothing	-3699
▁ranskan	-3700
▁established	-3701
ides	-3702
▁arr	-3703
▁coh	-3704
enkin	-3705
telut	-3706
▁data	-3707
▁seen	-3708
▁tais	-3709
▁doing	-3710
astojen	-3711
▁teknolog	-3712
tire	-3713
▁tukem	-3714
▁fisheries	-3715
▁osallistu	-3716
▁held	-3717
▁maat	-3718
▁share	-3719
▁moment	-3720
▁oikein	-3721
▁markkino	-3722
row	-3723
aisuus	-3724
▁joitakin	-3725
▁tutkimus	-3726
iaan	-3727
tell	-3728
vity	-3729
▁pak	-3730
▁tehnyt	-3731
▁schengen	-3732
uista	-3733
▁grad	-3734
▁tasa	-3735
▁esitetty	-3736
▁independ	-3737
▁toiminnan	-3738
▁ensinnäkin	-3739
▁täytäntöönpan	-3740
▁x	-3741
ittaa	-3742
▁item	-3743
mentary	-3744
▁italian	-3745
▁excellent	-3746
idel	-3747
jille	-3748
▁huon	-3749
▁needed	-3750
▁paikall	-3751
▁varapuh	-3752
▁strategy	-3753
päätö	-3754
tävät	-3755
▁vaihe	-3756
▁liberal	-3757
lav	-3758
▁life	-3759
▁ship	-3760
▁vanh	-3761
uvosto	-3762
▁järjestelmän	-3763
lob	-3764
masta	-3765
▁doub	-3766
▁broad	-3767
▁commer	-3768
kke	-3769
kuun	-3770
vely	-3771
▁qual	-3772
ibility	-3773
▁korkea	-3774
▁industrial	-3775
oss	-3776
yhd	-3777
▁pohj	-3778
▁turva	-3779
▁organiz	-3780
▁contribution	-3781
lands	-3782
▁alan	-3783
▁equal	-3784
ineiden	-3785
▁kuljetus	-3786
▁varmasti	-3787
▁allekirjoit	-3788
con	-3789
▁ken	-3790
agraph	-3791
▁either	-3792
▁kaupun	-3793
▁kysymyks	-3794
▁legislative	-3795
▁oh	-3796
ortun	-3797
▁tans	-3798
mitted	-3799
▁parha	-3800
▁työtä	-3801
▁tavoin	-3802
▁documents	-3803
▁yksittä	-3804
▁valitettavasti	-3805
sta	-3806
ians	-3807
▁tuo	-3808
▁chec	-3809
▁kiire	-3810
▁telev	-3811
▁approved	-3812
▁mennessä	-3813
▁required	-3814
▁valvonta	-3815
▁unemployment	-3816
▁emu	-3817
▁kaiken	-3818
▁tyytyvä	-3819
▁koskevia	-3820
▁tel	-3821
ustan	-3822
▁atta	-3823
▁noin	-3824
▁meitä	-3825
▁asiaan	-3826
▁langua	-3827
▁työllisyys	-3828
maa	-3829
äsnä	-3830
öitä	-3831
▁mel	-3832
uneet	-3833
▁aika	-3834
▁continu	-3835
▁economy	-3836
▁unfortun	-3837
valiokunnan	-3838
ival	-3839
▁glob	-3840
▁sitting	-3841
▁criteria	-3842
▁priority	-3843
▁fight	-3844
ellinen	-3845
▁rikoll	-3846
▁stress	-3847
▁useita	-3848
▁voting	-3849
euroopan	-3850
▁maatalo	-3851
▁achieved	-3852
▁käytännö	-3853
▁kehityksen	-3854
▁järjestelmä	-3855
▁poliittisen	-3856
aks	-3857
ele	-3858
ick	-3859
ley	-3860
hall	-3861
ottu	-3862
▁tekee	-3863
▁purpos	-3864
▁puitteissa	-3865
▁keskustelun	-3866
▁yllä	-3867
atives	-3868
▁day	-3869
▁riippum	-3870
▁mietintöä	-3871
politiikkaa	-3872
tig	-3873
burg	-3874
▁iden	-3875
▁pare	-3876
▁priv	-3877
▁pohjo	-3878
▁vähän	-3879
▁korostaa	-3880
▁previous	-3881
anl	-3882
▁ca	-3883
▁hor	-3884
▁raha	-3885
▁läsnä	-3886
▁entire	-3887
▁vakuut	-3888
ohjelman	-3889
▁ehdotus	-3890
▁asianmuka	-3891
urs	-3892
▁impact	-3893
▁address	-3894
▁budjetti	-3895
▁university	-3896
▁jäsenvaltioissa	-3897
eman	-3898
ujen	-3899
▁sus	-3900
▁jout	-3901
▁vien	-3902
▁portugal	-3903
▁tapahtuu	-3904
▁mahdollisuus	-3905
▁ago	-3906
▁kär	-3907
▁cred	-3908
▁joll	-3909
▁käynn	-3910
▁stage	-3911
▁minusta	-3912
▁rakenner	-3913
▁ministers	-3914
▁yhteistyön	-3915
iving	-3916
▁puhe	-3917
▁tosi	-3918
▁selvä	-3919
▁kauppa	-3920
▁huomaut	-3921
▁protect	-3922
▁workers	-3923
▁delegation	-3924
äni	-3925
▁yhdist	-3926
▁myöskään	-3927
avar	-3928
▁pot	-3929
iteet	-3930
astoin	-3931
isissa	-3932
järjesty	-3933
▁rakennerah	-3934
äärä	-3935
▁bure	-3936
▁term	-3937
▁effic	-3938
▁halua	-3939
▁käytö	-3940
▁väkiv	-3941
▁amount	-3942
▁return	-3943
▁benefit	-3944
▁conclud	-3945
▁alueiden	-3946
▁technology	-3947
isis	-3948
▁eng	-3949
isenä	-3950
▁appear	-3951
▁changes	-3952
▁document	-3953
▁järjestä	-3954
po	-3955
tila	-3956
▁prepar	-3957
▁relating	-3958
▁sisämark	-3959
▁äänestys	-3960
järjestelmä	-3961
▁valtioiden	-3962
▁luonnollisesti	-3963
hol	-3964
kas	-3965
ught	-3966
▁wit	-3967
vistä	-3968
▁kysy	-3969
▁tour	-3970
▁promote	-3971
▁monitoring	-3972
):	-3973
yl	-3974
▁link	-3975
▁compl	-3976
▁agreed	-3977
▁johtaa	-3978
▁yhteinen	-3979
▁implement	-3980
top	-3981
▁capa	-3982
▁makes	-3983
▁called	-3984
▁immedi	-3985
▁siirty	-3986
▁valvon	-3987
▁carried	-3988
▁edistää	-3989
▁entinen	-3990
▁fishing	-3991
▁opportunities	-3992
▁kar	-3993
▁declar	-3994
▁niihin	-3995
▁included	-3996
ittain	-3997
▁carry	-3998
▁fully	-3999
▁kokem	-4000
▁sanoi	-4001
▁toisin	-4002
▁lähesty	-4003
▁ap	-4004
▁stability	-4005
▁institutional	-4006
buds	-4007
koul	-4008
▁fam	-4009
onstr	-4010
tujen	-4011
▁keep	-4012
▁tilan	-4013
▁paragraph	-4014
▁practical	-4015
den	-4016
kein	-4017
▁fig	-4018
goslav	-4019
▁koros	-4020
▁scien	-4021
▁secre	-4022
▁pah	-4023
▁energia	-4024
uth	-4025
▁spa	-4026
▁asti	-4027
▁conn	-4028
▁conta	-4029
▁sille	-4030
periaat	-4031
▁ombuds	-4032
▁defence	-4033
▁jolloin	-4034
▁olevien	-4035
▁hyväksyt	-4036
▁regarding	-4037
▁lö	-4038
gree	-4039
▁wiu	-4040
llinen	-4041
▁absol	-4042
▁järke	-4043
kuntien	-4044
▁pyydän	-4045
▁assistance	-4046
▁significant	-4047
▁sl	-4048
part	-4049
▁dang	-4050
intarv	-4051
mise	-4052
tial	-4053
▁due	-4054
vasta	-4055
▁true	-4056
▁tupa	-4057
▁design	-4058
▁ilmais	-4059
▁tabled	-4060
▁eastern	-4061
▁yrityks	-4062
isemp	-4063
itean	-4064
aminen	-4065
▁nimen	-4066
tamalla	-4067
▁crisis	-4068
▁poikke	-4069
▁company	-4070
▁poliittinen	-4071
na	-4072
jassa	-4073
▁exch	-4074
▁näyttää	-4075
▁politiikan	-4076
▁lainsäädäntö	-4077
akem	-4078
vers	-4079
enten	-4080
▁elin	-4081
▁december	-4082
▁demonstr	-4083
anga	-4084
eness	-4085
▁luul	-4086
▁presented	-4087
▁toimintaa	-4088
▁tarkoittaa	-4089
▁mielestämme	-4090
ief	-4091
temp	-4092
mästä	-4093
bilities	-4094
▁kolmans	-4095
▁tiedämme	-4096
▁transpar	-4097
▁toteuttaa	-4098
▁komissiolle	-4099
▁toimenpiteitä	-4100
ätte	-4101
▁jan	-4102
▁king	-4103
▁sour	-4104
▁depend	-4105
▁oikeusasia	-4106
▁toimielinten	-4107
allan	-4108
▁ehdo	-4109
▁uusien	-4110
▁nopeasti	-4111
▁paremmin	-4112
▁increased	-4113
kut	-4114
▁ilo	-4115
telun	-4116
tuvat	-4117
▁väes	-4118
essaan	-4119
▁kyllä	-4120
ityksiä	-4121
▁nature	-4122
▁investig	-4123
▁representatives	-4124
ismin	-4125
▁bear	-4126
▁start	-4127
▁teidän	-4128
▁osapuol	-4129
▁currently	-4130
▁tietenkin	-4131
▁talousarvion	-4132
sess	-4133
▁beg	-4134
anted	-4135
▁luon	-4136
▁poista	-4137
▁applied	-4138
▁effecti	-4139
▁conclusion	-4140
▁parliamentary	-4141
rael	-4142
ysym	-4143
▁ren	-4144
iston	-4145
▁roth	-4146
▁pyytää	-4147
▁ulkopuole	-4148
▁hyödyn	-4149
▁remain	-4150
els	-4151
▁ponn	-4152
▁kaupan	-4153
▁satisf	-4154
▁tietää	-4155
▁esittäjä	-4156
▁everyone	-4157
▁merkittävä	-4158
▁low	-4159
▁past	-4160
office	-4161
▁edist	-4162
▁consul	-4163
put	-4164
itään	-4165
▁actions	-4166
▁yhdisty	-4167
bac	-4168
ini	-4169
▁han	-4170
istus	-4171
ucture	-4172
▁export	-4173
▁laatima	-4174
▁päätöslauselma	-4175
toc	-4176
▁ppe	-4177
ators	-4178
▁piir	-4179
▁upon	-4180
▁muutam	-4181
▁review	-4182
▁expendit	-4183
teli	-4184
▁road	-4185
▁lähtö	-4186
▁creation	-4187
▁determin	-4188
ama	-4189
tiö	-4190
▁bon	-4191
▁jää	-4192
entää	-4193
▁fron	-4194
▁suunn	-4195
▁kieltä	-4196
▁investo	-4197
▁committees	-4198
▁unfortunately	-4199
käy	-4200
yden	-4201
▁vat	-4202
innin	-4203
▁exec	-4204
▁holl	-4205
▁myötä	-4206
▁lausun	-4207
▁minulla	-4208
▁kysymykseen	-4209
▁sea	-4210
▁list	-4211
▁pala	-4212
pected	-4213
▁relev	-4214
iter	-4215
▁line	-4216
▁plann	-4217
▁pursu	-4218
▁israel	-4219
▁vastaa	-4220
ological	-4221
▁kingdom	-4222
▁luottam	-4223
▁tehdään	-4224
▁analysis	-4225
▁asiantun	-4226
▁toimielim	-4227
▁throughout	-4228
ös	-4229
bod	-4230
▁col	-4231
▁alank	-4232
▁joulu	-4233
▁occas	-4234
▁bodies	-4235
▁olette	-4236
▁british	-4237
▁käytettä	-4238
▁ombudsman	-4239
▁amsterdamin	-4240
taut	-4241
ustav	-4242
▁pyrki	-4243
miselle	-4244
▁sijoit	-4245
▁expenditure	-4246
▁mietinnöstä	-4247
▁tarkistuksia	-4248
kat	-4249
▁eth	-4250
ledge	-4251
▁reply	-4252
▁obtain	-4253
round	-4254
▁taas	-4255
stance	-4256
▁liikenne	-4257
▁merkitsee	-4258
▁organizations	-4259
▁cap	-4260
▁tuh	-4261
▁repe	-4262
▁kestä	-4263
▁haluaa	-4264
▁erityis	-4265
▁päivänä	-4266
▁investment	-4267
▁governments	-4268
▁difficulties	-4269
uvan	-4270
▁bee	-4271
umaan	-4272
▁enemm	-4273
allista	-4274
▁nähd	-4275
▁opet	-4276
▁voted	-4277
▁ainakin	-4278
▁olemaan	-4279
▁kehitystä	-4280
",	-4281
ittu	-4282
ested	-4283
▁kesä	-4284
▁mind	-4285
allinen	-4286
▁decided	-4287
▁ehdotuksia	-4288
▁integration	-4289
tra	-4290
via	-4291
ggest	-4292
omais	-4293
▁tois	-4294
▁alkuperä	-4295
▁todellakin	-4296
▁introduction	-4297
▁organization	-4298
erc	-4299
esion	-4300
itional	-4301
poliitt	-4302
▁annual	-4303
▁jonkin	-4304
▁tietoa	-4305
▁suggest	-4306
▁äänesty	-4307
▁experience	-4308
malla	-4309
▁näkem	-4310
▁using	-4311
▁ensisij	-4312
▁tiedotus	-4313
▁voimakka	-4314
▁elections	-4315
▁sellaisen	-4316
▁kansainvälisen	-4317
ilait	-4318
▁mole	-4319
isissä	-4320
▁along	-4321
iljelij	-4322
▁detail	-4323
▁internet	-4324
▁onnitella	-4325
crib	-4326
▁fair	-4327
▁rool	-4328
alaista	-4329
▁sisältää	-4330
▁mul	-4331
▁five	-4332
▁sijaan	-4333
▁lopulta	-4334
▁terveys	-4335
▁colleagues	-4336
kar	-4337
▁kohte	-4338
▁guidel	-4339
▁muuten	-4340
▁republic	-4341
▁tarkoituksena	-4342
be	-4343
cept	-4344
line	-4345
vist	-4346
▁cla	-4347
▁duty	-4348
▁ransk	-4349
▁susta	-4350
▁passit	-4351
▁vastuu	-4352
▁luonnon	-4353
▁operation	-4354
▁honourable	-4355
▁ey	-4356
▁ala	-4357
▁edes	-4358
▁suffic	-4359
▁ohjelman	-4360
▁tietojen	-4361
▁statement	-4362
▁lainsäädännön	-4363
ijn	-4364
miin	-4365
▁bank	-4366
▁milj	-4367
▁usko	-4368
▁sovell	-4369
▁liittyviä	-4370
ock	-4371
toon	-4372
isyys	-4373
västä	-4374
▁note	-4375
▁tell	-4376
ksemme	-4377
▁siltä	-4378
▁vähentä	-4379
▁välinen	-4380
▁infrastr	-4381
▁yhteiskunn	-4382
',	-4383
itur	-4384
erous	-4385
▁odot	-4386
▁comes	-4387
▁cross	-4388
▁tekij	-4389
▁enable	-4390
▁muassa	-4391
▁päästä	-4392
▁vahvis	-4393
▁similar	-4394
▁tietoja	-4395
▁eurooppalaisen	-4396
osa	-4397
▁('	-4398
▁try	-4399
emmän	-4400
tally	-4401
▁left	-4402
▁päin	-4403
▁vies	-4404
▁refle	-4405
▁minulle	-4406
▁kumppanuus	-4407
▁teollisuus	-4408
▁consequences	-4409
iva	-4410
tem	-4411
bacco	-4412
▁corre	-4413
▁attemp	-4414
▁patijn	-4415
▁jäsenten	-4416
▁otettava	-4417
▁ist	-4418
tyvät	-4419
▁move	-4420
▁sense	-4421
▁ground	-4422
▁tullivir	-4423
stö	-4424
dren	-4425
erin	-4426
tivat	-4427
uljet	-4428
▁dipl	-4429
▁post	-4430
▁chall	-4431
▁valta	-4432
▁confir	-4433
▁global	-4434
▁väline	-4435
▁saavutta	-4436
▁perustamissopim	-4437
mies	-4438
▁ansi	-4439
▁luoda	-4440
▁yritys	-4441
sibilities	-4442
▁considered	-4443
▁population	-4444
▁afr	-4445
▁log	-4446
▁dest	-4447
▁hyödy	-4448
▁valvo	-4449
▁extent	-4450
▁saanut	-4451
▁artikla	-4452
▁germany	-4453
▁reading	-4454
▁relevant	-4455
▁developing	-4456
▁administration	-4457
ling	-4458
▁six	-4459
▁flex	-4460
▁crimin	-4461
▁suuria	-4462
▁threat	-4463
▁tobacco	-4464
▁hyväksyi	-4465
▁provision	-4466
▁hear	-4467
▁doubt	-4468
▁neuvost	-4469
politiikka	-4470
▁ahe	-4471
▁aih	-4472
▁dan	-4473
rimin	-4474
sissa	-4475
▁austr	-4476
▁remin	-4477
▁risti	-4478
▁degree	-4479
▁todeta	-4480
▁scientific	-4481
▁eur	-4482
qvist	-4483
▁hark	-4484
▁lähe	-4485
▁osin	-4486
intään	-4487
▁defin	-4488
▁yliop	-4489
▁näkökul	-4490
▁prepared	-4491
▁az	-4492
päin	-4493
▁eval	-4494
▁kulut	-4495
▁samoin	-4496
▁huolest	-4497
▁käännös	-4498
▁arvoisat	-4499
▁ihmisoikeuksien	-4500
ually	-4501
▁bang	-4502
▁caus	-4503
▁june	-4504
▁eteen	-4505
▁teach	-4506
▁alueell	-4507
laa	-4508
joja	-4509
commun	-4510
▁accordance	-4511
kum	-4512
ator	-4513
▁pik	-4514
vässä	-4515
▁study	-4516
▁cohesion	-4517
▁yhdysval	-4518
llistä	-4519
yyteen	-4520
▁määrin	-4521
▁requirements	-4522
▁viranomaisten	-4523
ca	-4524
▁suff	-4525
essään	-4526
▁hakem	-4527
▁kuule	-4528
▁monim	-4529
▁syytä	-4530
▁virka	-4531
▁vital	-4532
▁kohdist	-4533
▁ratkaise	-4534
ics	-4535
▁aj	-4536
▁lou	-4537
▁sija	-4538
▁mistä	-4539
▁rajat	-4540
▁uutta	-4541
▁tarvits	-4542
▁kaikille	-4543
▁talouden	-4544
vi	-4545
una	-4546
ihan	-4547
tuot	-4548
izing	-4549
▁argu	-4550
▁ilmi	-4551
▁fisch	-4552
▁takia	-4553
▁higher	-4554
▁myönnet	-4555
▁elintarv	-4556
▁kuluttaj	-4557
▁material	-4558
▁relation	-4559
lt	-4560
ify	-4561
paan	-4562
▁effects	-4563
▁alueilla	-4564
▁sosiaalitur	-4565
blin	-4566
annon	-4567
isena	-4568
▁land	-4569
vallan	-4570
tamista	-4571
▁kertaa	-4572
▁tourism	-4573
▁alankoma	-4574
▁maastricht	-4575
▁tavoitteena	-4576
ira	-4577
kesk	-4578
ected	-4579
innan	-4580
uvien	-4581
▁loss	-4582
▁took	-4583
▁torj	-4584
isellä	-4585
▁funding	-4586
▁paranta	-4587
▁käsitellä	-4588
▁improvement	-4589
tt	-4590
ltä	-4591
viin	-4592
▁body	-4593
▁task	-4594
selves	-4595
▁price	-4596
▁niille	-4597
▁suurin	-4598
▁enterpr	-4599
▁children	-4600
▁koskevaa	-4601
elä	-4602
ude	-4603
▁sito	-4604
▁soon	-4605
▁assem	-4606
▁mihin	-4607
▁repla	-4608
▁bangem	-4609
▁compro	-4610
▁valvonn	-4611
▁algerian	-4612
▁ratkaista	-4613
ison	-4614
▁mit	-4615
▁turn	-4616
▁crime	-4617
itetaan	-4618
▁sweden	-4619
▁lisäänty	-4620
▁ongelman	-4621
cal	-4622
ysti	-4623
▁roh	-4624
▁asen	-4625
▁bill	-4626
▁forms	-4627
aisille	-4628
▁nations	-4629
▁sisällä	-4630
▁tulevat	-4631
▁everything	-4632
▁muistuttaa	-4633
kt	-4634
vet	-4635
hern	-4636
▁etc	-4637
▁kri	-4638
keskus	-4639
▁board	-4640
▁dublin	-4641
▁giving	-4642
▁naiset	-4643
▁olleet	-4644
▁saying	-4645
president	-4646
▁vahvistaa	-4647
▁guidelines	-4648
▁nam	-4649
▁nos	-4650
ology	-4651
▁kohti	-4652
▁takes	-4653
tavissa	-4654
▁letter	-4655
▁puolue	-4656
▁proceed	-4657
▁saattaa	-4658
omin	-4659
▁teki	-4660
▁conflic	-4661
▁function	-4662
▁authority	-4663
▁käytetään	-4664
▁consideration	-4665
▁cy	-4666
▁tit	-4667
lause	-4668
▁kats	-4669
▁viera	-4670
▁muodos	-4671
▁hyväksi	-4672
▁accepted	-4673
▁tapauksissa	-4674
hu	-4675
sen	-4676
hank	-4677
▁hyl	-4678
▁theh	-4679
▁genet	-4680
▁limit	-4681
isation	-4682
uttavat	-4683
▁hieman	-4684
▁laajentu	-4685
▁tekemään	-4686
▁tärkeitä	-4687
▁yhteistä	-4688
▁mahdollisuuksia	-4689
ör	-4690
▁da	-4691
itys	-4692
uary	-4693
▁ill	-4694
toman	-4695
ensive	-4696
rought	-4697
▁laill	-4698
▁latin	-4699
▁farmers	-4700
▁currency	-4701
▁aiheuttaa	-4702
▁tarkoitus	-4703
▁translation	-4704
▁bos	-4705
telen	-4706
ttävä	-4707
▁pako	-4708
▁ainoa	-4709
▁avoid	-4710
▁condu	-4711
▁phare	-4712
▁tasav	-4713
▁critic	-4714
▁jatkaa	-4715
pi	-4716
iver	-4717
ully	-4718
ussel	-4719
▁claim	-4720
tomasti	-4721
▁miljard	-4722
▁voimassa	-4723
▁discussed	-4724
▁expressed	-4725
▁taloudellisten	-4726
him	-4727
ool	-4728
▁kö	-4729
amer	-4730
näkö	-4731
omat	-4732
▁blo	-4733
▁foc	-4734
kysym	-4735
▁saar	-4736
ittely	-4737
urance	-4738
▁siellä	-4739
▁measure	-4740
▁asiantunti	-4741
itu	-4742
▁tou	-4743
▁alka	-4744
▁rate	-4745
▁kannan	-4746
▁palvel	-4747
▁saavat	-4748
▁koskaan	-4749
▁referred	-4750
▁bi	-4751
▁kä	-4752
inut	-4753
koon	-4754
▁oman	-4755
▁huipp	-4756
▁huoma	-4757
▁white	-4758
▁participation	-4759
...	-4760
aika	-4761
ican	-4762
▁vil	-4763
▁sens	-4764
▁ulko	-4765
▁close	-4766
▁whose	-4767
▁advanta	-4768
▁fischler	-4769
▁luxembourg	-4770
fully	-4771
itary	-4772
▁anti	-4773
▁drugs	-4774
▁toden	-4775
▁hallinnoll	-4776
▁yhteisöjen	-4777
eri	-4778
▁wr	-4779
ched	-4780
peen	-4781
▁cho	-4782
▁cod	-4783
▁cun	-4784
▁lähes	-4785
▁brought	-4786
▁freight	-4787
▁suoraan	-4788
▁violence	-4789
▁commercial	-4790
▁mur	-4791
▁beef	-4792
asiakir	-4793
uudesta	-4794
▁levels	-4795
▁toista	-4796
▁persons	-4797
▁päättää	-4798
▁encourag	-4799
▁pressure	-4800
▁tällainen	-4801
▁assessment	-4802
unta	-4803
▁genu	-4804
▁paid	-4805
elling	-4806
ending	-4807
▁times	-4808
annetta	-4809
tamatta	-4810
theless	-4811
▁aloilla	-4812
▁january	-4813
▁activity	-4814
▁ourselves	-4815
▁tarkistus	-4816
▁possibility	-4817
aksi	-4818
▁lev	-4819
▁rac	-4820
▁käyd	-4821
▁exerc	-4822
yydestä	-4823
▁status	-4824
▁vetoom	-4825
▁despite	-4826
▁kaikissa	-4827
▁confidence	-4828
▁työjärjesty	-4829
▁nevertheless	-4830
ikk	-4831
▁rek	-4832
asian	-4833
ussels	-4834
▁schem	-4835
▁sport	-4836
▁yksin	-4837
▁toivot	-4838
▁viitta	-4839
▁ryhmäni	-4840
▁assembly	-4841
▁varmistaa	-4842
▁coordination	-4843
hön	-4844
ola	-4845
reh	-4846
ulla	-4847
arily	-4848
▁estä	-4849
▁etel	-4850
▁norm	-4851
illaan	-4852
▁saksan	-4853
▁firstly	-4854
▁methods	-4855
▁outside	-4856
▁hallinto	-4857
▁provides	-4858
▁vaikutus	-4859
▁considerable	-4860
ili	-4861
tte	-4862
oihin	-4863
okone	-4864
▁date	-4865
▁täyttä	-4866
▁variety	-4867
▁vuosina	-4868
▁director	-4869
▁keskustelua	-4870
▁henkilökohta	-4871
resp	-4872
aliit	-4873
▁tuki	-4874
▁onkin	-4875
▁myöntä	-4876
▁menetel	-4877
▁annetaan	-4878
▁lausunnon	-4879
▁kansallisen	-4880
elua	-4881
▁mun	-4882
▁pse	-4883
▁tuon	-4884
▁asiat	-4885
stances	-4886
▁private	-4887
▁evidence	-4888
▁vapautta	-4889
▁potential	-4890
▁reference	-4891
▁ensimmäisen	-4892
▁kansalaiset	-4893
▁sosiaalisen	-4894
▁mahdollisuuden	-4895
pen	-4896
unsa	-4897
▁haas	-4898
▁saad	-4899
topäätö	-4900
▁circum	-4901
aisuuden	-4902
▁jäsenen	-4903
▁kehitty	-4904
▁työmark	-4905
▁tilanteen	-4906
▁initiatives	-4907
itim	-4908
▁(')	-4909
yssel	-4910
asiain	-4911
ements	-4912
ikuuta	-4913
udelle	-4914
▁synty	-4915
▁sitout	-4916
▁brussels	-4917
▁bangemann	-4918
▁tuotteiden	-4919
▁esityslistalla	-4920
key	-4921
pet	-4922
anim	-4923
city	-4924
ests	-4925
▁luv	-4926
itoim	-4927
▁urhe	-4928
▁altern	-4929
▁medium	-4930
▁setting	-4931
orm	-4932
uss	-4933
alis	-4934
erve	-4935
iall	-4936
▁teke	-4937
▁begin	-4938
▁ments	-4939
▁almost	-4940
▁kokoon	-4941
▁school	-4942
▁tullut	-4943
▁vähemmän	-4944
▁periaatte	-4945
▁vastuussa	-4946
▁tavaroiden	-4947
▁ihmisoikeus	-4948
uted	-4949
▁tuk	-4950
ering	-4951
määrä	-4952
▁else	-4953
▁engl	-4954
▁epäs	-4955
▁votes	-4956
▁conver	-4957
▁kohdan	-4958
▁pyrkim	-4959
▁ymmärr	-4960
▁developed	-4961
▁taloudellisen	-4962
tead	-4963
ketie	-4964
▁seik	-4965
▁välia	-4966
▁instead	-4967
▁kokonais	-4968
▁perustuu	-4969
▁käytännön	-4970
▁priorities	-4971
oint	-4972
▁key	-4973
ounts	-4974
▁says	-4975
▁sanon	-4976
alaiset	-4977
▁legitim	-4978
▁yleensä	-4979
▁benefits	-4980
▁pohjalta	-4981
aisuudessa	-4982
▁asetuksen	-4983
▁kin	-4984
jalla	-4985
▁facil	-4986
▁spain	-4987
estystä	-4988
▁auttaa	-4989
▁execut	-4990
▁mukana	-4991
▁olevat	-4992
▁remind	-4993
▁unanim	-4994
▁hankkeen	-4995
▁noudatta	-4996
▁recently	-4997
▁toimival	-4998
▁treatment	-4999
▁johtopäätö	-5000
jäs	-5001
omes	-5002
used	-5003
▁july	-5004
▁incor	-5005
▁plant	-5006
▁aktiiv	-5007
▁exclus	-5008
▁territ	-5009
▁tunnus	-5010
▁komissi	-5011
▁suuntav	-5012
▁response	-5013
▁enemmistö	-5014
tiä	-5015
▁gon	-5016
▁arvos	-5017
▁ensin	-5018
▁medic	-5019
▁oleva	-5020
▁rauhan	-5021
▁kirjoit	-5022
▁completely	-5023
▁discussions	-5024
▁konferenssin	-5025
▁yksityiskohta	-5026
▁recommendations	-5027
))	-5028
▁ilme	-5029
▁minkä	-5030
▁ponnis	-5031
▁summit	-5032
▁syistä	-5033
▁created	-5034
▁tarkast	-5035
▁ongelmat	-5036
itz	-5037
more	-5038
▁tiuk	-5039
▁tutk	-5040
inable	-5041
yminen	-5042
▁eläin	-5043
▁jättä	-5044
▁kuulu	-5045
▁monia	-5046
entions	-5047
▁raised	-5048
▁finance	-5049
▁voimaan	-5050
▁kiinnost	-5051
▁tarkistuksen	-5052
▁dam	-5053
annut	-5054
▁ranga	-5055
▁edisty	-5056
▁subsidi	-5057
▁merkitys	-5058
▁tietysti	-5059
▁terrorism	-5060
▁demokratian	-5061
▁parlamenttia	-5062
▁yhdenmukaista	-5063
eec	-5064
maks	-5065
▁der	-5066
▁hin	-5067
▁lia	-5068
▁init	-5069
▁heinä	-5070
▁duties	-5071
▁parann	-5072
▁virall	-5073
▁animals	-5074
▁perinte	-5075
▁haluavat	-5076
▁tullilait	-5077
▁kansalliset	-5078
▁lainsäädännö	-5079
acy	-5080
laaju	-5081
▁kuts	-5082
encies	-5083
▁adopt	-5084
▁value	-5085
alaisen	-5086
▁yritykset	-5087
▁käsittelevä	-5088
iso	-5089
▁ve	-5090
oman	-5091
▁päte	-5092
▁asean	-5093
▁maanv	-5094
▁kilpailuky	-5095
▁sopimukseen	-5096
▁nro	-5097
▁miele	-5098
▁shown	-5099
asiassa	-5100
ception	-5101
▁maahan	-5102
▁content	-5103
▁tapahtunut	-5104
▁käytännössä	-5105
ointi	-5106
timat	-5107
▁fall	-5108
▁pean	-5109
▁tamm	-5110
lannin	-5111
▁matka	-5112
palvelu	-5113
▁määrää	-5114
▁asettaa	-5115
▁identif	-5116
▁kasvila	-5117
▁järjestö	-5118
▁connection	-5119
▁kehittämistä	-5120
do	-5121
asi	-5122
▁port	-5123
▁span	-5124
▁kauan	-5125
▁distrib	-5126
▁limited	-5127
▁muuttaa	-5128
▁partner	-5129
▁purpose	-5130
ciliation	-5131
▁säilyttä	-5132
▁ehdotusta	-5133
alu	-5134
ece	-5135
kaup	-5136
pane	-5137
▁top	-5138
unnan	-5139
▁epäl	-5140
▁drawn	-5141
▁pyytä	-5142
▁huippu	-5143
▁urgent	-5144
▁ammatti	-5145
▁bryssel	-5146
▁federal	-5147
▁ihmiset	-5148
▁päätöks	-5149
▁traffic	-5150
▁directly	-5151
▁olisivat	-5152
ns	-5153
tuja	-5154
wise	-5155
▁tac	-5156
▁naud	-5157
päätös	-5158
▁inten	-5159
▁decide	-5160
▁kesken	-5161
▁keskit	-5162
▁maassa	-5163
▁iloinen	-5164
▁tasapaino	-5165
▁kuluttajien	-5166
▁poliittista	-5167
keh	-5168
▁tuen	-5169
▁super	-5170
▁concent	-5171
▁executive	-5172
▁käyttöönot	-5173
ex	-5174
ras	-5175
▁tee	-5176
utely	-5177
valta	-5178
kuntaa	-5179
▁penal	-5180
▁quick	-5181
▁yester	-5182
▁balance	-5183
▁kunnioit	-5184
▁knowledge	-5185
▁vapaaehto	-5186
▁oikeastaan	-5187
ker	-5188
▁pi	-5189
ikin	-5190
▁cal	-5191
▁cop	-5192
▁kur	-5193
▁lik	-5194
orrow	-5195
paign	-5196
▁verk	-5197
▁maase	-5198
emmistö	-5199
ukselle	-5200
▁publish	-5201
▁studies	-5202
▁tavoite	-5203
▁exchange	-5204
▁määrärah	-5205
▁compromise	-5206
▁esittelijän	-5207
▁käsitellään	-5208
▁vic	-5209
▁prim	-5210
inning	-5211
▁attit	-5212
▁rural	-5213
▁regret	-5214
▁thought	-5215
▁transfer	-5216
▁suhteessa	-5217
▁vaiheessa	-5218
▁yesterday	-5219
▁businesses	-5220
▁kysymyksiä	-5221
▁conclusions	-5222
▁instruments	-5223
bit	-5224
avan	-5225
opol	-5226
tune	-5227
▁eil	-5228
▁mys	-5229
▁italy	-5230
▁kypro	-5231
▁network	-5232
▁campaign	-5233
▁gl	-5234
quate	-5235
▁jatk	-5236
▁mets	-5237
▁talk	-5238
▁armen	-5239
▁mista	-5240
▁tulla	-5241
▁edellä	-5242
▁toimen	-5243
▁describ	-5244
▁rahaliit	-5245
▁tiedätte	-5246
▁tarkistusta	-5247
▁tutkimuksen	-5248
okka	-5249
▁known	-5250
▁tunte	-5251
tömästi	-5252
▁merkin	-5253
▁modern	-5254
▁rakenn	-5255
kunnalle	-5256
▁budgets	-5257
▁reached	-5258
▁rightly	-5259
▁parantaa	-5260
▁produced	-5261
▁represent	-5262
▁commitment	-5263
▁velvollisu	-5264
▁toimenpiteet	-5265
▁transparency	-5266
org	-5267
rup	-5268
uja	-5269
▁rena	-5270
▁light	-5271
suunnit	-5272
▁coming	-5273
▁itsenä	-5274
▁nether	-5275
▁paitsi	-5276
▁puuttu	-5277
entation	-5278
ollisuus	-5279
▁perustu	-5280
▁tarpeen	-5281
▁viraston	-5282
pes	-5283
lier	-5284
▁mep	-5285
ammin	-5286
tocol	-5287
▁leon	-5288
▁lind	-5289
▁event	-5290
▁kolmen	-5291
▁coordin	-5292
▁myöhemmin	-5293
▁oikeuksia	-5294
▁käsiteltävä	-5295
▁politiikkaa	-5296
▁subsidiarity	-5297
▁teollisuuden	-5298
▁maailmanlaaju	-5299
telua	-5300
▁jaka	-5301
▁laid	-5302
▁volun	-5303
iterran	-5304
utional	-5305
▁reduce	-5306
▁turkey	-5307
▁ratkais	-5308
▁renault	-5309
▁talking	-5310
▁kasvilaj	-5311
▁obviously	-5312
▁furthermore	-5313
▁netherlands	-5314
bles	-5315
▁chr	-5316
▁mal	-5317
▁neg	-5318
▁usa	-5319
▁mand	-5320
▁tion	-5321
▁uiko	-5322
▁estää	-5323
▁heard	-5324
▁march	-5325
▁south	-5326
▁wrong	-5327
▁epäile	-5328
▁luulen	-5329
▁muihin	-5330
▁albania	-5331
▁figures	-5332
▁pohjois	-5333
järjestön	-5334
▁protocol	-5335
▁tarpeell	-5336
eenjohtaja	-5337
▁direction	-5338
▁reduction	-5339
▁additional	-5340
▁introduced	-5341
▁operations	-5342
▁parliaments	-5343
kuu	-5344
pril	-5345
▁ang	-5346
istää	-5347
raken	-5348
sovit	-5349
▁lear	-5350
iction	-5351
▁views	-5352
▁prices	-5353
▁lähtien	-5354
▁sectors	-5355
isuudesta	-5356
▁selväksi	-5357
zed	-5358
▁ho	-5359
▁half	-5360
▁pian	-5361
▁annex	-5362
▁solid	-5363
telemme	-5364
▁networ	-5365
▁näissä	-5366
▁reality	-5367
ityksestä	-5368
iterranean	-5369
▁vaihtoehto	-5370
järjestelmää	-5371
▁viranomaiset	-5372
astu	-5373
ctor	-5374
kele	-5375
▁cig	-5376
jasta	-5377
orary	-5378
▁köyh	-5379
▁sent	-5380
▁saman	-5381
▁active	-5382
▁pelkäs	-5383
▁toissi	-5384
▁encourage	-5385
▁absolutely	-5386
▁resolutions	-5387
know	-5388
▁draf	-5389
▁expl	-5390
▁tiiv	-5391
▁jatka	-5392
▁tukee	-5393
▁näihin	-5394
järjestö	-5395
▁elected	-5396
▁luettel	-5397
▁spanish	-5398
▁controls	-5399
▁mielessä	-5400
▁vastaava	-5401
▁implemented	-5402
▁consultation	-5403
▁äs	-5404
ansu	-5405
emok	-5406
oting	-5407
▁face	-5408
jected	-5409
▁totta	-5410
▁combat	-5411
▁kymmen	-5412
▁compens	-5413
▁puolustus	-5414
▁independent	-5415
▁tarvitsemme	-5416
br	-5417
toi	-5418
▁ah	-5419
miss	-5420
▁ero	-5421
▁sek	-5422
ously	-5423
▁pact	-5424
▁puole	-5425
elmista	-5426
▁banaan	-5427
▁record	-5428
▁speech	-5429
▁vastusta	-5430
▁huippukoko	-5431
▁seuraavana	-5432
▁ii	-5433
▁yk	-5434
sten	-5435
▁mut	-5436
▁pas	-5437
ineen	-5438
rates	-5439
▁type	-5440
europe	-5441
ograph	-5442
▁puhua	-5443
▁renew	-5444
▁expect	-5445
▁roopan	-5446
communic	-5447
truction	-5448
▁produce	-5449
▁producers	-5450
▁submitted	-5451
▁riippumattom	-5452
bs	-5453
ibe	-5454
▁fif	-5455
tetun	-5456
yksen	-5457
▁east	-5458
▁laps	-5459
▁pide	-5460
▁pill	-5461
▁antam	-5462
▁april	-5463
▁marin	-5464
▁cigare	-5465
▁lisätä	-5466
▁asioista	-5467
▁moreover	-5468
▁beginning	-5469
▁pelkästään	-5470
▁taloudellinen	-5471
tech	-5472
vuod	-5473
▁pac	-5474
▁cens	-5475
▁kärs	-5476
▁dealt	-5477
▁grant	-5478
▁stras	-5479
▁tulli	-5480
▁tuotta	-5481
▁concept	-5482
▁dealing	-5483
▁välimer	-5484
▁kohdalla	-5485
▁ratkaisem	-5486
▁jatkuvasti	-5487
▁sustainable	-5488
-,	-5489
▁doc	-5490
▁kinn	-5491
▁suku	-5492
▁muoto	-5493
▁comput	-5494
▁vaatii	-5495
▁incorpor	-5496
▁käsiteltä	-5497
▁tilannetta	-5498
▁kokouksessa	-5499
tore	-5500
▁acp	-5501
aster	-5502
ellen	-5503
keiden	-5504
▁kirja	-5505
▁pilar	-5506
misessä	-5507
▁danish	-5508
▁forces	-5509
▁kiitän	-5510
▁muista	-5511
▁suppor	-5512
▁vahing	-5513
▁ylittä	-5514
teknolog	-5515
▁toimeen	-5516
▁approval	-5517
▁kaikista	-5518
▁terveyden	-5519
▁edellyttää	-5520
▁profession	-5521
▁seurauksena	-5522
▁mahdollisesti	-5523
ulf	-5524
tana	-5525
▁jne	-5526
▁kam	-5527
iance	-5528
innän	-5529
telee	-5530
▁dead	-5531
▁week	-5532
▁huhti	-5533
▁aspect	-5534
▁bureau	-5535
▁councu	-5536
▁designed	-5537
▁solutions	-5538
▁circumstances	-5539
▁huomattavasti	-5540
fl	-5541
idät	-5542
jana	-5543
pers	-5544
echan	-5545
inson	-5546
where	-5547
cement	-5548
▁alloc	-5549
▁emerg	-5550
▁later	-5551
▁steps	-5552
▁animal	-5553
▁jotkut	-5554
▁kompro	-5555
▁liitto	-5556
▁suuren	-5557
▁vaikea	-5558
▁correct	-5559
▁earlier	-5560
▁joustav	-5561
▁matkail	-5562
▁naudanl	-5563
▁prosess	-5564
rimination	-5565
▁communities	-5566
▁yhteensovit	-5567
▁tulevaisuuden	-5568
dy	-5569
imm	-5570
▁mac	-5571
aissa	-5572
yksiä	-5573
▁osaa	-5574
ismark	-5575
▁border	-5576
▁racism	-5577
▁selvit	-5578
▁failure	-5579
▁sisälly	-5580
▁uudista	-5581
▁criminal	-5582
▁kyseisen	-5583
▁instrument	-5584
▁kustannukset	-5585
▁via	-5586
▁kein	-5587
▁kanta	-5588
▁minua	-5589
▁molem	-5590
▁varat	-5591
▁suunta	-5592
▁pleased	-5593
▁olosuhte	-5594
▁suuntaan	-5595
▁merkitystä	-5596
▁partnership	-5597
▁telecommunic	-5598
ones	-5599
▁ssa	-5600
▁osan	-5601
parlia	-5602
taessa	-5603
▁askel	-5604
▁kuole	-5605
▁convin	-5606
▁jättää	-5607
▁kantaa	-5608
▁mechan	-5609
▁regime	-5610
▁trying	-5611
oikeuden	-5612
▁compreh	-5613
▁related	-5614
▁tahansa	-5615
▁complain	-5616
▁kaikkein	-5617
▁ymmärtää	-5618
▁riittävästi	-5619
▁increasingly	-5620
iot	-5621
hoit	-5622
▁led	-5623
oille	-5624
▁perä	-5625
entaar	-5626
▁valko	-5627
▁withd	-5628
▁behind	-5629
▁yrittä	-5630
▁allowed	-5631
▁genuine	-5632
▁history	-5633
▁pointed	-5634
▁tehokku	-5635
▁intended	-5636
▁pyritään	-5637
▁tieteell	-5638
▁selkeästi	-5639
▁yleisesti	-5640
▁sopimusten	-5641
▁jal	-5642
imaan	-5643
▁natur	-5644
▁rapid	-5645
▁säädö	-5646
prosess	-5647
▁toimet	-5648
▁debates	-5649
▁vastata	-5650
▁aloittaa	-5651
▁capacity	-5652
▁comments	-5653
▁edellyty	-5654
▁lääketie	-5655
▁tomorrow	-5656
▁esitetään	-5657
▁koskevasta	-5658
▁osallistua	-5659
uer	-5660
neen	-5661
uttu	-5662
▁eikö	-5663
▁hava	-5664
▁opis	-5665
▁ryhty	-5666
oksista	-5667
▁johtaja	-5668
▁section	-5669
▁sovelle	-5670
▁vuosien	-5671
▁ymmärtä	-5672
▁building	-5673
▁käsittel	-5674
▁improving	-5675
▁sensitive	-5676
set	-5677
enna	-5678
ifio	-5679
lait	-5680
▁max	-5681
▁heti	-5682
▁pitk	-5683
▁occup	-5684
▁mahdot	-5685
▁pillar	-5686
▁rikkom	-5687
▁offices	-5688
▁espanjan	-5689
▁substantial	-5690
▁conciliation	-5691
▁mann	-5692
isilla	-5693
▁cause	-5694
▁koord	-5695
▁radio	-5696
▁shows	-5697
▁visit	-5698
teeseen	-5699
▁insurance	-5700
▁directives	-5701
ix	-5702
udun	-5703
▁goes	-5704
▁rest	-5705
▁ways	-5706
▁influ	-5707
▁risks	-5708
▁tutki	-5709
pective	-5710
▁turkin	-5711
▁belgian	-5712
▁minimum	-5713
▁morning	-5714
▁tehneet	-5715
▁eläinten	-5716
▁oikeutta	-5717
▁personal	-5718
▁petosten	-5719
▁vuodesta	-5720
▁secretary	-5721
bu	-5722
▁aud	-5723
apter	-5724
arvio	-5725
▁toml	-5726
▁brief	-5727
▁vuosi	-5728
itarian	-5729
▁strict	-5730
▁tervet	-5731
▁thanks	-5732
▁ansiosta	-5733
▁politiikka	-5734
▁yhtenäismark	-5735
gs	-5736
ets	-5737
▁bla	-5738
▁jur	-5739
▁mid	-5740
▁luov	-5741
▁poor	-5742
laista	-5743
▁ennak	-5744
▁melko	-5745
unnossa	-5746
▁events	-5747
▁extend	-5748
▁fiscal	-5749
▁toteut	-5750
▁markets	-5751
▁toissij	-5752
▁entirely	-5753
▁yhdistyne	-5754
▁recognition	-5755
▁:	-5756
▁ut	-5757
▁cru	-5758
▁von	-5759
▁ansa	-5760
imäärä	-5761
mättöm	-5762
istence	-5763
▁justif	-5764
▁kolmas	-5765
itykseen	-5766
iversity	-5767
▁withdra	-5768
▁asioiden	-5769
▁sanotaan	-5770
▁taxation	-5771
▁tunnusta	-5772
▁effectively	-5773
▁establishment	-5774
ito	-5775
uls	-5776
▁ille	-5777
uuteen	-5778
▁aikav	-5779
▁defic	-5780
▁metsä	-5781
▁simpl	-5782
▁kinnock	-5783
▁huomenna	-5784
▁informed	-5785
▁kohdassa	-5786
▁eteenpäin	-5787
▁tomlinson	-5788
▁päätöksente	-5789
▁institutionaal	-5790
bia	-5791
ijat	-5792
term	-5793
▁akt	-5794
stand	-5795
▁poli	-5796
▁tonn	-5797
isivät	-5798
▁kolle	-5799
▁kysyn	-5800
▁ought	-5801
▁signed	-5802
▁hallint	-5803
▁saadaan	-5804
▁adoption	-5805
▁meetings	-5806
▁esimerkki	-5807
▁kulttuuri	-5808
▁muutoksia	-5809
▁todennäkö	-5810
▁jäsenvaltion	-5811
▁gra	-5812
▁ine	-5813
▁abol	-5814
▁mall	-5815
▁tyyd	-5816
▁unac	-5817
orders	-5818
uksell	-5819
▁touko	-5820
▁algeria	-5821
▁quickly	-5822
▁ehdottaa	-5823
▁military	-5824
▁accession	-5825
▁artiklassa	-5826
▁tarkistukset	-5827
pää	-5828
upp	-5829
hdon	-5830
kuul	-5831
▁won	-5832
▁suom	-5833
estaan	-5834
▁reject	-5835
isuudessa	-5836
▁opposition	-5837
▁sellaisten	-5838
▁enterprises	-5839
▁mahdollisuudet	-5840
▁ps	-5841
▁ets	-5842
▁imm	-5843
▁tek	-5844
▁lähet	-5845
▁salak	-5846
▁myself	-5847
▁neljän	-5848
▁niillä	-5849
▁ryhtyä	-5850
▁closely	-5851
▁covered	-5852
▁jokainen	-5853
▁mobility	-5854
▁supported	-5855
▁toimenpiteisiin	-5856
tac	-5857
idaan	-5858
isely	-5859
ished	-5860
techn	-5861
▁gives	-5862
▁media	-5863
▁condem	-5864
▁esitti	-5865
▁sosial	-5866
▁censure	-5867
▁monimut	-5868
▁receive	-5869
▁tutkintavalio	-5870
▁työntekijöiden	-5871
pay	-5872
ula	-5873
erba	-5874
itiv	-5875
▁wid	-5876
▁cham	-5877
▁meat	-5878
utensa	-5879
▁early	-5880
▁parts	-5881
▁scope	-5882
▁somet	-5883
▁cooper	-5884
▁seuraa	-5885
▁suurta	-5886
▁chapter	-5887
▁välistä	-5888
▁introduce	-5889
kkä	-5890
ump	-5891
▁ire	-5892
▁adap	-5893
▁aine	-5894
▁clar	-5895
▁word	-5896
aiseen	-5897
tember	-5898
▁ilmen	-5899
▁multi	-5900
mahdoll	-5901
▁constr	-5902
▁toimii	-5903
▁useful	-5904
▁vastus	-5905
▁toimiin	-5906
▁tällaista	-5907
▁puheenvuoron	-5908
▁specifically	-5909
▁työjärjestyksen	-5910
ga	-5911
mia	-5912
aisi	-5913
sään	-5914
▁fab	-5915
emies	-5916
inary	-5917
tyjen	-5918
istics	-5919
▁korja	-5920
▁olenn	-5921
istunut	-5922
▁käytön	-5923
▁olevia	-5924
▁työstä	-5925
▁epäluot	-5926
▁payment	-5927
▁vastaus	-5928
▁computer	-5929
▁improved	-5930
▁properly	-5931
▁ydinvoim	-5932
▁monimutka	-5933
▁sanottava	-5934
▁ehdotuksesta	-5935
cns	-5936
intä	-5937
ques	-5938
uate	-5939
▁sama	-5940
▁sele	-5941
istaan	-5942
▁kasvu	-5943
▁takaa	-5944
tavasta	-5945
utetaan	-5946
▁aikaväl	-5947
▁experts	-5948
▁ireland	-5949
▁saaneet	-5950
▁interpre	-5951
▁tuotanto	-5952
ollisuuden	-5953
▁vähintään	-5954
▁toimintaan	-5955
▁maatalouden	-5956
▁recommendation	-5957
cel	-5958
mar	-5959
ulle	-5960
inkäy	-5961
▁bosn	-5962
▁vähä	-5963
▁focus	-5964
▁georg	-5965
▁minor	-5966
▁jotain	-5967
▁maalis	-5968
▁perman	-5969
▁loppuun	-5970
▁regular	-5971
▁unaccep	-5972
▁generally	-5973
▁sometimes	-5974
▁varsinkin	-5975
▁aikaisemmin	-5976
▁kasvilajike	-5977
auy	-5978
pat	-5979
liit	-5980
▁bad	-5981
▁old	-5982
▁mieh	-5983
▁taan	-5984
ioiden	-5985
istettu	-5986
▁ulottu	-5987
▁sources	-5988
iikenteen	-5989
▁complete	-5990
▁direktiivi	-5991
▁kolmansien	-5992
▁establishing	-5993
▁parlamentaar	-5994
ajan	-5995
empi	-5996
▁tack	-5997
▁separ	-5998
ecision	-5999
isyyttä	-6000
tellaan	-6001
▁unless	-6002
isuuteen	-6003
▁borders	-6004
▁finland	-6005
▁suhtaut	-6006
yhteistyö	-6007
▁instituut	-6008
▁toimivalta	-6009
▁flexibility	-6010
▁organisations	-6011
cto	-6012
kiin	-6013
▁lie	-6014
▁ukra	-6015
▁kalta	-6016
▁model	-6017
▁pitän	-6018
aisista	-6019
▁namely	-6020
▁principal	-6021
▁neuvostolle	-6022
▁taloudellisia	-6023
▁oikeusasiamieh	-6024
li	-6025
inne	-6026
piir	-6027
▁hop	-6028
▁nov	-6029
forms	-6030
immat	-6031
▁gene	-6032
▁luok	-6033
▁tuke	-6034
▁china	-6035
▁enorm	-6036
▁reven	-6037
isyyden	-6038
▁määrän	-6039
telemaan	-6040
▁propose	-6041
▁kuuluvat	-6042
▁guarantees	-6043
▁taloudellista	-6044
▁toimenpiteiden	-6045
hon	-6046
ross	-6047
▁sto	-6048
ennet	-6049
ikään	-6050
▁code	-6051
▁diss	-6052
▁geen	-6053
▁luop	-6054
▁turk	-6055
▁etelä	-6056
▁firms	-6057
▁joten	-6058
▁lopet	-6059
▁joskus	-6060
puolueen	-6061
ministeri	-6062
▁planning	-6063
▁precisely	-6064
▁sopimusta	-6065
▁voluntary	-6066
▁,	-6067
way	-6068
oina	-6069
▁fla	-6070
▁leh	-6071
utkin	-6072
▁lies	-6073
ulsory	-6074
▁käytä	-6075
general	-6076
▁sanoen	-6077
▁billion	-6078
▁conduct	-6079
▁jäseniä	-6080
▁attitude	-6081
▁networks	-6082
▁ilmoittaa	-6083
▁contribute	-6084
▁strasbourg	-6085
▁sufficient	-6086
▁immediately	-6087
▁undertaking	-6088
cks	-6089
esi	-6090
iro	-6091
▁ig	-6092
▁tö	-6093
eena	-6094
kans	-6095
tail	-6096
▁age	-6097
▁veh	-6098
iasta	-6099
päivä	-6100
▁hold	-6101
▁home	-6102
otamme	-6103
teista	-6104
▁taxes	-6105
▁tälle	-6106
▁bonino	-6107
▁otettu	-6108
▁näkökoh	-6109
▁remains	-6110
▁creating	-6111
▁language	-6112
▁takaisin	-6113
▁oikeuksien	-6114
▁declaration	-6115
▁developments	-6116
▁technological	-6117
▁viiv	-6118
▁exact	-6119
▁ident	-6120
▁niissä	-6121
▁onnist	-6122
▁samana	-6123
▁väestö	-6124
▁ratifio	-6125
▁pidetään	-6126
tification	-6127
▁joissakin	-6128
▁impossible	-6129
▁esittelijää	-6130
iaate	-6131
▁lehd	-6132
▁poll	-6133
▁vero	-6134
▁komite	-6135
▁wishes	-6136
▁contrary	-6137
▁äänestää	-6138
▁naturally	-6139
▁saavuttaa	-6140
▁keskustella	-6141
▁vaikutuksia	-6142
▁maastrichtin	-6143
▁unacceptable	-6144
uch	-6145
prus	-6146
▁epj	-6147
▁larg	-6148
▁whom	-6149
▁equip	-6150
▁ensiksi	-6151
▁granted	-6152
▁product	-6153
▁conflict	-6154
▁detailed	-6155
▁rekister	-6156
▁vastaavan	-6157
▁hallintone	-6158
▁valiokunnassa	-6159
cer	-6160
adan	-6161
llei	-6162
ring	-6163
ättä	-6164
▁big	-6165
▁län	-6166
▁äär	-6167
▁inno	-6168
▁kaks	-6169
koulut	-6170
kustann	-6171
▁secure	-6172
▁simple	-6173
▁submit	-6174
istuksen	-6175
▁jotakin	-6176
▁toimien	-6177
▁kysymyksiin	-6178
▁maanviljelij	-6179
▁yhteistyössä	-6180
▁appropriations	-6181
▁eurooppalaisten	-6182
▁päätöslauselman	-6183
nän	-6184
ably	-6185
▁näh	-6186
▁uni	-6187
▁impr	-6188
▁kulu	-6189
kauden	-6190
▁cyprus	-6191
▁requir	-6192
▁aiemmin	-6193
▁antanut	-6194
▁comment	-6195
▁tekevät	-6196
▁kaikilla	-6197
▁muutamia	-6198
▁labelling	-6199
▁otherwise	-6200
▁epäluottam	-6201
▁koskevassa	-6202
▁tehokkaasti	-6203
▁työllisyyden	-6204
▁cf	-6205
▁sk	-6206
vaik	-6207
itaar	-6208
oneet	-6209
▁firm	-6210
▁name	-6211
valtio	-6212
▁alone	-6213
▁death	-6214
▁monti	-6215
sopimus	-6216
▁closer	-6217
▁etujen	-6218
▁opetta	-6219
▁police	-6220
▁applies	-6221
parlament	-6222
▁aiheesta	-6223
▁käytössä	-6224
▁november	-6225
▁erilaisia	-6226
▁structure	-6227
▁markkinoiden	-6228
atu	-6229
ney	-6230
ards	-6231
yond	-6232
▁odo	-6233
▁vuo	-6234
kaupp	-6235
▁dise	-6236
▁fear	-6237
▁asema	-6238
▁etuja	-6239
▁taata	-6240
▁beyond	-6241
▁teemme	-6242
▁america	-6243
▁consist	-6244
▁element	-6245
▁ihmisiä	-6246
▁natural	-6247
▁parempi	-6248
▁välimeren	-6249
▁tietoyhteis	-6250
▁implementing	-6251
cul	-6252
eni	-6253
▁')	-6254
▁ly	-6255
atom	-6256
kinä	-6257
kkää	-6258
▁täs	-6259
▁acts	-6260
▁aims	-6261
▁helm	-6262
▁tarv	-6263
▁categ	-6264
▁messa	-6265
▁neljä	-6266
▁nähdä	-6267
▁päivä	-6268
▁rates	-6269
▁tiety	-6270
▁uskot	-6271
▁virhe	-6272
ohjelma	-6273
▁aluksi	-6274
▁asking	-6275
▁checks	-6276
▁keskisu	-6277
▁käyttöä	-6278
▁swedish	-6279
▁yhdenty	-6280
▁equality	-6281
▁kaikkiin	-6282
▁ehdotukset	-6283
▁tarkoitettu	-6284
▁välttämättöm	-6285
▁kansainvälinen	-6286
bow	-6287
try	-6288
ury	-6289
▁cp	-6290
uvia	-6291
vapa	-6292
▁ajo	-6293
iency	-6294
yneen	-6295
▁fulf	-6296
▁side	-6297
itämme	-6298
▁proba	-6299
▁voiko	-6300
▁alkaen	-6301
▁formal	-6302
▁kirjan	-6303
▁muissa	-6304
▁prefer	-6305
european	-6306
▁entistä	-6307
▁missään	-6308
▁overall	-6309
▁respond	-6310
▁markkina	-6311
▁tarkastel	-6312
hy	-6313
emin	-6314
usij	-6315
ästy	-6316
▁env	-6317
ehdot	-6318
▁cand	-6319
▁aimed	-6320
▁exten	-6321
▁extra	-6322
▁irish	-6323
allisia	-6324
tieteen	-6325
........	-6326
ritysten	-6327
▁session	-6328
▁accident	-6329
▁nykyisin	-6330
▁providing	-6331
▁valvonnan	-6332
▁yhdysvall	-6333
▁codecision	-6334
▁suuntaviiv	-6335
▁humanitarian	-6336
▁relationship	-6337
▁välittömästi	-6338
cr	-6339
ada	-6340
ift	-6341
ung	-6342
▁igc	-6343
alled	-6344
orted	-6345
orten	-6346
▁joko	-6347
▁self	-6348
▁excess	-6349
▁limits	-6350
▁marras	-6351
keskuksen	-6352
▁albanian	-6353
▁joidenkin	-6354
▁vakavasti	-6355
▁voimakkaasti	-6356
▁turvallisuuden	-6357
▁taa	-6358
▁away	-6359
▁days	-6360
▁tarj	-6361
▁appre	-6362
▁valmi	-6363
▁across	-6364
▁herrat	-6365
▁linked	-6366
▁saamme	-6367
▁pitänyt	-6368
▁varojen	-6369
▁yleisen	-6370
▁jugoslav	-6371
▁toivomme	-6372
▁erinomais	-6373
▁alternative	-6374
▁tilanteesta	-6375
▁elintarvikke	-6376
sh	-6377
lta	-6378
ateral	-6379
okseen	-6380
▁tacis	-6381
▁candid	-6382
▁closed	-6383
▁liitte	-6384
▁viiden	-6385
▁analyys	-6386
▁maximum	-6387
▁vastuun	-6388
konferens	-6389
▁voisivat	-6390
▁colleague	-6391
▁seriously	-6392
▁sopimuksessa	-6393
atte	-6394
▁fil	-6395
▁flo	-6396
▁pil	-6397
stant	-6398
making	-6399
▁accom	-6400
▁immig	-6401
avaltio	-6402
ollinen	-6403
▁arrang	-6404
▁edessä	-6405
▁etusij	-6406
▁capital	-6407
▁peoples	-6408
▁biotechn	-6409
▁nykyisen	-6410
▁seuranta	-6411
▁soveltaa	-6412
▁temporary	-6413
▁solidarity	-6414
▁differences	-6415
mann	-6416
▁luj	-6417
▁sve	-6418
▁täh	-6419
▁este	-6420
▁jälj	-6421
▁stop	-6422
enkiin	-6423
▁advis	-6424
▁fronti	-6425
▁johdon	-6426
▁johtuu	-6427
▁satell	-6428
▁unable	-6429
▁looking	-6430
▁lähettä	-6431
▁suojele	-6432
▁totally	-6433
▁enormous	-6434
▁ilmaista	-6435
▁treaties	-6436
▁ulkopuol	-6437
▁exception	-6438
▁financing	-6439
▁officials	-6440
▁socialist	-6441
▁eurooppane	-6442
▁kuluttajansu	-6443
mm	-6444
bru	-6445
aton	-6446
ipal	-6447
▁lih	-6448
▁ecun	-6449
▁kuva	-6450
ksessä	-6451
▁calls	-6452
▁varma	-6453
tamisen	-6454
▁affect	-6455
▁citizen	-6456
▁complex	-6457
▁illegal	-6458
▁ruotsin	-6459
▁antamaan	-6460
▁määritel	-6461
▁tosiasia	-6462
valiokunta	-6463
▁qualified	-6464
▁sovelletaan	-6465
▁käytettävissä	-6466
▁kasvilajikevir	-6467
ero	-6468
ott	-6469
enge	-6470
ging	-6471
orin	-6472
tasa	-6473
▁alu	-6474
▁lot	-6475
▁mus	-6476
▁ota	-6477
▁sir	-6478
▁apua	-6479
ongelm	-6480
▁häntä	-6481
▁ideas	-6482
▁pääos	-6483
▁savuk	-6484
▁waste	-6485
▁around	-6486
▁exclud	-6487
▁living	-6488
▁vuosik	-6489
▁rakenne	-6490
tettaisiin	-6491
▁kannattaa	-6492
▁valvontaa	-6493
▁structures	-6494
▁mediterranean	-6495
cla	-6496
ron	-6497
isms	-6498
▁rot	-6499
ighte	-6500
ostan	-6501
▁ones	-6502
▁worth	-6503
▁aheady	-6504
▁stated	-6505
▁varain	-6506
▁chamber	-6507
▁demands	-6508
▁odottaa	-6509
▁reforms	-6510
▁ristiri	-6511
▁written	-6512
▁languages	-6513
▁poliittiset	-6514
fi	-6515
outh	-6516
reja	-6517
▁suo	-6518
bruary	-6519
netään	-6520
▁acknow	-6521
▁ranska	-6522
▁aikaansa	-6523
▁ensuring	-6524
järjestely	-6525
▁equipment	-6526
▁ohjelmien	-6527
▁liittyvien	-6528
▁tutkimusta	-6529
▁näkökulmasta	-6530
▁oikeudenmuka	-6531
▁comprehensive	-6532
elin	-6533
enin	-6534
tapa	-6535
utkim	-6536
▁refu	-6537
instit	-6538
oksiin	-6539
▁greece	-6540
▁päätty	-6541
▁minkään	-6542
▁onnistu	-6543
▁opiskel	-6544
▁vastoin	-6545
olitiikan	-6546
▁contract	-6547
▁exercise	-6548
▁instance	-6549
▁committed	-6550
▁kokouksen	-6551
▁permanent	-6552
▁seuraavat	-6553
▁universal	-6554
▁päätökseen	-6555
brit	-6556
elly	-6557
ipaik	-6558
ottom	-6559
▁mier	-6560
▁told	-6561
▁trav	-6562
iljely	-6563
▁heitä	-6564
▁krite	-6565
▁works	-6566
▁exists	-6567
▁paremp	-6568
▁päivän	-6569
▁involve	-6570
▁menesty	-6571
▁extended	-6572
▁kehittää	-6573
▁ottamaan	-6574
▁probably	-6575
▁remember	-6576
▁sisältyy	-6577
▁operators	-6578
▁nimenomaan	-6579
▁sopimuksia	-6580
▁strengthening	-6581
etr	-6582
ampi	-6583
tety	-6584
iikan	-6585
oming	-6586
▁gain	-6587
llisen	-6588
oittaa	-6589
udella	-6590
▁enfor	-6591
▁johtu	-6592
▁obstac	-6593
aisuutta	-6594
ervation	-6595
▁appreci	-6596
▁mainita	-6597
▁ohjelma	-6598
▁toiseen	-6599
▁american	-6600
▁contains	-6601
▁february	-6602
▁tuloksia	-6603
▁menettelyn	-6604
▁mietintöön	-6605
▁työpaikkoja	-6606
▁vuoropuhelu	-6607
▁harmonization	-6608
ctr	-6609
▁yu	-6610
body	-6611
ikkö	-6612
ream	-6613
tuur	-6614
vert	-6615
▁ade	-6616
▁run	-6617
▁sai	-6618
▁sep	-6619
kansa	-6620
lines	-6621
▁near	-6622
▁pohd	-6623
▁venä	-6624
oikeus	-6625
▁deput	-6626
▁exemp	-6627
▁leave	-6628
▁toive	-6629
▁appeal	-6630
▁varoja	-6631
▁päämäär	-6632
parliament	-6633
▁annettava	-6634
▁tietoinen	-6635
▁todellinen	-6636
▁applications	-6637
▁lainsäädäntöä	-6638
vk	-6639
pla	-6640
etel	-6641
▁cut	-6642
▁hen	-6643
▁huum	-6644
▁ryhd	-6645
essani	-6646
väline	-6647
▁decla	-6648
▁hyvän	-6649
▁tason	-6650
kuntaan	-6651
▁anyone	-6652
▁kyseen	-6653
▁laatia	-6654
▁maihin	-6655
▁opetus	-6656
▁growing	-6657
▁muistut	-6658
▁anything	-6659
▁irlannin	-6660
▁tulokset	-6661
▁esittänyt	-6662
▁tiedonann	-6663
▁humanitaar	-6664
▁membership	-6665
az	-6666
ey	-6667
ija	-6668
onin	-6669
▁myy	-6670
▁sor	-6671
▁seek	-6672
▁sivi	-6673
▁syys	-6674
▁weak	-6675
iently	-6676
teesta	-6677
▁entit	-6678
▁journ	-6679
ukseksi	-6680
▁kohtaa	-6681
▁outcome	-6682
▁vaikeaa	-6683
▁johdosta	-6684
▁lyhyesti	-6685
▁kysymystä	-6686
▁tietokone	-6687
▁vaaditaan	-6688
▁talousarvi	-6689
▁examination	-6690
▁neuvostossa	-6691
▁työllisyyttä	-6692
que	-6693
ervat	-6694
kusta	-6695
action	-6696
koihin	-6697
ksistä	-6698
▁north	-6699
▁äänes	-6700
uksensa	-6701
▁tutkia	-6702
imension	-6703
▁crucial	-6704
ikaisesti	-6705
▁päätöksiä	-6706
▁september	-6707
▁tällaisen	-6708
hen	-6709
tos	-6710
▁red	-6711
▁paru	-6712
isiksi	-6713
▁delay	-6714
▁remar	-6715
▁vehic	-6716
▁announ	-6717
▁mainly	-6718
▁please	-6719
▁tiedän	-6720
▁vakaus	-6721
emminkin	-6722
▁antavat	-6723
▁contact	-6724
▁facilit	-6725
▁revenue	-6726
▁occasion	-6727
▁rejected	-6728
▁speakers	-6729
▁luxemburg	-6730
▁successful	-6731
▁competitive	-6732
grad	-6733
▁tus	-6734
jäsen	-6735
▁keks	-6736
▁vess	-6737
▁broek	-6738
▁eriko	-6739
▁oomen	-6740
▁saatu	-6741
▁compar	-6742
▁refuge	-6743
▁saatav	-6744
▁sitoum	-6745
▁toimit	-6746
▁attempt	-6747
▁julkisen	-6748
▁perustaa	-6749
▁sijaitse	-6750
▁challenge	-6751
▁kuukauden	-6752
▁sellainen	-6753
▁henkilöstö	-6754
▁kysymykset	-6755
▁salakuljet	-6756
▁henkilöiden	-6757
▁lähestymista	-6758
▁discrimination	-6759
▁mahdollisuutta	-6760
ked	-6761
ared	-6762
ered	-6763
järj	-6764
stön	-6765
▁came	-6766
▁donn	-6767
▁edus	-6768
himill	-6769
▁osuus	-6770
▁weeks	-6771
vastoin	-6772
▁kukaan	-6773
▁likely	-6774
▁maista	-6775
▁sanottu	-6776
▁unioniin	-6777
▁huumeiden	-6778
▁ministeri	-6779
▁territory	-6780
▁compulsory	-6781
▁ponnistelu	-6782
▁represents	-6783
▁hvk	-6784
▁reh	-6785
▁tim	-6786
▁weu	-6787
▁elim	-6788
▁manu	-6789
▁tiede	-6790
portion	-6791
uksemme	-6792
▁highly	-6793
▁placed	-6794
▁läsnäol	-6795
▁myöntää	-6796
▁nimissä	-6797
itiveness	-6798
▁koskevaan	-6799
▁mielenkiin	-6800
▁destination	-6801
▁tilanteessa	-6802
yer	-6803
ened	-6804
▁emb	-6805
▁lam	-6806
▁lom	-6807
ilaus	-6808
▁laws	-6809
▁lost	-6810
▁löyd	-6811
▁octo	-6812
▁phys	-6813
▁spir	-6814
lainen	-6815
▁aikata	-6816
▁elimin	-6817
▁target	-6818
▁vapaan	-6819
▁aihetta	-6820
▁changed	-6821
▁initial	-6822
▁october	-6823
▁kokonaan	-6824
▁original	-6825
▁sääntely	-6826
menettelyn	-6827
▁extension	-6828
▁tiettyjen	-6829
▁ministerine	-6830
▁ulkopuolelle	-6831
▁ek	-6832
▁ved	-6833
ijten	-6834
▁kell	-6835
impien	-6836
▁fonta	-6837
▁highl	-6838
aisesta	-6839
ijoiden	-6840
▁depart	-6841
▁verrat	-6842
▁confirm	-6843
▁voimavar	-6844
▁ajankohta	-6845
▁dimension	-6846
▁kolmannen	-6847
▁organized	-6848
▁published	-6849
▁kiinnittää	-6850
▁neuvottelut	-6851
▁alankomaiden	-6852
▁professional	-6853
sc	-6854
jal	-6855
nen	-6856
char	-6857
▁sar	-6858
▁tex	-6859
tintä	-6860
▁laiv	-6861
ective	-6862
▁estim	-6863
▁lines	-6864
▁intend	-6865
▁lukien	-6866
▁makset	-6867
▁supply	-6868
uttamaan	-6869
▁eivätkä	-6870
▁suhteet	-6871
▁täysist	-6872
▁vuoteen	-6873
▁election	-6874
▁muodossa	-6875
▁discussing	-6876
gar	-6877
lin	-6878
tti	-6879
uis	-6880
kina	-6881
tuom	-6882
▁vie	-6883
intia	-6884
isval	-6885
matta	-6886
mälle	-6887
detään	-6888
ighted	-6889
kohdat	-6890
komite	-6891
▁kovin	-6892
▁packa	-6893
▁react	-6894
▁suorit	-6895
▁yhtälä	-6896
▁jäsenma	-6897
▁agencies	-6898
▁happened	-6899
▁tiettyjä	-6900
▁yugoslav	-6901
▁concluded	-6902
▁recognize	-6903
▁sopimukset	-6904
▁kolmanneksi	-6905
▁tyytyväinen	-6906
▁keskusteluun	-6907
▁ö	-6908
dan	-6909
eja	-6910
raat	-6911
teja	-6912
▁mot	-6913
idaar	-6914
▁loka	-6915
▁phil	-6916
▁rise	-6917
veness	-6918
▁happy	-6919
▁lives	-6920
▁uudet	-6921
britann	-6922
▁barcel	-6923
▁listen	-6924
▁samaan	-6925
▁welcom	-6926
allisten	-6927
▁thirdly	-6928
▁withdraw	-6929
▁described	-6930
▁influence	-6931
▁päinvastoin	-6932
▁toimitetaan	-6933
▁traditional	-6934
▁epäluottamus	-6935
▁työpaikkojen	-6936
▁tuomioistuimen	-6937
ze	-6938
uor	-6939
asem	-6940
ttes	-6941
▁jät	-6942
maksi	-6943
▁live	-6944
▁smes	-6945
palvel	-6946
▁electr	-6947
▁merenk	-6948
▁istunto	-6949
▁nuorten	-6950
▁virasto	-6951
istettava	-6952
▁elements	-6953
▁kiireell	-6954
▁kollegan	-6955
▁modified	-6956
▁puolusta	-6957
▁arviointi	-6958
▁riittävän	-6959
▁kunnioitta	-6960
▁välttämättö	-6961
▁keskustelussa	-6962
▁competitiveness	-6963
▁hait	-6964
▁laun	-6965
▁pari	-6966
▁viet	-6967
▁eilen	-6968
▁judic	-6969
▁laaja	-6970
▁millä	-6971
▁explan	-6972
▁kasvat	-6973
▁absence	-6974
▁charact	-6975
▁journal	-6976
▁miesten	-6977
▁expected	-6978
▁nykyinen	-6979
▁speaking	-6980
▁sääntöjä	-6981
▁eurooppaa	-6982
▁miljoonan	-6983
▁unionista	-6984
▁continuing	-6985
egu	-6986
esit	-6987
kinn	-6988
verk	-6989
▁löy	-6990
astaa	-6991
sized	-6992
▁gonz	-6993
▁wibe	-6994
actory	-6995
▁appar	-6996
▁tältä	-6997
▁income	-6998
▁näillä	-6999
kinoilla	-7000
▁annettu	-7001
▁collins	-7002
▁condemn	-7003
▁tupakan	-7004
▁constant	-7005
▁osittain	-7006
▁peräisin	-7007
▁solidaar	-7008
▁täydentä	-7009
▁taloudelliset	-7010
▁eurooppalainen	-7011
oul	-7012
jalle	-7013
▁kier	-7014
▁news	-7015
▁shar	-7016
enkään	-7017
▁arvon	-7018
▁depar	-7019
▁suoja	-7020
▁advert	-7021
▁siirtä	-7022
▁exploit	-7023
▁kollega	-7024
▁medical	-7025
▁profess	-7026
▁succeed	-7027
▁hyväksyn	-7028
▁medicine	-7029
▁kaupungin	-7030
▁sanctions	-7031
▁cigarettes	-7032
▁pöytäkirjan	-7033
▁consequently	-7034
ches	-7035
▁aam	-7036
jetta	-7037
loyed	-7038
estään	-7039
hankke	-7040
issaan	-7041
kaamme	-7042
llisiä	-7043
▁pidän	-7044
▁toivo	-7045
▁tuoda	-7046
▁facing	-7047
▁hyötyä	-7048
▁repeat	-7049
▁safegu	-7050
▁saatava	-7051
▁advantage	-7052
▁edustajat	-7053
▁kollegani	-7054
▁markkinoille	-7055
▁neuvottelujen	-7056
▁ä	-7057
eett	-7058
▁hil	-7059
▁lupa	-7060
joille	-7061
▁assos	-7062
ikunnan	-7063
▁alussa	-7064
▁fourth	-7065
▁austria	-7066
▁exactly	-7067
▁examine	-7068
▁forests	-7069
▁grounds	-7070
▁kannata	-7071
▁conclude	-7072
▁liittyvä	-7073
▁opinions	-7074
▁valuutta	-7075
▁harjoitta	-7076
▁julkilaus	-7077
▁obligations	-7078
▁poliittisia	-7079
hde	-7080
▁yd	-7081
lies	-7082
time	-7083
▁kie	-7084
▁lan	-7085
▁eett	-7086
▁hour	-7087
anneet	-7088
itable	-7089
▁laaju	-7090
▁learn	-7091
▁urheil	-7092
▁väärin	-7093
▁reduced	-7094
▁kuluessa	-7095
▁register	-7096
▁valmista	-7097
▁institute	-7098
▁paruament	-7099
▁väärinkäy	-7100
▁complaints	-7101
▁evaluation	-7102
▁koskevista	-7103
▁poliittisten	-7104
▁puheenjohtajan	-7105
▁representative	-7106
lf	-7107
pas	-7108
ush	-7109
tiet	-7110
▁div	-7111
▁iii	-7112
eiden	-7113
▁gree	-7114
▁harm	-7115
▁koti	-7116
▁urge	-7117
▁build	-7118
▁löytä	-7119
▁säily	-7120
ruijten	-7121
▁azerba	-7122
▁desire	-7123
▁kielte	-7124
▁sotila	-7125
▁farming	-7126
▁perustan	-7127
▁dangerous	-7128
▁rekisterö	-7129
▁palvelujen	-7130
▁tammikuuta	-7131
▁epäilemättä	-7132
▁kansalaisille	-7133
ssa	-7134
▁ran	-7135
▁unoh	-7136
hteeri	-7137
istoim	-7138
▁helms	-7139
▁helpp	-7140
▁paino	-7141
▁rahaa	-7142
▁range	-7143
▁compla	-7144
▁kertoa	-7145
▁saavut	-7146
▁sanoin	-7147
▁inspect	-7148
▁nykyään	-7149
▁halutaan	-7150
▁toisessa	-7151
mahdollisu	-7152
▁immediate	-7153
▁occasions	-7154
▁forwarders	-7155
▁heinäkuuta	-7156
▁supporting	-7157
▁suunnitelm	-7158
▁tasavallan	-7159
▁koulutuksen	-7160
▁kustannusten	-7161
fect	-7162
flik	-7163
uton	-7164
▁pun	-7165
kettä	-7166
kinat	-7167
vasti	-7168
▁easy	-7169
▁raja	-7170
ellaan	-7171
▁erään	-7172
▁kohtu	-7173
▁maita	-7174
osapuol	-7175
▁bosnia	-7176
▁pyrkii	-7177
▁subsequ	-7178
▁emphasis	-7179
▁kannatan	-7180
▁mainittu	-7181
▁mukaista	-7182
▁thinking	-7183
▁liikenteen	-7184
▁määräyksiä	-7185
▁kansalaisia	-7186
▁yhdistyneen	-7187
cd	-7188
luv	-7189
old	-7190
udu	-7191
aset	-7192
drid	-7193
just	-7194
tori	-7195
ettom	-7196
ialue	-7197
▁avun	-7198
▁kuka	-7199
▁kuull	-7200
▁madrid	-7201
▁worked	-7202
▁amended	-7203
▁brittan	-7204
▁counter	-7205
▁message	-7206
▁monopol	-7207
▁articles	-7208
▁oikeutet	-7209
▁palautta	-7210
▁character	-7211
▁existence	-7212
▁involving	-7213
▁petitions	-7214
▁promoting	-7215
▁osoittavat	-7216
▁technologies	-7217
▁eurooppalaista	-7218
otti	-7219
▁acqu	-7220
border	-7221
kuuluv	-7222
▁epäil	-7223
uksilla	-7224
uksille	-7225
▁deputy	-7226
▁muutos	-7227
komitean	-7228
▁jäsentä	-7229
▁merenkul	-7230
▁regarded	-7231
▁toimitta	-7232
▁lindqvist	-7233
▁promotion	-7234
▁sellaisia	-7235
▁tavaramer	-7236
▁koulutusta	-7237
."	-7238
het	-7239
rok	-7240
acts	-7241
ijan	-7242
ijää	-7243
astot	-7244
gence	-7245
iable	-7246
▁ucla	-7247
aisena	-7248
uneita	-7249
▁mitkä	-7250
▁perhe	-7251
▁tansk	-7252
▁uskom	-7253
▁youth	-7254
▁burden	-7255
▁joukko	-7256
▁määrät	-7257
▁näyttä	-7258
▁europol	-7259
▁huomion	-7260
▁konflik	-7261
▁neither	-7262
▁suojelu	-7263
▁komitean	-7264
▁kyproksen	-7265
▁seuraavan	-7266
▁hankkeiden	-7267
▁hyväksytty	-7268
▁liikkuvuus	-7269
▁menettelyä	-7270
▁todellista	-7271
▁vastauksen	-7272
▁toissijaisuus	-7273
bor	-7274
tedt	-7275
▁fel	-7276
▁tro	-7277
ories	-7278
▁fern	-7279
▁kohe	-7280
▁sort	-7281
▁fores	-7282
▁prime	-7283
▁talks	-7284
▁uclaf	-7285
▁chance	-7286
▁kalast	-7287
▁loukka	-7288
▁calling	-7289
▁monissa	-7290
▁opening	-7291
ityksessä	-7292
▁bringing	-7293
▁liberaal	-7294
▁tasapain	-7295
▁toimivat	-7296
▁condition	-7297
▁yrityksiä	-7298
▁hyväksyttä	-7299
▁käsiteltäväksi	-7300
attu	-7301
pitä	-7302
rate	-7303
hteen	-7304
matic	-7305
oning	-7306
▁valm	-7307
vaatim	-7308
▁invit	-7309
▁caused	-7310
▁concre	-7311
▁epäonn	-7312
▁esitet	-7313
▁kokous	-7314
▁object	-7315
▁geneett	-7316
▁completed	-7317
▁edellyttä	-7318
▁painottaa	-7319
järjestöjen	-7320
▁käsittelee	-7321
▁yhteisestä	-7322
▁käsittelyssä	-7323
▁yhdysvaltojen	-7324
▁säh	-7325
ature	-7326
house	-7327
yhmän	-7328
▁spok	-7329
ointed	-7330
ousand	-7331
▁apart	-7332
▁balan	-7333
▁hyvää	-7334
▁sopiv	-7335
teisiin	-7336
▁choice	-7337
▁manner	-7338
▁selkeä	-7339
▁wonder	-7340
▁väliaik	-7341
▁becoming	-7342
▁inhimill	-7343
▁strongly	-7344
▁toteutet	-7345
▁vakuutus	-7346
▁erityistä	-7347
▁välisessä	-7348
▁presidents	-7349
▁ehdottomasti	-7350
▁intervention	-7351
▁kilpailukyky	-7352
dle	-7353
rel	-7354
▁iv	-7355
osed	-7356
talo	-7357
perus	-7358
tedly	-7359
terve	-7360
▁erot	-7361
▁näky	-7362
▁ohja	-7363
▁tend	-7364
idemok	-7365
ikansa	-7366
▁kahta	-7367
▁kiell	-7368
▁damage	-7369
▁vaatia	-7370
▁defined	-7371
▁hyväksyy	-7372
▁lainkaan	-7373
▁payments	-7374
▁tarkasti	-7375
▁tehtävän	-7376
▁thousand	-7377
▁contracts	-7378
▁efficient	-7379
▁intention	-7380
▁keskisuur	-7381
▁kesäkuuta	-7382
▁maaseudun	-7383
▁efficiency	-7384
▁rakenteell	-7385
▁statistics	-7386
▁yhdistynyt	-7387
lj	-7388
za	-7389
jer	-7390
jät	-7391
tit	-7392
tul	-7393
amaa	-7394
tied	-7395
▁fly	-7396
▁ign	-7397
▁pap	-7398
▁syd	-7399
hoito	-7400
sibly	-7401
▁edun	-7402
▁eräs	-7403
▁koos	-7404
▁läpi	-7405
▁muot	-7406
▁wait	-7407
allaan	-7408
ateful	-7409
elfare	-7410
teluun	-7411
▁audit	-7412
▁kerro	-7413
▁trend	-7414
▁types	-7415
▁defend	-7416
▁suuret	-7417
▁tulemme	-7418
▁työsuoj	-7419
▁argument	-7420
▁includes	-7421
▁requires	-7422
▁suhteita	-7423
▁varmista	-7424
▁kaikkialla	-7425
▁määräysten	-7426
▁proportion	-7427
▁recognized	-7428
▁bioteknolog	-7429
▁järjestäyty	-7430
▁kansallisia	-7431
▁kertomuksen	-7432
▁organisation	-7433
▁yhteiskunnan	-7434
▁understanding	-7435
ash	-7436
idon	-7437
olid	-7438
tual	-7439
etion	-7440
iteen	-7441
ksestä	-7442
▁noted	-7443
▁tiedä	-7444
▁viita	-7445
llisten	-7446
▁family	-7447
▁implic	-7448
▁kiinan	-7449
▁spirit	-7450
▁suspend	-7451
▁version	-7452
▁vähimmä	-7453
▁welfare	-7454
▁critical	-7455
▁matkusta	-7456
▁numerous	-7457
▁vähentää	-7458
▁emphasize	-7459
▁acceptable	-7460
▁edustajien	-7461
▁johdonmuka	-7462
▁tavoitteet	-7463
▁työttömyys	-7464
sp	-7465
▁ant	-7466
▁laj	-7467
luonn	-7468
ption	-7469
▁attr	-7470
▁ystä	-7471
▁hinta	-7472
▁oikea	-7473
▁quota	-7474
▁saira	-7475
▁speed	-7476
▁surpr	-7477
▁suull	-7478
alaisia	-7479
utkinto	-7480
▁intell	-7481
▁meistä	-7482
▁mikään	-7483
▁teksti	-7484
▁ihmisen	-7485
▁mielell	-7486
▁concrete	-7487
▁pitkälle	-7488
▁convinced	-7489
▁edistystä	-7490
▁kiitoksia	-7491
▁suhteiden	-7492
▁prevention	-7493
▁sisällyttä	-7494
▁operational	-7495
▁parhaillaan	-7496
▁sosiaalista	-7497
no	-7498
har	-7499
ima	-7500
amat	-7501
ohlf	-7502
ound	-7503
tyne	-7504
▁sad	-7505
estin	-7506
ients	-7507
komis	-7508
ryhmä	-7509
tical	-7510
▁intr	-7511
▁kapp	-7512
ittävä	-7513
maissa	-7514
▁kysyä	-7515
▁rooli	-7516
▁vaale	-7517
atively	-7518
utettava	-7519
▁korkean	-7520
▁säännöt	-7521
▁ymmärre	-7522
anomaiset	-7523
▁huolitsi	-7524
▁voisimme	-7525
▁definition	-7526
▁esittämään	-7527
▁hyväksynyt	-7528
▁ensimmäistä	-7529
▁yrityksille	-7530
▁kustannuksia	-7531
▁tilanteeseen	-7532
▁samanaikaisesti	-7533
hib	-7534
kua	-7535
ries	-7536
tims	-7537
meren	-7538
▁seka	-7539
▁break	-7540
▁greek	-7541
▁inade	-7542
▁riitä	-7543
▁tietä	-7544
▁forget	-7545
▁suojel	-7546
▁suurem	-7547
▁ulkoma	-7548
▁ethical	-7549
▁poistaa	-7550
▁tarjoaa	-7551
▁yleinen	-7552
tamisesta	-7553
▁pursuant	-7554
▁ulottuvu	-7555
▁ylimäärä	-7556
▁associated	-7557
▁vaikeuksia	-7558
▁liittyvistä	-7559
▁pikemminkin	-7560
järjestelmien	-7561
▁sosiaaliturva	-7562
▁turvallisuutta	-7563
ori	-7564
umi	-7565
vis	-7566
cies	-7567
urss	-7568
utua	-7569
mättö	-7570
▁elig	-7571
▁erää	-7572
▁mass	-7573
▁nais	-7574
▁sair	-7575
▁thor	-7576
burton	-7577
▁omaks	-7578
▁rohka	-7579
tations	-7580
▁engine	-7581
▁medina	-7582
▁bertens	-7583
▁hyvinvo	-7584
▁victims	-7585
▁välttää	-7586
▁examples	-7587
▁fontaine	-7588
▁kertomus	-7589
▁käyttämä	-7590
▁sosiaali	-7591
▁miljardia	-7592
▁positions	-7593
▁vastaavat	-7594
▁joulukuuta	-7595
▁associations	-7596
▁valtuuskunta	-7597
▁yhteispäätös	-7598
▁kuningaskunta	-7599
▁kansainvälisten	-7600
▁todennäköisesti	-7601
zen	-7602
emen	-7603
ored	-7604
▁ahl	-7605
▁kut	-7606
▁pky	-7607
ensus	-7608
▁deep	-7609
▁doll	-7610
▁heav	-7611
▁oral	-7612
▁round	-7613
▁tasks	-7614
▁kiinte	-7615
▁merely	-7616
▁seeking	-7617
▁followed	-7618
▁grateful	-7619
▁ryhmämme	-7620
▁achieving	-7621
▁muodostaa	-7622
▁prosentin	-7623
▁demokratia	-7624
▁rahoitusta	-7625
▁convergence	-7626
▁kehittäminen	-7627
▁ulkopuolella	-7628
isc	-7629
uol	-7630
inan	-7631
ites	-7632
▁uhka	-7633
▁wide	-7634
▁manuf	-7635
▁silgu	-7636
▁water	-7637
▁wohlf	-7638
aisessa	-7639
menetel	-7640
▁hylkää	-7641
▁offers	-7642
▁puhetta	-7643
▁perustus	-7644
▁päätöstä	-7645
▁kilpailun	-7646
▁säilyttää	-7647
▁yliopisto	-7648
▁participate	-7649
aak	-7650
iop	-7651
kor	-7652
▁wa	-7653
aman	-7654
oida	-7655
stro	-7656
uoto	-7657
what	-7658
▁ves	-7659
ensen	-7660
isiko	-7661
oneuv	-7662
valtu	-7663
▁pack	-7664
▁pank	-7665
inding	-7666
▁byrok	-7667
▁distr	-7668
▁wants	-7669
▁actual	-7670
▁baltic	-7671
▁muille	-7672
▁mutual	-7673
▁prosec	-7674
▁wanted	-7675
▁amounts	-7676
▁kreikan	-7677
▁ottanut	-7678
lementary	-7679
▁affected	-7680
▁käytetty	-7681
▁liittyen	-7682
▁repeated	-7683
▁wohlfart	-7684
▁sääntöjen	-7685
▁konferenss	-7686
▁genetically	-7687
▁kansakuntien	-7688
▁tuomioistuim	-7689
▁vuoropuhelun	-7690
▁jäsenvaltioille	-7691
we	-7692
auc	-7693
työ	-7694
osti	-7695
tark	-7696
vaih	-7697
▁fer	-7698
▁gar	-7699
▁slo	-7700
isted	-7701
odaan	-7702
▁kill	-7703
▁tapp	-7704
omaatt	-7705
▁marit	-7706
▁sound	-7707
▁texts	-7708
damissa	-7709
uations	-7710
▁kasvin	-7711
▁monien	-7712
▁passed	-7713
▁suures	-7714
▁automat	-7715
▁organic	-7716
▁ahlqvist	-7717
▁ammatill	-7718
▁arvioida	-7719
▁negative	-7720
▁selvittä	-7721
▁spending	-7722
▁noudattaa	-7723
▁subsidies	-7724
parlamentti	-7725
▁konferenssi	-7726
▁mahdollistaa	-7727
▁yhteenkuuluv	-7728
▁sosiaalidemok	-7729
▁kuningaskunnan	-7730
▁cm	-7731
egal	-7732
oitu	-7733
omas	-7734
vaan	-7735
wide	-7736
▁kem	-7737
▁ton	-7738
▁chem	-7739
▁nort	-7740
▁omin	-7741
▁added	-7742
▁floor	-7743
▁frequ	-7744
▁massa	-7745
▁panel	-7746
▁users	-7747
▁epävar	-7748
▁series	-7749
▁source	-7750
▁titley	-7751
istuksia	-7752
▁kunnian	-7753
▁puhumme	-7754
▁senegal	-7755
▁välittä	-7756
▁experien	-7757
▁maritime	-7758
▁suuresti	-7759
▁yhteensä	-7760
▁sellaista	-7761
▁sovittelu	-7762
▁substance	-7763
▁reasonable	-7764
▁preparation	-7765
▁arrangements	-7766
▁järjestelmää	-7767
▁eurooppalaiset	-7768
▁jäsenvaltioita	-7769
▁ympäristönsuoj	-7770
ecd	-7771
ris	-7772
▁xx	-7773
ähte	-7774
▁spd	-7775
enary	-7776
ikaan	-7777
innon	-7778
missä	-7779
neksi	-7780
▁olin	-7781
▁sion	-7782
iselta	-7783
lliset	-7784
▁ellei	-7785
▁erila	-7786
▁erill	-7787
▁knows	-7788
▁pient	-7789
atetaan	-7790
▁comply	-7791
▁credit	-7792
▁fields	-7793
▁hiljat	-7794
▁kiinni	-7795
▁laimin	-7796
▁normal	-7797
▁regist	-7798
▁sveits	-7799
▁amongst	-7800
▁genetic	-7801
▁huolena	-7802
▁tilasto	-7803
▁valtiot	-7804
▁äskettä	-7805
▁kyseinen	-7806
▁oikeassa	-7807
▁reducing	-7808
▁suoritet	-7809
▁televies	-7810
▁tällaisia	-7811
▁jäsenmaiden	-7812
▁construction	-7813
▁tavoitteiden	-7814
▁erinomaisesta	-7815
▁parlamenttien	-7816
etun	-7817
hden	-7818
▁jar	-7819
▁tap	-7820
ellyt	-7821
öille	-7822
▁hinn	-7823
▁jään	-7824
▁koke	-7825
▁lopp	-7826
▁tind	-7827
altaan	-7828
joilla	-7829
▁silti	-7830
▁tuken	-7831
tiöiden	-7832
▁elämän	-7833
▁maksaa	-7834
▁olevaa	-7835
▁kalasta	-7836
▁saamaan	-7837
▁schemes	-7838
▁sisältä	-7839
▁vessels	-7840
▁forestry	-7841
▁judicial	-7842
▁industries	-7843
▁infrastruk	-7844
▁interested	-7845
▁verrattuna	-7846
etä	-7847
aine	-7848
kkaa	-7849
▁bor	-7850
▁cdu	-7851
tetut	-7852
ykset	-7853
▁glad	-7854
▁huge	-7855
▁kons	-7856
▁nous	-7857
joista	-7858
▁noise	-7859
istunto	-7860
tensive	-7861
▁agency	-7862
▁raport	-7863
▁täyden	-7864
istuneet	-7865
▁amerikk	-7866
▁plenary	-7867
▁ryhmien	-7868
▁asioissa	-7869
▁challeng	-7870
▁contained	-7871
periaatteen	-7872
▁seurauksia	-7873
▁encouraging	-7874
▁komissiolla	-7875
järjestelmään	-7876
▁compensation	-7877
▁valtuuskunnan	-7878
tum	-7879
akis	-7880
fron	-7881
outs	-7882
ylum	-7883
▁amb	-7884
ymmär	-7885
▁johto	-7886
▁lento	-7887
▁onnet	-7888
certain	-7889
ictions	-7890
telussa	-7891
▁ajatus	-7892
▁asylum	-7893
▁fulfil	-7894
▁issued	-7895
▁silguy	-7896
▁uusiut	-7897
▁voitte	-7898
entially	-7899
standing	-7900
▁armenia	-7901
▁bureauc	-7902
▁entisen	-7903
▁equally	-7904
▁hänelle	-7905
▁leaders	-7906
▁species	-7907
▁hyödyntä	-7908
▁kymmenen	-7909
▁northern	-7910
ifications	-7911
▁economics	-7912
▁tehtävänä	-7913
▁pöytäkirja	-7914
▁schengenin	-7915
▁undertaken	-7916
▁tarvittavat	-7917
▁periaatteessa	-7918
▁rakennerahasto	-7919
tai	-7920
uel	-7921
ipää	-7922
ller	-7923
▁die	-7924
▁rig	-7925
empää	-7926
urvall	-7927
▁hyviä	-7928
▁kyken	-7929
▁lähte	-7930
▁spent	-7931
▁avusta	-7932
▁heille	-7933
▁macart	-7934
▁maille	-7935
▁rotter	-7936
▁saatta	-7937
neuvosto	-7938
▁consult	-7939
▁details	-7940
▁ennalta	-7941
▁lähenty	-7942
▁pienten	-7943
▁puuttuu	-7944
▁kansojen	-7945
▁organisa	-7946
▁students	-7947
▁indicated	-7948
▁mainitsem	-7949
▁määrätään	-7950
▁tuotteita	-7951
▁interesting	-7952
▁yhteistyöstä	-7953
▁ihmisoikeuksia	-7954
iö	-7955
arm	-7956
tol	-7957
yle	-7958
enem	-7959
self	-7960
▁apu	-7961
▁usk	-7962
emans	-7963
koulu	-7964
onnel	-7965
▁pure	-7966
liitty	-7967
uctive	-7968
▁stock	-7969
osehdot	-7970
▁africa	-7971
▁katsoo	-7972
▁koskem	-7973
▁löytää	-7974
▁explain	-7975
▁perfect	-7976
▁tanskan	-7977
▁tullaan	-7978
▁entitled	-7979
▁julkaisu	-7980
▁parlamen	-7981
▁periaate	-7982
▁refugees	-7983
▁supports	-7984
▁departure	-7985
▁jäsenille	-7986
▁practices	-7987
▁mahdotonta	-7988
▁oikeudellinen	-7989
▁jäsenvaltiossa	-7990
▁-,	-7991
elpo	-7992
read	-7993
▁pyys	-7994
▁rome	-7995
ieties	-7996
▁ankar	-7997
▁integ	-7998
euroopp	-7999
▁banana	-8000
▁emmekä	-8001
▁lasten	-8002
▁pitkän	-8003
▁places	-8004
vuodesta	-8005
▁approve	-8006
▁denmark	-8007
▁suurten	-8008
▁ongelmaa	-8009
▁consensus	-8010
▁ongelmien	-8011
▁yrityksen	-8012
▁huomattava	-8013
▁pääasiassa	-8014
▁järjestöjen	-8015
▁mielipiteen	-8016
▁distribution	-8017
▁varapuhemies	-8018
▁oikeusasioita	-8019
ei	-8020
uun	-8021
iota	-8022
neuv	-8023
▁mig	-8024
riers	-8025
▁enjo	-8026
▁kala	-8027
▁leav	-8028
▁omaa	-8029
▁rein	-8030
assaan	-8031
burgin	-8032
▁aband	-8033
▁chile	-8034
▁innov	-8035
▁kerta	-8036
▁raise	-8037
oksesta	-8038
rations	-8039
▁danger	-8040
▁disapp	-8041
▁perust	-8042
▁scheme	-8043
▁vaaran	-8044
▁interven	-8045
▁rasismin	-8046
▁subjects	-8047
▁vetoomus	-8048
▁carefully	-8049
▁keskeinen	-8050
▁tindemans	-8051
▁tuotannon	-8052
▁functioning	-8053
▁proceedings	-8054
▁sosiaalinen	-8055
▁myönteisesti	-8056
▁parlamentilla	-8057
zz	-8058
ias	-8059
kär	-8060
rez	-8061
alti	-8062
onto	-8063
▁bil	-8064
▁ikä	-8065
ampaa	-8066
antoa	-8067
since	-8068
▁base	-8069
▁cpvo	-8070
▁sope	-8071
isillä	-8072
käämme	-8073
▁munic	-8074
▁perin	-8075
▁viisi	-8076
annissa	-8077
▁factor	-8078
▁failed	-8079
▁impose	-8080
▁belgium	-8081
▁indones	-8082
▁offered	-8083
▁putting	-8084
▁unohtaa	-8085
▁consolid	-8086
▁laiminly	-8087
▁vallitse	-8088
▁suunnitel	-8089
▁hiljattain	-8090
▁ongelmista	-8091
▁substances	-8092
▁yugoslavia	-8093
▁consumption	-8094
▁oikeutetusti	-8095
oi	-8096
iff	-8097
▁mm	-8098
isch	-8099
▁erä	-8100
▁lob	-8101
ivuot	-8102
utena	-8103
▁late	-8104
illeen	-8105
paikka	-8106
▁foods	-8107
▁verta	-8108
▁claims	-8109
▁omista	-8110
▁tehdyn	-8111
▁yksilö	-8112
▁imposed	-8113
▁radical	-8114
▁remarks	-8115
ervations	-8116
▁chemical	-8117
▁physical	-8118
▁somewhat	-8119
▁järjestön	-8120
▁safeguard	-8121
▁integrated	-8122
▁jugoslavian	-8123
▁declarations	-8124
app	-8125
ats	-8126
▁mi	-8127
esin	-8128
tiön	-8129
▁tiu	-8130
▁vaa	-8131
aries	-8132
▁oecd	-8133
▁olet	-8134
▁tila	-8135
intark	-8136
itetty	-8137
▁monta	-8138
▁pidet	-8139
▁rikos	-8140
▁toist	-8141
istusta	-8142
▁vaihte	-8143
▁annetun	-8144
▁deliver	-8145
▁estimat	-8146
▁whereas	-8147
▁willing	-8148
▁kuluttua	-8149
▁hallinnon	-8150
▁proposing	-8151
▁aloitteita	-8152
aisuudessaan	-8153
politiikasta	-8154
▁hyväksyttävä	-8155
▁decisionmaking	-8156
ws	-8157
ert	-8158
ery	-8159
läh	-8160
nam	-8161
uit	-8162
cdda	-8163
onia	-8164
onte	-8165
ioita	-8166
laatu	-8167
▁arms	-8168
▁copy	-8169
▁edut	-8170
▁esim	-8171
▁habs	-8172
▁krit	-8173
toihin	-8174
▁antoi	-8175
▁fabre	-8176
▁osana	-8177
▁pieni	-8178
▁assure	-8179
▁gradin	-8180
▁leader	-8181
▁prohib	-8182
▁päätti	-8183
▁tekijä	-8184
▁tähtää	-8185
▁politic	-8186
▁restric	-8187
▁theorin	-8188
▁täyttää	-8189
▁witness	-8190
▁kuoleman	-8191
▁työskenn	-8192
▁edustajan	-8193
▁selvittää	-8194
▁järjestely	-8195
▁puhemiehen	-8196
▁muutosehdot	-8197
▁infrastructure	-8198
ilä	-8199
kiä	-8200
voc	-8201
iber	-8202
nnin	-8203
teta	-8204
usal	-8205
▁dyn	-8206
▁nen	-8207
ikaal	-8208
mises	-8209
nöstä	-8210
▁felt	-8211
▁till	-8212
active	-8213
ottava	-8214
▁bound	-8215
▁front	-8216
▁hoitaa	-8217
▁itsell	-8218
▁kuuluv	-8219
▁airport	-8220
▁century	-8221
▁entered	-8222
▁euratom	-8223
▁science	-8224
▁contacts	-8225
▁indicate	-8226
▁siirtymä	-8227
▁viikolla	-8228
▁vakuuttaa	-8229
▁väkivalta	-8230
▁statements	-8231
▁hyväksymään	-8232
▁työmarkkina	-8233
▁työskentele	-8234
▁amsterdamissa	-8235
▁effectiveness	-8236
aken	-8237
▁pou	-8238
▁sak	-8239
erved	-8240
ussia	-8241
▁myyn	-8242
▁compa	-8243
▁frien	-8244
▁omien	-8245
▁oreja	-8246
alliset	-8247
▁adjust	-8248
▁hallin	-8249
▁tapaus	-8250
▁voinut	-8251
tamiseen	-8252
tuutettu	-8253
▁georgia	-8254
▁islands	-8255
▁keinoja	-8256
▁puuttua	-8257
istaminen	-8258
▁adequate	-8259
▁alueelle	-8260
▁teaching	-8261
▁accidents	-8262
▁kyseisten	-8263
▁marketing	-8264
▁renewable	-8265
▁maailmassa	-8266
▁puolestaan	-8267
▁kansallinen	-8268
▁yhtenäisval	-8269
▁constitutional	-8270
äm	-8271
ilm	-8272
see	-8273
ikko	-8274
▁tos	-8275
bresp	-8276
erves	-8277
▁join	-8278
▁nord	-8279
▁perc	-8280
▁send	-8281
▁sole	-8282
istään	-8283
stream	-8284
teeksi	-8285
ulated	-8286
▁coher	-8287
▁jokin	-8288
▁torju	-8289
▁tulos	-8290
▁accoun	-8291
▁askele	-8292
▁easier	-8293
▁kiitos	-8294
▁siirre	-8295
▁tarjoa	-8296
▁factors	-8297
▁suuremp	-8298
▁tärkein	-8299
▁äärimmä	-8300
▁donnelly	-8301
▁onnettom	-8302
▁proposes	-8303
▁starting	-8304
▁criticism	-8305
▁ranskassa	-8306
▁involvement	-8307
▁improvements	-8308
▁konferenssissa	-8309
▁todellisuudessa	-8310
hm	-8311
uly	-8312
öin	-8313
sing	-8314
▁hed	-8315
▁oil	-8316
ampia	-8317
ances	-8318
attle	-8319
imaks	-8320
iment	-8321
▁imag	-8322
▁orte	-8323
▁rich	-8324
▁syyt	-8325
▁eläim	-8326
▁expla	-8327
▁kehot	-8328
▁attend	-8329
▁huoleh	-8330
▁kasvun	-8331
▁osaksi	-8332
▁sulkem	-8333
▁valvoa	-8334
tieteell	-8335
▁planned	-8336
▁uniform	-8337
▁välille	-8338
▁amerikan	-8339
▁lukuisia	-8340
▁vaihtoeh	-8341
▁esityksen	-8342
▁itsestään	-8343
▁obstacles	-8344
▁virkamieh	-8345
▁saavutettu	-8346
▁joulukuussa	-8347
▁vaatimuksia	-8348
▁hyväksyminen	-8349
▁demokraattisen	-8350
▁yleissopimuksen	-8351
tro	-8352
▁tl	-8353
anno	-8354
ired	-8355
tari	-8356
vyys	-8357
▁bul	-8358
▁dup	-8359
▁puo	-8360
▁sex	-8361
▁smu	-8362
indal	-8363
mäksi	-8364
torin	-8365
▁gave	-8366
▁prot	-8367
▁toki	-8368
▁tuli	-8369
▁unit	-8370
▁occur	-8371
▁pääsy	-8372
▁scale	-8373
▁yhdis	-8374
▁drafts	-8375
▁meidät	-8376
▁moraal	-8377
▁moving	-8378
▁suojaa	-8379
irektiiv	-8380
▁papouts	-8381
▁sisällö	-8382
▁toteutu	-8383
▁balanced	-8384
▁habsburg	-8385
▁päätökset	-8386
▁respected	-8387
▁unionille	-8388
▁kulttuurin	-8389
▁vaatimukset	-8390
▁vakuuttunut	-8391
▁äänestyksen	-8392
ees	-8393
ggl	-8394
tall	-8395
▁wes	-8396
yhtiö	-8397
▁vied	-8398
▁weap	-8399
▁ahead	-8400
▁incom	-8401
▁täsmä	-8402
▁valid	-8403
ighbour	-8404
▁insist	-8405
▁kasvaa	-8406
▁olenna	-8407
▁sindal	-8408
▁alueita	-8409
▁kuukaus	-8410
▁nojalla	-8411
▁yhdistä	-8412
▁amending	-8413
▁energian	-8414
▁purposes	-8415
▁primarily	-8416
▁suorittaa	-8417
▁yhteiseen	-8418
▁foundation	-8419
▁osoittanut	-8420
▁television	-8421
bon	-8422
cod	-8423
lää	-8424
pon	-8425
akti	-8426
advan	-8427
ather	-8428
organ	-8429
uchet	-8430
usion	-8431
▁edis	-8432
▁fyys	-8433
▁kata	-8434
▁kuun	-8435
▁etukä	-8436
▁plans	-8437
▁calcul	-8438
▁middle	-8439
▁russia	-8440
▁tullin	-8441
▁undoub	-8442
▁uuteen	-8443
▁follows	-8444
▁managed	-8445
▁souchet	-8446
▁turkish	-8447
kokouksen	-8448
▁alueille	-8449
▁eligible	-8450
▁paikalla	-8451
▁frontiers	-8452
▁personally	-8453
▁advertising	-8454
▁tarkastella	-8455
▁vaikutukset	-8456
▁yhteenliitty	-8457
▁contributions	-8458
▁ensimmäisessä	-8459
▁investigation	-8460
aap	-8461
▁ce	-8462
thet	-8463
▁don	-8464
bling	-8465
irect	-8466
oitus	-8467
tetta	-8468
▁haki	-8469
▁rann	-8470
iminen	-8471
▁minim	-8472
▁norma	-8473
▁pasty	-8474
▁puute	-8475
▁tapaa	-8476
henkilö	-8477
ituksen	-8478
▁canada	-8479
▁kriitt	-8480
▁advance	-8481
▁appears	-8482
▁leading	-8483
▁recover	-8484
▁tillich	-8485
▁vihreän	-8486
▁socrates	-8487
▁sovittel	-8488
▁europeans	-8489
▁neighbour	-8490
▁etusijalle	-8491
▁kompromiss	-8492
▁legitimate	-8493
▁obligation	-8494
▁toukokuuta	-8495
▁vähemmistö	-8496
▁brysselissä	-8497
▁puheenvuoro	-8498
▁satisfactory	-8499
uy	-8500
▁)	-8501
▁cle	-8502
ertom	-8503
hdoin	-8504
tered	-8505
vastu	-8506
▁bald	-8507
▁muuk	-8508
amalla	-8509
▁belie	-8510
▁lower	-8511
▁sähkö	-8512
▁virtu	-8513
▁aseman	-8514
▁compat	-8515
▁hormon	-8516
▁island	-8517
▁lukuun	-8518
▁muilla	-8519
▁recall	-8520
▁refers	-8521
▁benefic	-8522
▁binding	-8523
▁contrad	-8524
▁rajojen	-8525
▁tehtiin	-8526
▁vihdoin	-8527
▁constitu	-8528
▁involves	-8529
▁istunnon	-8530
▁jokaisen	-8531
▁käytöstä	-8532
▁suositus	-8533
▁uudistus	-8534
▁ymmärrän	-8535
▁ottamatta	-8536
▁pidettävä	-8537
▁ratkaisun	-8538
▁rotterdam	-8539
▁tarvitsee	-8540
▁huomauttaa	-8541
▁represented	-8542
▁hyväksyttiin	-8543
▁tarkistusten	-8544
▁merkittävästi	-8545
▁oikeudellisen	-8546
dor	-8547
jös	-8548
kop	-8549
umen	-8550
▁jen	-8551
▁uno	-8552
joita	-8553
▁acad	-8554
isempi	-8555
▁kutsu	-8556
▁paris	-8557
▁puoli	-8558
▁ready	-8559
▁serve	-8560
▁forced	-8561
▁jensen	-8562
▁joille	-8563
▁liikaa	-8564
▁luotet	-8565
▁option	-8566
▁partly	-8567
▁vallan	-8568
▁välttä	-8569
istusten	-8570
itettävä	-8571
▁edistys	-8572
▁esiinty	-8573
▁mainits	-8574
▁opposed	-8575
▁package	-8576
▁urgency	-8577
▁kansallis	-8578
▁ristiriid	-8579
▁tilintark	-8580
▁relatively	-8581
▁yleissopim	-8582
▁markkinoilla	-8583
▁mielenkiinto	-8584
.,	-8585
teh	-8586
uro	-8587
▁ks	-8588
free	-8589
▁dou	-8590
iikka	-8591
temme	-8592
ville	-8593
▁asuk	-8594
▁aver	-8595
▁enkä	-8596
▁sopi	-8597
coming	-8598
▁autta	-8599
▁colla	-8600
▁colom	-8601
▁huomi	-8602
▁useat	-8603
▁välin	-8604
advanta	-8605
session	-8606
▁asetus	-8607
▁distin	-8608
▁envisa	-8609
▁kunkin	-8610
▁milloin	-8611
▁started	-8612
▁vakavia	-8613
▁todetaan	-8614
▁ehdotettu	-8615
▁employees	-8616
▁hyväksyty	-8617
▁kuukautta	-8618
▁macartney	-8619
▁muukalais	-8620
▁valiokunn	-8621
▁requirement	-8622
▁toiminnasta	-8623
▁implications	-8624
▁considerations	-8625
▁kansainvälistä	-8626
▁kuluttajansuoj	-8627
bo	-8628
anc	-8629
nic	-8630
yed	-8631
▁dg	-8632
ects	-8633
onic	-8634
rier	-8635
änsä	-8636
▁mob	-8637
elled	-8638
itiiv	-8639
puole	-8640
uston	-8641
▁holm	-8642
▁jääd	-8643
▁kant	-8644
▁novo	-8645
attava	-8646
rakenn	-8647
▁faced	-8648
▁liike	-8649
attomia	-8650
aubresp	-8651
▁katson	-8652
▁ollaan	-8653
▁values	-8654
▁erinoma	-8655
▁passeng	-8656
▁väestön	-8657
istamista	-8658
▁accompan	-8659
▁puhutaan	-8660
▁separate	-8661
lainsäädän	-8662
▁allocated	-8663
▁tarpeeksi	-8664
▁advantages	-8665
▁challenges	-8666
▁disadvanta	-8667
▁direktiiviä	-8668
▁naudanlihan	-8669
▁undoubtedly	-8670
▁undertakings	-8671
▁ensisijaisesti	-8672
ari	-8673
car	-8674
umb	-8675
ura	-8676
aard	-8677
emic	-8678
here	-8679
iers	-8680
pass	-8681
with	-8682
innut	-8683
nettä	-8684
ostus	-8685
posti	-8686
ratic	-8687
sions	-8688
▁pred	-8689
alalla	-8690
atever	-8691
tavana	-8692
▁cress	-8693
▁kiele	-8694
▁mitta	-8695
▁muunn	-8696
▁purka	-8697
areness	-8698
ellista	-8699
▁hollan	-8700
▁lentok	-8701
▁preced	-8702
▁syrjäy	-8703
▁aikooko	-8704
▁complic	-8705
▁mandate	-8706
▁meaning	-8707
▁siirtää	-8708
▁vietnam	-8709
▁kestävän	-8710
▁tulosten	-8711
▁vaikutta	-8712
tuomioistu	-8713
▁excessive	-8714
▁hankkeita	-8715
▁julkisten	-8716
▁kuluttaja	-8717
▁kustannus	-8718
▁mielipite	-8719
▁municipal	-8720
▁neuvostoa	-8721
▁ulkosuhte	-8722
▁completion	-8723
▁inadequate	-8724
▁presidentti	-8725
▁asiakirjojen	-8726
▁kertomuksessa	-8727
ob	-8728
ham	-8729
ilst	-8730
ilun	-8731
tood	-8732
▁raa	-8733
ioike	-8734
ulate	-8735
▁iran	-8736
▁sata	-8737
▁symp	-8738
▁facts	-8739
▁irlan	-8740
▁maksu	-8741
▁tosin	-8742
valtion	-8743
▁clause	-8744
▁martin	-8745
▁painop	-8746
▁proved	-8747
▁solmit	-8748
▁distort	-8749
▁esimerk	-8750
▁evening	-8751
▁huumaus	-8752
▁martens	-8753
▁operate	-8754
▁unionia	-8755
▁valinta	-8756
▁energial	-8757
▁resolved	-8758
▁tapahtui	-8759
▁vastuull	-8760
▁whatever	-8761
▁kasvinjal	-8762
▁tietoisia	-8763
▁rahaliiton	-8764
▁considering	-8765
▁crossborder	-8766
▁hyväksytään	-8767
▁komissiolta	-8768
▁luxemburgin	-8769
▁mediumsized	-8770
▁varainhoito	-8771
▁yhteisymmär	-8772
▁puhemiehistö	-8773
▁yhteistyöhön	-8774
▁oikeudellista	-8775
▁tulevaisuutta	-8776
▁communications	-8777
▁oikeusasiamies	-8778
ane	-8779
lli	-8780
oby	-8781
sch	-8782
▁pk	-8783
▁rä	-8784
etin	-8785
head	-8786
riit	-8787
▁dos	-8788
▁pin	-8789
▁sym	-8790
▁tyh	-8791
stään	-8792
taina	-8793
▁järj	-8794
▁slow	-8795
▁taku	-8796
▁test	-8797
ereign	-8798
▁forth	-8799
▁kirje	-8800
▁consor	-8801
▁inclus	-8802
▁keinot	-8803
▁neuvon	-8804
▁suomen	-8805
▁tapahd	-8806
▁tietyn	-8807
▁edustaa	-8808
▁fernand	-8809
▁accounts	-8810
▁asemassa	-8811
▁disaster	-8812
▁kuulemis	-8813
▁suurempi	-8814
▁justified	-8815
▁muutokset	-8816
▁sovereign	-8817
▁tällaiset	-8818
▁asiakirjat	-8819
▁muukalaisv	-8820
▁hallitukset	-8821
▁keskustelut	-8822
▁menettelyta	-8823
▁konkreettisia	-8824
▁administrations	-8825
enz	-8826
eta	-8827
ppa	-8828
rad	-8829
tym	-8830
uod	-8831
mper	-8832
▁iru	-8833
▁lic	-8834
ening	-8835
ettua	-8836
hteer	-8837
keino	-8838
▁alus	-8839
▁mult	-8840
▁piti	-8841
▁town	-8842
kaupan	-8843
▁phase	-8844
▁rohke	-8845
▁title	-8846
▁wider	-8847
äänesty	-8848
▁kohtia	-8849
▁pakoll	-8850
▁tietyt	-8851
▁toivoa	-8852
▁vakava	-8853
olaisten	-8854
timately	-8855
▁intends	-8856
▁kahteen	-8857
▁thereby	-8858
▁työjärj	-8859
▁velvoit	-8860
▁petoksia	-8861
▁politics	-8862
▁tutkinto	-8863
▁undermin	-8864
▁vuodessa	-8865
suunnitelm	-8866
▁operating	-8867
▁virkamies	-8868
▁käytettävä	-8869
▁määrittele	-8870
▁määräykset	-8871
▁käsittelyyn	-8872
▁välttämätön	-8873
▁kysymyksessä	-8874
▁sopimuksesta	-8875
▁possibilities	-8876
▁stim	-8877
onomic	-8878
▁avust	-8879
▁ikään	-8880
▁links	-8881
▁vahin	-8882
jöstedt	-8883
omaisen	-8884
▁bulgar	-8885
▁latter	-8886
▁travel	-8887
isyyteen	-8888
▁deficit	-8889
▁dischar	-8890
▁edellyt	-8891
▁elinten	-8892
▁rapidly	-8893
▁tavarat	-8894
▁täydell	-8895
▁western	-8896
enemmistö	-8897
tamiseksi	-8898
▁adopting	-8899
▁examined	-8900
▁geograph	-8901
▁maahanmu	-8902
▁property	-8903
▁aikaansaa	-8904
▁awareness	-8905
▁cooperate	-8906
▁hollannin	-8907
▁äskettäin	-8908
▁huhtikuuta	-8909
▁käsittelyn	-8910
▁mielelläni	-8911
▁työttömyyden	-8912
▁kansallisella	-8913
gy	-8914
ya	-8915
tei	-8916
▁cu	-8917
elvo	-8918
isyy	-8919
lisä	-8920
▁arm	-8921
▁rus	-8922
▁uke	-8923
valti	-8924
▁omat	-8925
▁teen	-8926
ernoby	-8927
isteri	-8928
vaikut	-8929
▁alleg	-8930
▁stamp	-8931
emmälle	-8932
▁aamuna	-8933
▁asemaa	-8934
▁asetta	-8935
▁eniten	-8936
▁kohees	-8937
▁kuulla	-8938
▁losses	-8939
▁minuut	-8940
▁vihreä	-8941
▁yhteys	-8942
▁resolve	-8943
▁riippuv	-8944
▁sellais	-8945
▁tehokas	-8946
▁tällöin	-8947
ettaisiin	-8948
▁revision	-8949
▁suojelun	-8950
▁thorough	-8951
▁acknowled	-8952
▁addressed	-8953
▁democrats	-8954
▁markkinat	-8955
▁impression	-8956
▁tietenkään	-8957
▁tällaisten	-8958
▁unemployed	-8959
▁korkeakoulu	-8960
fo	-8961
bol	-8962
vyn	-8963
opho	-8964
utuu	-8965
▁gue	-8966
anges	-8967
▁bern	-8968
▁gone	-8969
▁omia	-8970
▁remo	-8971
▁trib	-8972
▁tulk	-8973
teessä	-8974
trateg	-8975
▁burma	-8976
▁kuusi	-8977
▁skill	-8978
illemme	-8979
kumppan	-8980
▁carnet	-8981
▁length	-8982
▁seikka	-8983
▁abandon	-8984
▁ajoneuv	-8985
▁menettä	-8986
▁numbers	-8987
opimuksen	-8988
▁carrying	-8989
▁indirect	-8990
▁obtained	-8991
▁possibly	-8992
▁presence	-8993
▁puolueen	-8994
▁tarvetta	-8995
▁tuloksen	-8996
▁governing	-8997
▁liability	-8998
▁pollution	-8999
▁requested	-9000
▁timetable	-9001
▁käsityksen	-9002
▁tervetulle	-9003
▁todellisen	-9004
▁toteutettu	-9005
▁ultimately	-9006
▁verotuksen	-9007
politiikkaan	-9008
▁occupational	-9009
elv	-9010
anal	-9011
anas	-9012
arch	-9013
▁fal	-9014
immät	-9015
lling	-9016
yistä	-9017
▁clim	-9018
▁pane	-9019
▁rand	-9020
telija	-9021
udumme	-9022
▁aelvo	-9023
▁paras	-9024
▁tried	-9025
▁veron	-9026
▁alusta	-9027
▁preven	-9028
▁syntyy	-9029
▁tuemme	-9030
▁volume	-9031
▁whilst	-9032
▁ability	-9033
▁autonom	-9034
▁charges	-9035
▁disappe	-9036
▁pidämme	-9037
▁tärkeän	-9038
▁yleistä	-9039
neuvoston	-9040
▁category	-9041
▁graduate	-9042
▁artiklaan	-9043
▁fishermen	-9044
▁hyödyntää	-9045
▁naudanlih	-9046
▁ristiriit	-9047
▁esittäneet	-9048
▁mechanisms	-9049
▁toimeenpan	-9050
▁individuals	-9051
▁introducing	-9052
▁kehitykseen	-9053
▁mahdollinen	-9054
▁strengthened	-9055
▁poliittisesti	-9056
▁taloudellisesti	-9057
yk	-9058
ots	-9059
haan	-9060
hetk	-9061
keja	-9062
raft	-9063
tyjä	-9064
▁aio	-9065
▁mcc	-9066
empaa	-9067
suhte	-9068
▁bann	-9069
▁häir	-9070
kämper	-9071
mattom	-9072
▁check	-9073
▁fruit	-9074
▁pääsi	-9075
▁sydäm	-9076
▁aloite	-9077
▁retain	-9078
▁toisia	-9079
asioissa	-9080
aubrespy	-9081
▁kellett	-9082
▁combined	-9083
▁declared	-9084
▁discover	-9085
▁greatest	-9086
▁istuntos	-9087
▁asetetaan	-9088
▁considers	-9089
▁diversity	-9090
▁papoutsis	-9091
▁tarkastus	-9092
▁favourable	-9093
▁innovation	-9094
▁situations	-9095
▁väkivallan	-9096
▁merkittäviä	-9097
▁tavoitteita	-9098
▁neuvotteluja	-9099
▁registration	-9100
▁commissioners	-9101
bi	-9102
ez	-9103
ali	-9104
gol	-9105
keä	-9106
ses	-9107
xim	-9108
avio	-9109
onsa	-9110
seet	-9111
▁etä	-9112
igned	-9113
iinin	-9114
ijsen	-9115
▁cfsp	-9116
▁conv	-9117
▁pann	-9118
▁reag	-9119
bowman	-9120
enopho	-9121
ikassa	-9122
imeksi	-9123
puolue	-9124
▁award	-9125
▁berth	-9126
▁hanke	-9127
▁saisi	-9128
▁syrjä	-9129
▁veter	-9130
innista	-9131
oitteet	-9132
▁decent	-9133
▁doctor	-9134
▁enimmä	-9135
▁pursue	-9136
▁teiltä	-9137
▁totean	-9138
▁tuntuu	-9139
asioiden	-9140
▁english	-9141
▁getting	-9142
▁pitkään	-9143
▁prepare	-9144
▁venäjän	-9145
käsittely	-9146
▁aikataul	-9147
▁historia	-9148
▁odotamme	-9149
▁päättävä	-9150
▁vuositta	-9151
▁draftsman	-9152
▁estimates	-9153
▁järjestää	-9154
▁käyttävät	-9155
▁liittyvän	-9156
▁tekemistä	-9157
▁välineitä	-9158
▁asiakirjan	-9159
▁expression	-9160
▁facilitate	-9161
▁violations	-9162
▁luonnonmuka	-9163
▁yhteiskunta	-9164
▁liikkuvuuden	-9165
▁tarkoituksen	-9166
▁direktiivissä	-9167
▁interpretation	-9168
▁säännöllisesti	-9169
kol	-9170
lam	-9171
otu	-9172
kejä	-9173
▁dic	-9174
▁häv	-9175
▁kai	-9176
▁sid	-9177
ankäy	-9178
kkejä	-9179
mahon	-9180
produ	-9181
▁bjer	-9182
▁tien	-9183
▁tuho	-9184
iltaan	-9185
▁expos	-9186
▁flynn	-9187
▁hours	-9188
▁samat	-9189
▁trust	-9190
istanut	-9191
istinen	-9192
▁christ	-9193
▁heikko	-9194
▁olisin	-9195
▁possel	-9196
▁surely	-9197
▁vakuus	-9198
▁waters	-9199
▁wijsen	-9200
ohjelmaa	-9201
▁average	-9202
▁courage	-9203
▁imports	-9204
▁xenopho	-9205
▁äänesti	-9206
ohjelmien	-9207
▁artiklaa	-9208
▁district	-9209
▁standing	-9210
▁tärkeänä	-9211
▁valmiste	-9212
▁aloitteen	-9213
▁confirmed	-9214
▁exclusion	-9215
▁johtamaan	-9216
▁rajoittaa	-9217
▁telkämper	-9218
▁unanimity	-9219
▁viimeinen	-9220
▁helmikuuta	-9221
▁ilmeisesti	-9222
▁myönteinen	-9223
▁aikavälillä	-9224
▁delegations	-9225
▁immigration	-9226
▁maataloutta	-9227
▁vaikuttavat	-9228
valiokunnassa	-9229
▁energialähte	-9230
▁määrärahojen	-9231
▁liberalization	-9232
▁täysistunnossa	-9233
itti	-9234
osan	-9235
sier	-9236
tium	-9237
uval	-9238
ware	-9239
änne	-9240
▁fix	-9241
▁lak	-9242
iding	-9243
iiton	-9244
ventä	-9245
▁city	-9246
▁kept	-9247
▁kuor	-9248
▁lask	-9249
▁tiivi	-9250
▁uhkaa	-9251
ikainen	-9252
related	-9253
tavista	-9254
▁expand	-9255
▁figure	-9256
▁laitte	-9257
▁latest	-9258
▁omasta	-9259
▁poliit	-9260
▁pyrkiä	-9261
economic	-9262
▁bjerreg	-9263
▁careful	-9264
▁infring	-9265
▁innovat	-9266
▁japanin	-9267
▁millään	-9268
▁seitsem	-9269
ittäminen	-9270
▁koordino	-9271
▁perustel	-9272
▁replaced	-9273
▁vakautta	-9274
▁vehicles	-9275
▁etukäteen	-9276
▁inclusion	-9277
▁kilpailua	-9278
▁osoittaut	-9279
▁difference	-9280
▁eurooppaan	-9281
▁veterinary	-9282
▁komissiossa	-9283
▁constructive	-9284
▁publications	-9285
▁sufficiently	-9286
▁ulkopolitiik	-9287
▁asianmukaisesti	-9288
▁saavuttamiseksi	-9289
.'	-9290
zio	-9291
▁za	-9292
ains	-9293
ikaa	-9294
jaks	-9295
▁sem	-9296
innot	-9297
uable	-9298
yteen	-9299
▁fell	-9300
▁koit	-9301
▁synn	-9302
ersson	-9303
taviin	-9304
valtaa	-9305
▁purch	-9306
▁tehos	-9307
▁uskoa	-9308
▁causes	-9309
▁excise	-9310
▁havait	-9311
▁laadun	-9312
▁maasta	-9313
▁smuggl	-9314
▁tackle	-9315
▁tarkka	-9316
▁vakiin	-9317
▁vuosia	-9318
▁bananas	-9319
▁motions	-9320
▁precise	-9321
▁reflect	-9322
▁speaker	-9323
▁vaalien	-9324
esityksen	-9325
▁auditors	-9326
▁käsittää	-9327
▁laatinut	-9328
▁sjöstedt	-9329
▁työnanta	-9330
▁competent	-9331
▁continued	-9332
▁kieltäyty	-9333
▁kompromis	-9334
▁tarkoitan	-9335
▁thousands	-9336
▁toimimaan	-9337
▁applicants	-9338
▁competence	-9339
▁identified	-9340
▁kannatamme	-9341
▁vuosittain	-9342
▁toimielimet	-9343
▁velvollisuus	-9344
▁biotechnology	-9345
▁mietinnöstään	-9346
cho	-9347
lez	-9348
uma	-9349
izes	-9350
uses	-9351
aikaa	-9352
annoy	-9353
yleis	-9354
▁naap	-9355
▁sala	-9356
airman	-9357
ground	-9358
laisia	-9359
taansa	-9360
ukseni	-9361
▁jolle	-9362
▁menet	-9363
▁tarve	-9364
attoman	-9365
iikenne	-9366
ostossa	-9367
▁epäily	-9368
▁halunn	-9369
▁lannoy	-9370
▁termin	-9371
▁työhön	-9372
fication	-9373
istetaan	-9374
missions	-9375
▁disease	-9376
▁ennakko	-9377
▁itsensä	-9378
▁largely	-9379
▁randzio	-9380
▁sijasta	-9381
▁identity	-9382
▁jatkossa	-9383
▁joutuvat	-9384
▁kahdesta	-9385
▁vapauden	-9386
toimenpite	-9387
▁arvonlisä	-9388
▁elsewhere	-9389
▁protected	-9390
▁vastausta	-9391
▁viimeisen	-9392
▁oikeutettu	-9393
▁osallistuu	-9394
▁saataisiin	-9395
▁vaikutusta	-9396
▁achievement	-9397
▁periaatteen	-9398
▁välttämättä	-9399
▁aktiivisesti	-9400
▁independence	-9401
▁rikollisuuden	-9402
▁yksimielisesti	-9403
ara	-9404
asm	-9405
yön	-9406
▁dy	-9407
aste	-9408
orse	-9409
urin	-9410
▁dev	-9411
▁eis	-9412
▁raj	-9413
arvon	-9414
immin	-9415
▁pout	-9416
▁vank	-9417
▁viis	-9418
▁monen	-9419
▁recon	-9420
▁tekst	-9421
▁ekolog	-9422
▁margin	-9423
▁vasemm	-9424
▁asemaan	-9425
▁kauppaa	-9426
▁keeping	-9427
▁mcmahon	-9428
▁reinfor	-9429
▁verotus	-9430
inational	-9431
▁deadline	-9432
▁huolehti	-9433
▁merkitse	-9434
▁uskottav	-9435
▁asiakirja	-9436
▁determine	-9437
▁economies	-9438
▁itävallan	-9439
▁perfectly	-9440
▁uudestaan	-9441
▁compliance	-9442
▁determined	-9443
▁bjerregaard	-9444
▁henkilöstön	-9445
institutional	-9446
▁suhteellisen	-9447
▁käsiteltävänä	-9448
ora	-9449
äiv	-9450
alli	-9451
assi	-9452
▁toh	-9453
▁vig	-9454
ihall	-9455
ituot	-9456
vassa	-9457
▁aids	-9458
▁aste	-9459
▁eldr	-9460
▁extr	-9461
▁ford	-9462
▁moni	-9463
irable	-9464
ittiin	-9465
joissa	-9466
utemme	-9467
▁entry	-9468
▁heart	-9469
▁käydä	-9470
▁merit	-9471
▁puite	-9472
▁quant	-9473
▁varov	-9474
essions	-9475
respond	-9476
televat	-9477
yrityks	-9478
▁alijää	-9479
▁dispos	-9480
▁emcdda	-9481
▁kasvua	-9482
▁ryhtyi	-9483
▁settle	-9484
▁siviil	-9485
▁totesi	-9486
▁vaalit	-9487
▁ylipää	-9488
▁assosio	-9489
▁korvaus	-9490
▁käydään	-9491
▁seuraam	-9492
▁changing	-9493
▁järjesty	-9494
▁positiiv	-9495
▁pyydämme	-9496
▁sensible	-9497
▁vaadimme	-9498
oikeuksien	-9499
▁happening	-9500
▁jäseneksi	-9501
▁liittyvää	-9502
▁constantly	-9503
▁constitute	-9504
▁kuluttajan	-9505
▁seuraukset	-9506
▁yhteisössä	-9507
▁äänestämme	-9508
▁aiheuttavat	-9509
▁merkittävää	-9510
▁merkityksen	-9511
▁arvonlisäver	-9512
▁kirjoittanut	-9513
▁toistaiseksi	-9514
▁keskustelemme	-9515
▁multinational	-9516
▁oikeustieteen	-9517
▁ulkosuhteiden	-9518
▁infrastruktuur	-9519
big	-9520
osi	-9521
tui	-9522
urb	-9523
anda	-9524
beek	-9525
etut	-9526
kaus	-9527
ters	-9528
▁che	-9529
▁huo	-9530
esday	-9531
tamat	-9532
▁ison	-9533
▁laki	-9534
▁viid	-9535
eltaan	-9536
estiin	-9537
payann	-9538
▁advoc	-9539
▁kesku	-9540
▁mccar	-9541
▁omaan	-9542
▁sales	-9543
▁sanoo	-9544
▁kunnia	-9545
▁appoint	-9546
▁elector	-9547
▁kanadan	-9548
▁laittom	-9549
▁posselt	-9550
▁tulevan	-9551
▁allowing	-9552
▁applying	-9553
▁asioihin	-9554
▁esiintyy	-9555
▁kyseiset	-9556
▁menettel	-9557
▁percenta	-9558
▁socalled	-9559
▁suojelua	-9560
▁tarkkaan	-9561
▁käynnistä	-9562
▁referring	-9563
▁sosiaalip	-9564
▁valtuudet	-9565
▁consortium	-9566
▁emphasized	-9567
▁huolenaihe	-9568
▁myönteistä	-9569
▁soveltamista	-9570
▁vuoropuhelua	-9571
▁edistämiseksi	-9572
▁passituksesta	-9573
▁ts	-9574
ales	-9575
anen	-9576
▁ark	-9577
▁kit	-9578
▁sup	-9579
ksien	-9580
iehdot	-9581
ifying	-9582
iikkaa	-9583
▁alkaa	-9584
▁enhan	-9585
▁euron	-9586
▁expec	-9587
▁forum	-9588
▁sotil	-9589
▁yhdyn	-9590
olution	-9591
regular	-9592
▁dissem	-9593
▁expert	-9594
▁purely	-9595
▁tullit	-9596
▁aelvoet	-9597
▁cloning	-9598
▁cresson	-9599
▁deliber	-9600
▁fifteen	-9601
▁pitävät	-9602
▁studied	-9603
▁voineet	-9604
streaming	-9605
▁aiheista	-9606
▁katsomme	-9607
▁merkille	-9608
▁molemmat	-9609
tettäisiin	-9610
▁andersson	-9611
▁complaint	-9612
▁muistutan	-9613
▁suhteista	-9614
▁difficulty	-9615
▁perustusla	-9616
▁understood	-9617
▁ehdotukseen	-9618
▁suosituksia	-9619
▁tuomioistuin	-9620
▁yhdysvaltain	-9621
▁kasvinjalosta	-9622
nel	-9623
vyt	-9624
bled	-9625
pyyn	-9626
▁aja	-9627
▁uns	-9628
▁upe	-9629
ctive	-9630
onnan	-9631
quier	-9632
▁henk	-9633
▁john	-9634
▁safe	-9635
alueen	-9636
tojaks	-9637
▁ordin	-9638
▁prove	-9639
▁roman	-9640
▁sanom	-9641
▁scand	-9642
▁berthu	-9643
▁cunent	-9644
▁forest	-9645
▁mongol	-9646
▁opened	-9647
▁saakka	-9648
▁spoken	-9649
▁säädös	-9650
▁vaalip	-9651
utumista	-9652
▁aikoina	-9653
▁briefly	-9654
▁consign	-9655
▁muodoll	-9656
▁tasolle	-9657
▁useiden	-9658
▁yrittää	-9659
ityksellä	-9660
▁henkilöt	-9661
▁muutaman	-9662
▁pitkällä	-9663
▁radikaal	-9664
▁requests	-9665
▁tyydyttä	-9666
▁vuodelle	-9667
▁yhteyttä	-9668
itoimipaik	-9669
▁menestyks	-9670
▁päättänyt	-9671
▁realistic	-9672
▁vallitsee	-9673
▁correspond	-9674
▁kalatalous	-9675
▁lähestymis	-9676
▁enforcement	-9677
▁transparent	-9678
▁tarkistuksista	-9679
olf	-9680
weg	-9681
zan	-9682
cast	-9683
pide	-9684
▁mos	-9685
▁män	-9686
etoim	-9687
gress	-9688
iling	-9689
plath	-9690
▁assu	-9691
▁hoid	-9692
▁juur	-9693
▁ngos	-9694
▁none	-9695
▁rail	-9696
▁tool	-9697
▁virh	-9698
idemme	-9699
ottelu	-9700
tuneet	-9701
▁parla	-9702
▁pract	-9703
▁voice	-9704
immista	-9705
immistä	-9706
▁courts	-9707
▁kunnes	-9708
▁käsite	-9709
▁naisia	-9710
▁notice	-9711
▁sought	-9712
▁viikon	-9713
▁väitte	-9714
▁himself	-9715
▁sanonut	-9716
▁tarjota	-9717
▁todiste	-9718
▁debating	-9719
▁haluaisi	-9720
▁julkista	-9721
▁oikeudet	-9722
▁pyytänyt	-9723
▁responsi	-9724
▁vapaasti	-9725
▁yhteisiä	-9726
▁appointed	-9727
▁consulted	-9728
▁käsitelty	-9729
▁materiaal	-9730
▁mechanism	-9731
▁tämänhetk	-9732
▁uncertain	-9733
▁olemassaol	-9734
▁socialists	-9735
▁commitments	-9736
▁educational	-9737
▁kansanterve	-9738
▁politicians	-9739
▁rahoituksen	-9740
▁riippumatta	-9741
▁conservation	-9742
▁valiokuntien	-9743
▁dissemination	-9744
▁määräenemmistö	-9745
▁parantamiseksi	-9746
▁varmistamiseksi	-9747
dp	-9748
ox	-9749
mod	-9750
akka	-9751
ältä	-9752
▁hou	-9753
▁kro	-9754
▁kyl	-9755
▁rav	-9756
cking	-9757
ipher	-9758
rated	-9759
▁blak	-9760
▁finn	-9761
▁warm	-9762
joihin	-9763
▁decis	-9764
▁dicta	-9765
▁flags	-9766
▁hence	-9767
▁huono	-9768
▁labor	-9769
▁liite	-9770
▁pakol	-9771
▁sides	-9772
▁surve	-9773
▁toler	-9774
▁assume	-9775
▁espanj	-9776
▁kommun	-9777
▁kuuden	-9778
▁manage	-9779
▁ortega	-9780
▁säästä	-9781
▁tuhans	-9782
▁twenty	-9783
▁britann	-9784
▁kestävä	-9785
▁penalty	-9786
▁piiriin	-9787
▁relates	-9788
▁toisiin	-9789
▁loppujen	-9790
▁nykyistä	-9791
▁tapahtua	-9792
▁tarkoita	-9793
▁tehtävät	-9794
▁viimeksi	-9795
▁käynnissä	-9796
▁ongelmiin	-9797
▁puutteell	-9798
▁pyydetään	-9799
▁todettava	-9800
▁arvioidaan	-9801
▁background	-9802
▁ehdotetaan	-9803
▁harjoittaa	-9804
▁näkökohtia	-9805
▁previously	-9806
▁wijsenbeek	-9807
▁concentrate	-9808
▁periaatetta	-9809
▁pkyritysten	-9810
▁transitional	-9811
▁valiokunnalle	-9812
▁osallistuminen	-9813
acc	-9814
dly	-9815
▁nö	-9816
anut	-9817
ario	-9818
ingu	-9819
onan	-9820
pank	-9821
tetä	-9822
uaal	-9823
urer	-9824
▁osh	-9825
▁pom	-9826
ursse	-9827
▁nato	-9828
▁noon	-9829
▁pyrk	-9830
▁sand	-9831
elleet	-9832
ishing	-9833
tially	-9834
▁block	-9835
▁deals	-9836
▁menne	-9837
▁ritar	-9838
▁schul	-9839
iheessa	-9840
▁beings	-9841
▁edeltä	-9842
▁helpot	-9843
▁slight	-9844
▁velzen	-9845
▁verran	-9846
▁vienti	-9847
ittämään	-9848
▁climate	-9849
▁drawing	-9850
▁keskinä	-9851
▁kriteer	-9852
▁lausunn	-9853
▁pidettä	-9854
▁aineiden	-9855
▁approxim	-9856
▁commerce	-9857
▁huolinta	-9858
▁israelin	-9859
▁järkevää	-9860
▁korostan	-9861
▁papayann	-9862
▁viivästy	-9863
▁abolition	-9864
▁aikavälin	-9865
▁bilateral	-9866
▁irregular	-9867
▁pääosasto	-9868
▁tullimaks	-9869
▁appreciate	-9870
▁koskevissa	-9871
▁maintained	-9872
▁soveltamis	-9873
teollisuuden	-9874
▁demonstrate	-9875
▁kyseenalais	-9876
▁vuosikertom	-9877
▁äärimmäisen	-9878
▁incorporated	-9879
▁maantieteell	-9880
▁tiedotusväline	-9881
ako	-9882
jek	-9883
nin	-9884
ros	-9885
tas	-9886
▁iz	-9887
▁je	-9888
ajat	-9889
pito	-9890
umed	-9891
▁ale	-9892
▁mir	-9893
▁ölj	-9894
jista	-9895
point	-9896
tämme	-9897
union	-9898
▁dell	-9899
▁fine	-9900
▁hylä	-9901
▁jaks	-9902
▁prel	-9903
▁soul	-9904
gested	-9905
tivity	-9906
▁arise	-9907
▁below	-9908
▁black	-9909
▁fifth	-9910
▁kuvit	-9911
▁lakka	-9912
▁pinhe	-9913
▁recru	-9914
▁shipp	-9915
▁worse	-9916
analyys	-9917
▁italia	-9918
▁kampan	-9919
▁lyhyen	-9920
▁näille	-9921
▁symbol	-9922
▁teleph	-9923
▁valtaa	-9924
▁exports	-9925
▁pelkään	-9926
▁säännös	-9927
▁topical	-9928
▁urheilu	-9929
▁uskomme	-9930
▁attached	-9931
▁eläinlää	-9932
▁kantansa	-9933
▁lopettaa	-9934
▁muutosta	-9935
▁suuntaut	-9936
▁toiminut	-9937
▁huolehtia	-9938
▁palestiin	-9939
▁applicable	-9940
▁electronic	-9941
▁federation	-9942
▁lopultakin	-9943
▁määritellä	-9944
▁xenophobia	-9945
▁demokratiaa	-9946
▁maaliskuuta	-9947
▁teknologian	-9948
▁yhdysvallat	-9949
▁ehdotuksessa	-9950
▁lääketieteen	-9951
ub	-9952
ood	-9953
ater	-9954
kyky	-9955
▁cas	-9956
aband	-9957
ching	-9958
empia	-9959
itage	-9960
▁hous	-9961
▁isol	-9962
▁room	-9963
isitte	-9964
istian	-9965
itystä	-9966
▁heads	-9967
▁hopes	-9968
▁julki	-9969
▁juris	-9970
▁rauta	-9971
▁seven	-9972
▁kunnan	-9973
▁liiton	-9974
▁schulz	-9975
▁vuosis	-9976
▁bearing	-9977
▁confron	-9978
▁endorse	-9979
▁holding	-9980
▁metsien	-9981
▁rothley	-9982
▁schools	-9983
▁usually	-9984
▁vapaata	-9985
▁väliset	-9986
▁consulta	-9987
▁heritage	-9988
▁joukossa	-9989
▁laadittu	-9990
▁lausunto	-9991
▁liikanen	-9992
▁prelimin	-9993
▁riittävä	-9994
▁vastuuta	-9995
▁vuodelta	-9996
▁arguments	-9997
▁laajentaa	-9998
▁regularly	-9999
▁undertake	-10000
▁vastaanot	-10001
▁käsittelyä	-10002
▁painopiste	-10003
▁muodostavat	-10004
▁toteutetaan	-10005
▁tullivirkail	-10006
▁bioteknologian	-10007
gre	-10008
▁ba	-10009
ofin	-10010
wley	-10011
▁ali	-10012
▁bir	-10013
▁dep	-10014
▁dia	-10015
▁dom	-10016
▁ena	-10017
▁etn	-10018
▁hoc	-10019
▁kaz	-10020
▁käd	-10021
▁sug	-10022
▁voc	-10023
atuot	-10024
impiä	-10025
itoum	-10026
mätön	-10027
tably	-10028
tocks	-10029
verty	-10030
▁fees	-10031
▁haja	-10032
▁naut	-10033
▁rinn	-10034
▁serb	-10035
▁skot	-10036
kuljet	-10037
▁fleet	-10038
▁instr	-10039
▁joutu	-10040
▁palac	-10041
quierdo	-10042
▁kohtel	-10043
▁otamme	-10044
▁suljet	-10045
▁työssä	-10046
▁capable	-10047
▁englann	-10048
▁huolehd	-10049
▁lopetta	-10050
▁pilarin	-10051
▁poverty	-10052
▁puoleen	-10053
▁tarpeet	-10054
▁tekstin	-10055
▁treated	-10056
uttaminen	-10057
▁absolute	-10058
▁alliance	-10059
▁arvoisan	-10060
▁compared	-10061
▁diplomat	-10062
▁helposti	-10063
▁ordinary	-10064
▁saksassa	-10065
▁tekninen	-10066
▁valmiita	-10067
▁announced	-10068
▁koskeviin	-10069
▁materials	-10070
▁preparing	-10071
▁sellaiset	-10072
▁contraband	-10073
▁preventing	-10074
▁saatavilla	-10075
▁sosialisti	-10076
▁tiedonanto	-10077
▁yksinomaan	-10078
▁huomattavia	-10079
▁outstanding	-10080
▁perspective	-10081
▁politically	-10082
▁preliminary	-10083
▁toteuttamaan	-10084
▁ensimmäiseksi	-10085
▁toteuttamista	-10086
▁yhdistyneessä	-10087
▁tullilaitosten	-10088
▁välttämättömiä	-10089
esh	-10090
esk	-10091
ios	-10092
isy	-10093
lev	-10094
▁äl	-10095
alia	-10096
eita	-10097
holm	-10098
lant	-10099
urah	-10100
▁dur	-10101
▁neu	-10102
▁nic	-10103
▁syö	-10104
▁tam	-10105
arvoa	-10106
ondon	-10107
▁flor	-10108
▁reve	-10109
▁saam	-10110
▁wolf	-10111
kohtia	-10112
ointia	-10113
pankin	-10114
▁pääse	-10115
▁solve	-10116
▁täyty	-10117
itellen	-10118
yksissä	-10119
▁belong	-10120
▁charge	-10121
▁kattaa	-10122
▁keskey	-10123
▁lopput	-10124
▁molemp	-10125
▁spread	-10126
▁tariff	-10127
▁happens	-10128
▁kieltää	-10129
▁muutama	-10130
▁oikeaan	-10131
▁riippuu	-10132
▁terveyd	-10133
▁weapons	-10134
järjestöt	-10135
▁covering	-10136
▁keskitty	-10137
▁manufact	-10138
▁rakennet	-10139
▁restruct	-10140
▁tuettava	-10141
tuotteiden	-10142
▁continues	-10143
▁erilaiset	-10144
▁explained	-10145
▁päättynyt	-10146
▁syyskuuta	-10147
▁toisinaan	-10148
▁guaranteed	-10149
▁kuluttajat	-10150
▁processing	-10151
▁demonstrated	-10152
▁kehityksestä	-10153
bk	-10154
ls	-10155
asu	-10156
atka	-10157
kate	-10158
keet	-10159
koin	-10160
▁dig	-10161
▁plo	-10162
isinä	-10163
itzer	-10164
osoit	-10165
▁dign	-10166
▁kauk	-10167
▁mach	-10168
▁paho	-10169
paikan	-10170
tively	-10171
▁kilom	-10172
▁kysel	-10173
▁poucy	-10174
▁vaati	-10175
entives	-10176
otetaan	-10177
▁define	-10178
▁exceed	-10179
▁explic	-10180
▁menety	-10181
▁pienet	-10182
▁pieniä	-10183
▁päätel	-10184
▁samanl	-10185
▁stable	-10186
▁stocks	-10187
▁tilapä	-10188
ityksiin	-10189
tettujen	-10190
▁aluetta	-10191
▁direkti	-10192
▁esteitä	-10193
▁largest	-10194
▁viljely	-10195
▁attempts	-10196
▁excluded	-10197
▁minority	-10198
▁suojella	-10199
▁välisten	-10200
britannian	-10201
▁candidate	-10202
▁erityinen	-10203
▁jäsenistä	-10204
▁suggested	-10205
▁suspended	-10206
▁syrjinnän	-10207
▁portugalin	-10208
▁mahdollisia	-10209
▁edellytykset	-10210
▁keskustellaan	-10211
▁restructuring	-10212
▁neuvotteluissa	-10213
euv	-10214
lee	-10215
nöt	-10216
oke	-10217
aged	-10218
ikäy	-10219
oted	-10220
pill	-10221
väen	-10222
▁ell	-10223
paket	-10224
▁gall	-10225
elämän	-10226
tajien	-10227
▁daily	-10228
▁frank	-10229
▁hauta	-10230
▁kulje	-10231
▁mitte	-10232
▁nuore	-10233
▁spenc	-10234
▁struc	-10235
▁vilvo	-10236
ability	-10237
▁angers	-10238
▁asiana	-10239
▁esitän	-10240
▁helppo	-10241
▁luokit	-10242
▁palata	-10243
▁virgin	-10244
kohdista	-10245
▁kirsten	-10246
▁obliged	-10247
▁sukupol	-10248
▁työvoim	-10249
yritysten	-10250
▁katastro	-10251
▁mainitun	-10252
▁selvitys	-10253
menettelyä	-10254
▁käyttäyty	-10255
▁lokakuuta	-10256
▁nykyisten	-10257
▁organised	-10258
▁strategia	-10259
▁käyttämään	-10260
▁lopullinen	-10261
▁ratkaisuja	-10262
▁toimivaltaa	-10263
▁periaatteita	-10264
▁ratification	-10265
▁universities	-10266
▁valmistelija	-10267
▁kehittämiseen	-10268
▁eurooppalaisia	-10269
▁tilintarkastus	-10270
.-	-10271
af	-10272
bra	-10273
joh	-10274
ikon	-10275
mpää	-10276
▁fan	-10277
▁gas	-10278
▁unn	-10279
kinta	-10280
uutan	-10281
▁cars	-10282
▁devo	-10283
▁dybk	-10284
▁muld	-10285
▁size	-10286
avanos	-10287
euroop	-10288
▁hakij	-10289
▁kanss	-10290
▁neuvo	-10291
▁palau	-10292
▁proof	-10293
▁rahan	-10294
▁rikka	-10295
▁ships	-10296
▁turkk	-10297
kkeiden	-10298
tamasta	-10299
▁hardly	-10300
▁laatua	-10301
▁played	-10302
komissio	-10303
▁courses	-10304
▁greatly	-10305
▁explicit	-10306
▁hintojen	-10307
▁identify	-10308
▁keksintö	-10309
▁stations	-10310
▁stressed	-10311
▁sukupuol	-10312
▁vaatimus	-10313
▁vaativat	-10314
▁edistysas	-10315
▁itselleen	-10316
▁luottamus	-10317
▁monikansa	-10318
▁penalties	-10319
▁puolustaa	-10320
▁ratkaisua	-10321
▁strategic	-10322
▁tilaisuus	-10323
▁työllistä	-10324
▁vastustaa	-10325
poliittisen	-10326
▁ehdottoman	-10327
▁hallitusta	-10328
▁percentage	-10329
▁complicated	-10330
▁negotiation	-10331
▁tarvitsevat	-10332
▁yksittäisten	-10333
järjestelmässä	-10334
▁parlamenttiin	-10335
▁representation	-10336
erd	-10337
rin	-10338
uhun	-10339
vaku	-10340
valv	-10341
wers	-10342
▁bra	-10343
▁fax	-10344
▁gil	-10345
▁hom	-10346
▁pir	-10347
itekn	-10348
lined	-10349
tured	-10350
uissa	-10351
▁heng	-10352
▁sinc	-10353
▁surv	-10354
▁waal	-10355
enness	-10356
igence	-10357
intiin	-10358
uvasti	-10359
▁accur	-10360
▁admit	-10361
▁annan	-10362
▁ansio	-10363
▁ennus	-10364
▁lomen	-10365
▁marks	-10366
▁mines	-10367
▁sorry	-10368
▁attack	-10369
▁ethnic	-10370
▁liikku	-10371
▁quotas	-10372
▁turvaa	-10373
▁helping	-10374
▁kritiik	-10375
▁leaving	-10376
▁options	-10377
▁pyynnön	-10378
▁alavanos	-10379
▁itämeren	-10380
▁kannanot	-10381
▁normally	-10382
▁pinheiro	-10383
▁sovellet	-10384
▁suoritta	-10385
▁tiedotta	-10386
▁toimista	-10387
▁viittaan	-10388
▁ajatellen	-10389
▁erityisiä	-10390
▁resulting	-10391
▁consistent	-10392
▁euroopasta	-10393
▁myönteisiä	-10394
▁vähitellen	-10395
▁essentially	-10396
▁haluaisimme	-10397
▁liikkuvuutta	-10398
▁geneettisesti	-10399
▁kalastussopim	-10400
▁yksinkertaista	-10401
aat	-10402
jun	-10403
oij	-10404
osh	-10405
▁sv	-10406
alaa	-10407
erse	-10408
maat	-10409
yhmä	-10410
▁cat	-10411
▁lif	-10412
▁unl	-10413
entaa	-10414
ismia	-10415
udron	-10416
urers	-10417
▁alun	-10418
▁boog	-10419
▁flow	-10420
▁hien	-10421
▁leim	-10422
▁nelj	-10423
▁sout	-10424
▁säte	-10425
▁west	-10426
inteja	-10427
tavaan	-10428
tified	-10429
unning	-10430
▁domes	-10431
▁eriks	-10432
▁pages	-10433
▁riski	-10434
▁sanan	-10435
iteetin	-10436
tamassa	-10437
▁agents	-10438
▁brings	-10439
▁displa	-10440
▁postal	-10441
▁signal	-10442
▁syyttä	-10443
etheless	-10444
▁caudron	-10445
▁college	-10446
▁johtuen	-10447
▁komment	-10448
▁parissa	-10449
▁viittaa	-10450
▁academic	-10451
▁austrian	-10452
▁distance	-10453
▁domestic	-10454
▁johtavat	-10455
▁kuljetta	-10456
▁lopputul	-10457
▁olisimme	-10458
▁osaltaan	-10459
▁ongelmaan	-10460
▁smuggling	-10461
▁tarkemmin	-10462
▁vähimmäis	-10463
▁avoimuuden	-10464
▁laiminlyön	-10465
▁onnistunut	-10466
▁onnittelen	-10467
▁presenting	-10468
▁ympäristöä	-10469
▁credibility	-10470
▁kansallista	-10471
▁publication	-10472
▁sovereignty	-10473
▁terrorismin	-10474
▁toteutettava	-10475
▁valitettavaa	-10476
▁laajentumisen	-10477
▁käsittelevässä	-10478
▁yhteenliittymän	-10479
ahd	-10480
jud	-10481
ages	-10482
iala	-10483
velv	-10484
ytty	-10485
▁alh	-10486
▁mah	-10487
based	-10488
oulos	-10489
teena	-10490
▁ende	-10491
▁hory	-10492
▁sets	-10493
itsisi	-10494
raatit	-10495
tinnän	-10496
▁gonal	-10497
▁islam	-10498
▁lanck	-10499
▁truth	-10500
▁zaire	-10501
ikoista	-10502
iteetti	-10503
ustusta	-10504
▁aiheen	-10505
▁conect	-10506
▁delors	-10507
▁elintä	-10508
▁mietin	-10509
▁ruotsi	-10510
▁shared	-10511
▁singap	-10512
▁takana	-10513
▁tukien	-10514
utumisen	-10515
▁boogerd	-10516
▁herättä	-10517
▁illustr	-10518
▁advisory	-10519
▁eriksson	-10520
▁fighting	-10521
▁johdanto	-10522
▁julkisia	-10523
▁maksujen	-10524
▁ohjelmia	-10525
▁peaceful	-10526
▁poutical	-10527
▁seuraava	-10528
▁tehtäviä	-10529
▁tulevien	-10530
▁väliseen	-10531
valtuuston	-10532
▁continent	-10533
▁mainitaan	-10534
▁ruotsissa	-10535
▁suffering	-10536
▁avoimuutta	-10537
▁espanjassa	-10538
▁frequently	-10539
▁vastaamaan	-10540
▁consequence	-10541
▁nonetheless	-10542
▁toiminnassa	-10543
▁preparations	-10544
▁minkäänlaista	-10545
▁noudattamista	-10546
▁periaatteiden	-10547
aj	-10548
cs	-10549
kr	-10550
aff	-10551
tiv	-10552
avia	-10553
buil	-10554
tull	-10555
utto	-10556
amman	-10557
atiiv	-10558
isyyd	-10559
luvun	-10560
▁cohn	-10561
▁gatt	-10562
▁joku	-10563
intosh	-10564
ketaan	-10565
teille	-10566
vyyden	-10567
▁aikom	-10568
▁ehdok	-10569
▁lesta	-10570
▁syynä	-10571
▁trial	-10572
▁viedä	-10573
oksissa	-10574
ruption	-10575
uneiden	-10576
▁alueet	-10577
▁became	-10578
▁delays	-10579
▁fellow	-10580
▁kiista	-10581
▁niinpä	-10582
▁nobody	-10583
▁resist	-10584
▁shares	-10585
▁stands	-10586
▁superv	-10587
alueiden	-10588
▁highest	-10589
▁lähellä	-10590
▁periods	-10591
▁tavaran	-10592
▁teacher	-10593
isuudelle	-10594
▁apparent	-10595
▁erikseen	-10596
▁financed	-10597
▁incident	-10598
▁johtanut	-10599
▁ministry	-10600
▁openness	-10601
▁tehtävää	-10602
▁tietävät	-10603
palvelujen	-10604
▁automaatt	-10605
▁barcelona	-10606
▁laatimaan	-10607
▁personnel	-10608
▁seuraavaa	-10609
▁tietotekn	-10610
▁toimielin	-10611
▁virtually	-10612
▁incentives	-10613
▁kunnianhim	-10614
▁säännösten	-10615
▁tämänpäivä	-10616
▁ylipäätään	-10617
▁unanimously	-10618
▁expectations	-10619
▁kysymyksissä	-10620
▁olosuhteissa	-10621
▁reservations	-10622
▁mainstreaming	-10623
▁yhdistyneiden	-10624
▁yksimielisyys	-10625
▁identification	-10626
▁parlamenttimme	-10627
▁toimenpiteistä	-10628
ple	-10629
tis	-10630
adel	-10631
tilä	-10632
öntä	-10633
▁bes	-10634
▁näk	-10635
▁saw	-10636
▁sev	-10637
▁suu	-10638
▁une	-10639
▁jean	-10640
▁kaan	-10641
▁lect	-10642
▁sant	-10643
▁työt	-10644
▁went	-10645
illani	-10646
tariat	-10647
▁luvut	-10648
▁ruots	-10649
▁voitu	-10650
ipheral	-10651
istojen	-10652
ittelee	-10653
▁ecofin	-10654
▁iltana	-10655
▁maksut	-10656
▁merkki	-10657
▁rajoja	-10658
▁suspen	-10659
▁tuskin	-10660
aineiden	-10661
▁nuoriso	-10662
▁seurata	-10663
▁sotilas	-10664
▁soulier	-10665
▁tuetaan	-10666
▁anteeksi	-10667
▁decisive	-10668
▁etteivät	-10669
▁flexible	-10670
▁kohtuull	-10671
▁lähettää	-10672
▁otettiin	-10673
ollisuutta	-10674
▁combating	-10675
▁helpottaa	-10676
▁izquierdo	-10677
▁pyynnöstä	-10678
▁vastainen	-10679
▁compatible	-10680
▁distinction	-10681
▁komissaarin	-10682
▁maintaining	-10683
▁necessarily	-10684
▁rapporteurs	-10685
▁käsittelemme	-10686
▁significance	-10687
▁vahvistetaan	-10688
▁tiedonannossa	-10689
▁toteuttaminen	-10690
▁qualifications	-10691
ahr	-10692
far	-10693
dorf	-10694
siiv	-10695
▁hid	-10696
▁kad	-10697
▁pic	-10698
▁sik	-10699
ellut	-10700
paino	-10701
pping	-10702
▁etua	-10703
▁hätä	-10704
▁mahd	-10705
▁site	-10706
atures	-10707
empien	-10708
▁chann	-10709
▁hands	-10710
▁imper	-10711
▁novel	-10712
▁saksa	-10713
▁syyll	-10714
itsevat	-10715
kohtana	-10716
umattom	-10717
▁compos	-10718
▁neuvoa	-10719
▁omassa	-10720
▁rooman	-10721
▁ryhmät	-10722
▁teillä	-10723
uduttava	-10724
▁arising	-10725
▁becomes	-10726
▁equival	-10727
▁espanja	-10728
▁integro	-10729
▁järkevä	-10730
▁kahdeks	-10731
▁lopussa	-10732
▁minäkin	-10733
▁switzer	-10734
▁todista	-10735
▁antaneet	-10736
▁certific	-10737
▁diseases	-10738
▁mukainen	-10739
▁useimmat	-10740
▁estimated	-10741
▁laitosten	-10742
▁rahoittaa	-10743
▁kollegamme	-10744
▁perustuvat	-10745
▁asetukseksi	-10746
▁edistäminen	-10747
▁keskuudessa	-10748
▁seuraavassa	-10749
▁switzerland	-10750
▁latinalaisen	-10751
▁restrictions	-10752
▁tavallisesti	-10753
▁ristiriidassa	-10754
▁talousarvioon	-10755
▁demokraattisten	-10756
uud	-10757
ikta	-10758
ismi	-10759
lled	-10760
mans	-10761
▁got	-10762
▁tin	-10763
kasta	-10764
kkien	-10765
ympär	-10766
▁forg	-10767
▁otti	-10768
ijoita	-10769
ttävää	-10770
undred	-10771
▁ilahd	-10772
▁relig	-10773
▁route	-10774
▁sudan	-10775
harjoit	-10776
telusta	-10777
tuneita	-10778
▁confer	-10779
▁hallam	-10780
▁heillä	-10781
▁innova	-10782
▁kolmea	-10783
▁kärsim	-10784
▁london	-10785
▁nähden	-10786
▁plooij	-10787
▁traged	-10788
▁unfair	-10789
itsemaan	-10790
▁answers	-10791
▁behavio	-10792
▁depends	-10793
▁install	-10794
▁kappale	-10795
▁komitea	-10796
▁pidättä	-10797
▁replace	-10798
▁työväen	-10799
▁viitata	-10800
▁välisiä	-10801
aisuuteen	-10802
▁ajatella	-10803
▁coherent	-10804
▁luominen	-10805
▁muodosta	-10806
▁sanoisin	-10807
▁teknisen	-10808
▁toimitet	-10809
keskustelu	-10810
tettavissa	-10811
▁applicant	-10812
▁kaupankäy	-10813
▁vastaisen	-10814
▁candidates	-10815
▁alueellisen	-10816
▁marraskuuta	-10817
▁negotiating	-10818
▁savukkeiden	-10819
▁noudatettava	-10820
▁presentation	-10821
▁välityksellä	-10822
▁jäsenvaltiota	-10823
▁tarkistuksessa	-10824
jiä	-10825
ria	-10826
urd	-10827
vai	-10828
meja	-10829
mium	-10830
pped	-10831
road	-10832
wing	-10833
▁ced	-10834
▁hat	-10835
▁pub	-10836
▁wil	-10837
demok	-10838
iorah	-10839
▁alaa	-10840
▁daan	-10841
▁heij	-10842
▁ilta	-10843
▁inev	-10844
▁scot	-10845
▁stre	-10846
▁tart	-10847
laisen	-10848
utumis	-10849
▁harvo	-10850
▁lukum	-10851
▁pakko	-10852
▁tukia	-10853
▁yhtiö	-10854
aisilla	-10855
tettuja	-10856
usitoum	-10857
▁afford	-10858
▁breach	-10859
▁easily	-10860
▁kirjat	-10861
▁perpet	-10862
▁toiset	-10863
▁tonnes	-10864
▁tuonti	-10865
▁tähden	-10866
▁uusiin	-10867
▁charter	-10868
▁debated	-10869
▁finnish	-10870
▁hankkim	-10871
▁hautala	-10872
▁hundred	-10873
▁kirjeen	-10874
▁perform	-10875
▁pursued	-10876
▁toistan	-10877
▁vierail	-10878
ainsäädän	-10879
▁kaikesta	-10880
▁mcintosh	-10881
▁sisältöä	-10882
▁valuable	-10883
▁yhdistää	-10884
commission	-10885
välineiden	-10886
▁christian	-10887
▁disappear	-10888
▁extending	-10889
▁highlight	-10890
▁keskenään	-10891
▁monimuoto	-10892
▁puutteita	-10893
▁sanottuna	-10894
▁tehtävien	-10895
▁tullihall	-10896
▁näkökohdat	-10897
▁vocational	-10898
kustannukset	-10899
▁engineering	-10900
▁organisaatio	-10901
▁mietinnössään	-10902
▁demokraattinen	-10903
wa	-10904
ehd	-10905
kku	-10906
pir	-10907
zem	-10908
elim	-10909
gest	-10910
hard	-10911
inin	-10912
osof	-10913
raid	-10914
sian	-10915
uret	-10916
▁dij	-10917
▁eti	-10918
▁lib	-10919
▁riv	-10920
tellä	-10921
using	-10922
▁neut	-10923
▁syvä	-10924
▁taso	-10925
eminen	-10926
unders	-10927
▁breed	-10928
▁dispu	-10929
▁dybkj	-10930
▁thurs	-10931
▁vaara	-10932
ollisia	-10933
ologian	-10934
▁afraid	-10935
▁berish	-10936
▁classi	-10937
▁covers	-10938
▁ehtoja	-10939
▁jotkin	-10940
▁muuttu	-10941
▁pettym	-10942
▁torres	-10943
▁turvat	-10944
▁valinn	-10945
missible	-10946
oikeutta	-10947
▁kriisin	-10948
▁kuullut	-10949
▁painost	-10950
▁puoluer	-10951
▁pysyvän	-10952
▁release	-10953
▁tilalle	-10954
▁valittu	-10955
▁ensisija	-10956
▁epävarmu	-10957
▁historic	-10958
▁kohteena	-10959
▁ratified	-10960
▁rational	-10961
▁tutkinta	-10962
umenettely	-10963
▁ansaitsee	-10964
▁discharge	-10965
▁koskemaan	-10966
▁prospects	-10967
▁pyrittävä	-10968
▁seitsemän	-10969
▁viestintä	-10970
▁azerbaijan	-10971
▁istuntosal	-10972
▁osapuolten	-10973
▁suspension	-10974
▁toimittava	-10975
▁tuloksista	-10976
▁directorate	-10977
▁forthcoming	-10978
▁koheesiorah	-10979
▁secretariat	-10980
▁valmistever	-10981
▁ympäristöön	-10982
▁korkeakoulut	-10983
▁soveltaminen	-10984
▁työjärjestystä	-10985
itt	-10986
tty	-10987
alba	-10988
coun	-10989
ehkä	-10990
hilä	-10991
kann	-10992
udin	-10993
uvaa	-10994
year	-10995
▁nan	-10996
buity	-10997
burgh	-10998
ctors	-10999
emään	-11000
uneen	-11001
uting	-11002
▁dayt	-11003
▁prin	-11004
▁vaiv	-11005
esitys	-11006
ivalta	-11007
ksellä	-11008
neiden	-11009
varain	-11010
▁amade	-11011
▁class	-11012
▁hyöty	-11013
▁jakaa	-11014
▁jurid	-11015
▁miert	-11016
▁moral	-11017
▁piden	-11018
▁ports	-11019
▁slova	-11020
▁tahto	-11021
▁tulle	-11022
▁tutus	-11023
aisissa	-11024
iversen	-11025
▁dupuis	-11026
▁jarzem	-11027
▁relate	-11028
▁secret	-11029
▁thomas	-11030
▁tiellä	-11031
committe	-11032
▁finding	-11033
▁legally	-11034
▁neuvote	-11035
▁premium	-11036
▁reserve	-11037
▁sisälty	-11038
▁warning	-11039
▁yksikkö	-11040
opolitiik	-11041
▁southern	-11042
▁teknisiä	-11043
▁thursday	-11044
▁unnecess	-11045
▁viljelij	-11046
▁decentral	-11047
▁eliminate	-11048
▁gradually	-11049
▁kokoonpan	-11050
▁päätösten	-11051
▁satellite	-11052
▁terrorist	-11053
▁työsuojel	-11054
▁vaalipiir	-11055
▁whitehead	-11056
▁yhteisten	-11057
▁collective	-11058
▁department	-11059
▁legitimacy	-11060
▁neuvonanta	-11061
▁äänestystä	-11062
▁istuntojaks	-11063
▁passituspet	-11064
▁korostettava	-11065
▁determination	-11066
▁huolellisesti	-11067
kil	-11068
bows	-11069
▁dav	-11070
ilies	-11071
ipuol	-11072
öistä	-11073
▁blok	-11074
▁enth	-11075
▁kaun	-11076
▁näen	-11077
▁phen	-11078
▁saap	-11079
▁ther	-11080
ampton	-11081
outeen	-11082
▁began	-11083
▁eroja	-11084
▁heavy	-11085
▁kuunn	-11086
▁kärsi	-11087
▁lista	-11088
▁lobby	-11089
▁schle	-11090
▁spend	-11091
▁urban	-11092
isemmin	-11093
kinoita	-11094
▁aftern	-11095
▁allows	-11096
▁dollar	-11097
▁jurisd	-11098
▁korvaa	-11099
▁liiall	-11100
▁marked	-11101
▁mehilä	-11102
▁recons	-11103
▁tausta	-11104
▁tehdyt	-11105
▁valita	-11106
▁clarify	-11107
▁logical	-11108
▁nimittä	-11109
▁savings	-11110
▁tammiku	-11111
▁tuottaa	-11112
▁ukraine	-11113
▁vähiten	-11114
isyydestä	-11115
▁actively	-11116
▁cunently	-11117
▁families	-11118
▁matkailu	-11119
▁opettaja	-11120
▁shipping	-11121
▁toisista	-11122
▁valiokun	-11123
university	-11124
▁endeavour	-11125
▁esittämän	-11126
▁laajennet	-11127
▁välisestä	-11128
▁worldwide	-11129
▁alankomaat	-11130
▁jarzembows	-11131
▁preference	-11132
▁protecting	-11133
▁registered	-11134
▁respective	-11135
▁seuraavien	-11136
▁toimenpide	-11137
▁transition	-11138
▁asiakirjoja	-11139
▁distributed	-11140
▁investments	-11141
▁kiitollinen	-11142
▁korostetaan	-11143
▁subsequently	-11144
järjestelmästä	-11145
afr	-11146
▁kl	-11147
bert	-11148
hold	-11149
math	-11150
ores	-11151
▁cot	-11152
▁cox	-11153
▁lay	-11154
▁mää	-11155
ading	-11156
asing	-11157
guese	-11158
ranga	-11159
rants	-11160
tieto	-11161
tonsa	-11162
vista	-11163
▁reak	-11164
▁stra	-11165
▁summ	-11166
anging	-11167
käytän	-11168
teihin	-11169
teissa	-11170
tettua	-11171
uttiin	-11172
▁adapt	-11173
▁ambit	-11174
▁brink	-11175
▁child	-11176
▁dynam	-11177
▁meant	-11178
▁sandb	-11179
▁syitä	-11180
▁taaks	-11181
▁tions	-11182
inenerg	-11183
▁acquis	-11184
▁acting	-11185
▁biolog	-11186
▁compon	-11187
▁huolta	-11188
▁naapur	-11189
▁puolet	-11190
▁pyyntö	-11191
▁widely	-11192
▁epätasa	-11193
▁ettemme	-11194
▁hearing	-11195
▁kolmeen	-11196
▁luodaan	-11197
▁lähinnä	-11198
▁palacio	-11199
▁pyrimme	-11200
▁väittää	-11201
▁yhdellä	-11202
▁flagship	-11203
▁reported	-11204
▁sveitsin	-11205
▁tarkkail	-11206
▁tukemaan	-11207
▁behaviour	-11208
▁edustajia	-11209
▁italiassa	-11210
▁mielipide	-11211
▁perustana	-11212
▁satelliit	-11213
▁toisiinsa	-11214
hallituksen	-11215
▁direktiive	-11216
▁portuguese	-11217
▁procedural	-11218
▁läsnäolijat	-11219
▁matkailuval	-11220
▁noudatetaan	-11221
▁sosiaalisia	-11222
▁vastaanotta	-11223
▁kuluttajille	-11224
▁osallistuvat	-11225
▁papayannakis	-11226
▁teknologista	-11227
▁tyytyväisenä	-11228
▁valiokuntaan	-11229
▁puheenjohtajana	-11230
)).	-11231
iov	-11232
ops	-11233
uin	-11234
ensa	-11235
omak	-11236
osop	-11237
tejä	-11238
▁aro	-11239
▁jun	-11240
▁jän	-11241
▁sok	-11242
ikkaa	-11243
orial	-11244
▁ball	-11245
▁cere	-11246
▁coup	-11247
▁herä	-11248
▁hämm	-11249
▁neil	-11250
▁upov	-11251
▁vers	-11252
ahrton	-11253
bendit	-11254
ettuja	-11255
olloin	-11256
▁built	-11257
▁drift	-11258
▁edetä	-11259
▁koski	-11260
▁liity	-11261
▁oteta	-11262
▁rikko	-11263
▁sesti	-11264
▁tulen	-11265
iokunta	-11266
utonium	-11267
▁agrees	-11268
▁discip	-11269
▁asensio	-11270
▁attacks	-11271
▁ihmistä	-11272
▁iversen	-11273
▁luomaan	-11274
▁pääasia	-11275
▁sisältö	-11276
▁smaller	-11277
▁someone	-11278
▁tuottav	-11279
▁varasto	-11280
direktiiv	-11281
▁hyväksym	-11282
▁ilmoitus	-11283
▁kirjassa	-11284
▁olevista	-11285
▁overcome	-11286
▁petoksen	-11287
▁philosop	-11288
▁supposed	-11289
▁tarkasta	-11290
▁tiukasti	-11291
▁welcomed	-11292
asiakirjan	-11293
▁afternoon	-11294
▁annettiin	-11295
▁misunders	-11296
▁selection	-11297
▁ydinenerg	-11298
▁aiheutuvat	-11299
▁esitettävä	-11300
▁myönnetään	-11301
▁pidemmälle	-11302
▁regulatory	-11303
politiikassa	-11304
▁exclusively	-11305
▁noudattamaan	-11306
▁soveltamisen	-11307
▁muuttamisesta	-11308
▁soveltamisesta	-11309
ai	-11310
vl	-11311
ape	-11312
cle	-11313
fal	-11314
hyö	-11315
▁pp	-11316
atia	-11317
ilön	-11318
lied	-11319
rend	-11320
udes	-11321
▁lor	-11322
▁los	-11323
▁tre	-11324
ialan	-11325
iessa	-11326
innön	-11327
kkeen	-11328
tavar	-11329
timme	-11330
utoim	-11331
▁edin	-11332
▁gors	-11333
▁hull	-11334
▁lose	-11335
▁lämp	-11336
▁suva	-11337
intien	-11338
kanaan	-11339
ostaan	-11340
▁guine	-11341
▁lihan	-11342
▁menee	-11343
▁pakot	-11344
▁persu	-11345
▁pohja	-11346
▁watts	-11347
mätöntä	-11348
▁arkalu	-11349
▁luonne	-11350
▁luonte	-11351
▁painot	-11352
▁taiste	-11353
▁transa	-11354
▁weight	-11355
▁centres	-11356
▁käytävä	-11357
▁lannoye	-11358
▁liikenn	-11359
▁opinnot	-11360
▁revised	-11361
▁tekijät	-11362
istuminen	-11363
toimipaik	-11364
▁employed	-11365
▁launched	-11366
▁opposite	-11367
▁phenomen	-11368
▁pyrkivät	-11369
▁selittää	-11370
▁electoral	-11371
▁kahdenväl	-11372
▁keskeyttä	-11373
▁perustelu	-11374
▁plutonium	-11375
▁producing	-11376
▁similarly	-11377
▁valtakunn	-11378
▁toimivaltu	-11379
▁valmistelu	-11380
▁estämiseksi	-11381
▁explanation	-11382
▁menettelyjä	-11383
▁tiedonannon	-11384
▁considerably	-11385
▁tarpeellista	-11386
▁kansanpuolueen	-11387
ui	-11388
akh	-11389
bar	-11390
can	-11391
ils	-11392
ued	-11393
asin	-11394
ense	-11395
liik	-11396
▁alb	-11397
▁ham	-11398
itava	-11399
uksin	-11400
▁cast	-11401
▁polt	-11402
▁soft	-11403
▁thin	-11404
▁weil	-11405
▁wulf	-11406
aktiiv	-11407
illään	-11408
iseltä	-11409
kohdan	-11410
▁abuse	-11411
▁divid	-11412
▁kerto	-11413
▁leviä	-11414
▁logic	-11415
▁manip	-11416
▁musta	-11417
▁orien	-11418
▁pilot	-11419
▁puhta	-11420
▁puhun	-11421
▁runsa	-11422
▁suomi	-11423
amattom	-11424
elmissa	-11425
ettujen	-11426
itoista	-11427
oksessa	-11428
tenance	-11429
▁amadeo	-11430
▁firmly	-11431
▁herman	-11432
▁kosket	-11433
▁mierlo	-11434
▁nation	-11435
▁nuoret	-11436
▁osassa	-11437
▁palkka	-11438
▁prison	-11439
▁taakse	-11440
national	-11441
▁feeling	-11442
▁filosof	-11443
▁gahrton	-11444
▁harmful	-11445
▁muualla	-11446
▁offence	-11447
▁restore	-11448
▁säännön	-11449
▁toisten	-11450
▁trading	-11451
ohjelmaan	-11452
▁crampton	-11453
▁learning	-11454
▁monivuot	-11455
▁ohjelmaa	-11456
▁palestin	-11457
▁parempaa	-11458
▁peruutta	-11459
▁strictly	-11460
▁suffered	-11461
▁tarkista	-11462
▁todistus	-11463
▁toisiaan	-11464
▁urgently	-11465
▁vierailu	-11466
▁ajatuksia	-11467
▁ambitious	-11468
▁exchanges	-11469
▁parhaiten	-11470
▁unionilla	-11471
▁sellaisena	-11472
▁sisältävät	-11473
▁coordinated	-11474
▁erinomainen	-11475
▁esimerkkejä	-11476
▁julkilausum	-11477
▁kaksinkerta	-11478
▁väärinkäytö	-11479
▁edustajakoko	-11480
▁automatically	-11481
▁järjestelmien	-11482
▁opiskelijoiden	-11483
iat	-11484
ynn	-11485
zol	-11486
ardo	-11487
ield	-11488
tina	-11489
▁läp	-11490
appro	-11491
idzan	-11492
iivat	-11493
mille	-11494
ouses	-11495
▁arch	-11496
▁dete	-11497
▁otan	-11498
▁rosa	-11499
ighten	-11500
▁docum	-11501
▁numer	-11502
▁pyysi	-11503
▁ranka	-11504
yhdisty	-11505
yhteisö	-11506
▁conven	-11507
▁helpom	-11508
▁jäävät	-11509
▁kasvan	-11510
▁leikka	-11511
▁lentol	-11512
▁lääkär	-11513
▁mittee	-11514
▁poliis	-11515
▁profit	-11516
▁siirry	-11517
▁skills	-11518
▁tahdon	-11519
▁tarkis	-11520
▁tuesta	-11521
▁useaan	-11522
▁vapaut	-11523
teollisu	-11524
▁dignity	-11525
▁enempää	-11526
▁interim	-11527
▁intress	-11528
▁korvata	-11529
▁muistaa	-11530
▁määrätä	-11531
▁picture	-11532
▁recruit	-11533
▁toistaa	-11534
▁vähenem	-11535
raattisen	-11536
▁rakentaa	-11537
▁saavutet	-11538
▁sallikaa	-11539
▁conflicts	-11540
▁correctly	-11541
▁edinburgh	-11542
▁elintärke	-11543
▁emissions	-11544
▁examining	-11545
▁processes	-11546
▁toimittaa	-11547
▁vastaista	-11548
▁environmen	-11549
▁historiall	-11550
▁kulttuurip	-11551
▁säännöksiä	-11552
▁toisistaan	-11553
▁accordingly	-11554
▁composition	-11555
▁maintenance	-11556
▁maksusitoum	-11557
▁sisällyttää	-11558
▁sosiaaliset	-11559
▁virallisten	-11560
▁jurisdiction	-11561
▁politiikkojen	-11562
▁kansainväliset	-11563
▁kansainvälisiä	-11564
▁tervetulleeksi	-11565
▁täytäntöönpanon	-11566
kri	-11567
nsä	-11568
uir	-11569
▁ia	-11570
▁um	-11571
osen	-11572
pain	-11573
taso	-11574
tute	-11575
▁bit	-11576
▁irl	-11577
▁upd	-11578
avien	-11579
keita	-11580
patur	-11581
uttom	-11582
▁dere	-11583
▁echo	-11584
▁hita	-11585
▁kerr	-11586
▁lahj	-11587
▁lenz	-11588
▁lykä	-11589
▁ties	-11590
ventää	-11591
▁arias	-11592
▁drama	-11593
▁recip	-11594
▁tyypp	-11595
comings	-11596
essamme	-11597
immissa	-11598
lauseen	-11599
uttavaa	-11600
▁advice	-11601
▁doubts	-11602
▁endors	-11603
▁käynyt	-11604
▁mulder	-11605
▁nearly	-11606
▁ohella	-11607
▁promis	-11608
▁tahtoa	-11609
▁toivoo	-11610
▁väistä	-11611
▁closure	-11612
▁commend	-11613
▁enthusi	-11614
▁helpful	-11615
▁ilmenee	-11616
▁keskity	-11617
▁koskien	-11618
▁käsittä	-11619
▁luotava	-11620
▁muistan	-11621
▁naisiin	-11622
▁pidetty	-11623
▁suunnat	-11624
▁viestin	-11625
▁voitava	-11626
▁whereby	-11627
▁yhdestä	-11628
▁carriers	-11629
▁deserves	-11630
▁kestelij	-11631
▁millions	-11632
▁reaching	-11633
▁todistaa	-11634
▁viittasi	-11635
▁yhteyden	-11636
▁connected	-11637
▁edellytys	-11638
▁extensive	-11639
▁equivalent	-11640
▁perustavan	-11641
▁valtioissa	-11642
▁vihdoinkin	-11643
▁yhteismark	-11644
▁kunnianhimo	-11645
▁passituksen	-11646
▁suunniteltu	-11647
▁toistuvasti	-11648
▁työskentely	-11649
▁geographical	-11650
▁guaranteeing	-11651
▁shortcomings	-11652
▁laajentuminen	-11653
▁toteuttamisen	-11654
▁yhteisymmärry	-11655
▁lähestymistapa	-11656
▁toteuttamiseksi	-11657
ato	-11658
cas	-11659
jää	-11660
nne	-11661
peä	-11662
pic	-11663
uty	-11664
cure	-11665
mone	-11666
tuff	-11667
▁ded	-11668
▁esc	-11669
▁mag	-11670
▁psy	-11671
▁rov	-11672
ammat	-11673
enses	-11674
erted	-11675
impia	-11676
kelpo	-11677
kkaan	-11678
kohol	-11679
levat	-11680
orien	-11681
tamaa	-11682
uilla	-11683
▁cuts	-11684
▁maak	-11685
▁moor	-11686
▁totu	-11687
▁ware	-11688
assani	-11689
issään	-11690
ksuaal	-11691
lantic	-11692
tuista	-11693
vyyttä	-11694
äyksiä	-11695
▁aside	-11696
▁blame	-11697
▁boost	-11698
▁domin	-11699
▁grand	-11700
▁infor	-11701
▁overs	-11702
▁saapu	-11703
isempaa	-11704
▁antwer	-11705
▁bladel	-11706
▁cattle	-11707
▁geneva	-11708
▁joukon	-11709
▁katsot	-11710
▁kerrot	-11711
▁olimme	-11712
▁uskonn	-11713
tability	-11714
▁heading	-11715
▁jossain	-11716
▁kyselyt	-11717
▁patents	-11718
▁spencer	-11719
▁todettu	-11720
prosessin	-11721
▁armenian	-11722
▁jossakin	-11723
▁jätetään	-11724
▁kohdista	-11725
▁muitakin	-11726
▁tasapuol	-11727
▁välineet	-11728
▁criminals	-11729
▁dependent	-11730
▁ihmisille	-11731
▁kestelijn	-11732
▁movements	-11733
▁professor	-11734
▁saattavat	-11735
▁tavaroita	-11736
▁tervetull	-11737
▁velvoitte	-11738
▁ehdotusten	-11739
▁kesäkuussa	-11740
▁ratkaiseva	-11741
▁ryhdyttävä	-11742
▁subsequent	-11743
▁yhtenäistä	-11744
oikeudenmuka	-11745
▁investigate	-11746
▁pakolaisten	-11747
▁tilaisuuden	-11748
▁uudistuksia	-11749
▁vaikutusten	-11750
▁exploitation	-11751
▁huolintaalan	-11752
▁parantaminen	-11753
▁perustamista	-11754
▁sosiaalisten	-11755
▁supplementary	-11756
▁työllisyyteen	-11757
▁kustannuksella	-11758
▁päätöslauselmaa	-11759
▁taloudellisesta	-11760
beh	-11761
bin	-11762
pin	-11763
atti	-11764
▁buy	-11765
▁ety	-11766
▁juh	-11767
▁kaa	-11768
▁lal	-11769
▁ruo	-11770
isina	-11771
istoa	-11772
istys	-11773
taisi	-11774
villä	-11775
▁harr	-11776
▁jous	-11777
▁miin	-11778
▁stor	-11779
▁vise	-11780
tavoit	-11781
▁dereg	-11782
▁earth	-11783
▁hedel	-11784
▁jatku	-11785
▁pleas	-11786
▁schör	-11787
▁stake	-11788
▁swiss	-11789
▁varaa	-11790
▁varus	-11791
ulating	-11792
▁asukka	-11793
▁confed	-11794
▁destro	-11795
▁esillä	-11796
▁gorsel	-11797
▁kehity	-11798
▁nuoris	-11799
▁prejud	-11800
▁senior	-11801
▁soviet	-11802
▁vastat	-11803
▁ystävä	-11804
rakennus	-11805
▁affects	-11806
▁housing	-11807
▁kovasti	-11808
▁osaston	-11809
▁shortly	-11810
▁sihteer	-11811
▁statute	-11812
▁tieteen	-11813
▁wording	-11814
▁rakennus	-11815
▁respects	-11816
▁toisella	-11817
▁transpor	-11818
▁visegrad	-11819
▁yhteiset	-11820
▁affecting	-11821
▁basically	-11822
▁liittymis	-11823
▁enterprise	-11824
▁exemptions	-11825
▁intentions	-11826
▁nykyisessä	-11827
▁yliopiston	-11828
▁käyttämällä	-11829
▁mahdollisen	-11830
▁myönnettävä	-11831
▁suggestions	-11832
▁todellakaan	-11833
▁toimielimen	-11834
▁tulevaisuus	-11835
▁kehittämisen	-11836
▁kysymyksistä	-11837
▁poliittiseen	-11838
▁työttömyyttä	-11839
▁authorization	-11840
▁tarkastellaan	-11841
▁keskusteluissa	-11842
▁epäoikeudenmuka	-11843
hin	-11844
ren	-11845
sim	-11846
▁zu	-11847
cill	-11848
etus	-11849
itel	-11850
lock	-11851
okan	-11852
ping	-11853
real	-11854
▁kus	-11855
asiat	-11856
lying	-11857
▁foor	-11858
▁frag	-11859
▁kiih	-11860
▁lope	-11861
▁lähi	-11862
▁mart	-11863
▁peru	-11864
▁stip	-11865
emisen	-11866
ksissä	-11867
kunnat	-11868
opimus	-11869
vaihto	-11870
▁books	-11871
▁consc	-11872
▁crops	-11873
▁edull	-11874
▁guard	-11875
▁optim	-11876
▁palkk	-11877
▁preva	-11878
▁spoke	-11879
▁traps	-11880
▁truly	-11881
▁äsken	-11882
aiselle	-11883
behrend	-11884
imintaa	-11885
innissa	-11886
mathies	-11887
ymmentä	-11888
▁houkut	-11889
▁lalumi	-11890
▁puolus	-11891
▁reveal	-11892
▁ruling	-11893
▁summer	-11894
▁techni	-11895
▁vasten	-11896
▁väliin	-11897
▁yksikö	-11898
building	-11899
mination	-11900
ustuksen	-11901
▁aseanin	-11902
▁jointly	-11903
▁korkein	-11904
▁lopulla	-11905
▁monista	-11906
▁primary	-11907
▁realize	-11908
asetuksen	-11909
yhtiöiden	-11910
▁deficits	-11911
▁dublinin	-11912
▁ehkäisem	-11913
▁hankkeet	-11914
▁huonosti	-11915
▁mukanaan	-11916
▁reaction	-11917
▁taistelu	-11918
▁toisesta	-11919
▁vastakka	-11920
▁conducted	-11921
▁envisaged	-11922
▁historian	-11923
▁huomiotta	-11924
▁muutoksen	-11925
▁onnettomu	-11926
▁esittämiin	-11927
▁forwarding	-11928
▁lopullisen	-11929
▁vastaavien	-11930
järjestelmiä	-11931
▁ennaltaehkä	-11932
▁kuljetuksen	-11933
▁radioaktiiv	-11934
▁tosiasiassa	-11935
▁ensimmäiseen	-11936
▁lopullisesti	-11937
▁varmistettava	-11938
▁yhteiseuroopp	-11939
▁osallistumista	-11940
▁toteuttamiseen	-11941
▁congratulations	-11942
▁ratkaisemiseksi	-11943
mo	-11944
rt	-11945
ihu	-11946
uul	-11947
▁pö	-11948
iary	-11949
innö	-11950
isel	-11951
kijä	-11952
mänä	-11953
vest	-11954
▁elo	-11955
▁eph	-11956
▁nom	-11957
aisin	-11958
icate	-11959
intää	-11960
oured	-11961
▁fill	-11962
▁maur	-11963
▁page	-11964
▁sääs	-11965
▁wine	-11966
amatta	-11967
▁borne	-11968
▁jacks	-11969
▁korot	-11970
▁laadu	-11971
▁marok	-11972
▁oppim	-11973
▁ryhdy	-11974
▁svens	-11975
▁vakaa	-11976
ernobyl	-11977
▁fleets	-11978
▁kirjaa	-11979
▁kääntä	-11980
▁laivan	-11981
▁larger	-11982
▁liikke	-11983
▁plants	-11984
▁sphere	-11985
▁dispute	-11986
▁justify	-11987
▁kiinnos	-11988
▁menojen	-11989
▁mistake	-11990
▁prosper	-11991
▁russian	-11992
▁taholta	-11993
▁tohtori	-11994
▁tulojen	-11995
▁uudessa	-11996
▁valossa	-11997
▁välittö	-11998
▁yleisiä	-11999
▁ylittää	-12000
entyminen	-12001
▁aviation	-12002
▁byrokrat	-12003
▁intellec	-12004
▁merkintä	-12005
▁petition	-12006
▁poliitik	-12007
▁vakuutta	-12008
▁varoista	-12009
▁yleisten	-12010
▁exclusive	-12011
▁geenitekn	-12012
▁merkitsem	-12013
▁remaining	-12014
▁schörling	-12015
▁tarkistaa	-12016
▁tärkeintä	-12017
▁containing	-12018
▁merkitsisi	-12019
▁olennainen	-12020
▁pahoillani	-12021
▁systematic	-12022
▁elintarvike	-12023
▁tilaisuutta	-12024
▁turvapaikka	-12025
▁koulutukseen	-12026
▁poliittisesta	-12027
▁televiestintä	-12028
▁irregularities	-12029
cl	-12030
▁/	-12031
eds	-12032
enia	-12033
ibet	-12034
iday	-12035
jouk	-12036
pohj	-12037
▁gdp	-12038
▁spl	-12039
▁ven	-12040
altaa	-12041
emmat	-12042
horst	-12043
▁apol	-12044
▁asun	-12045
▁cuba	-12046
▁kävi	-12047
kertom	-12048
robles	-12049
toista	-12050
umatta	-12051
▁azzol	-12052
▁dikta	-12053
▁maked	-12054
▁monin	-12055
▁posti	-12056
▁sodan	-12057
▁theon	-12058
aisella	-12059
telleet	-12060
▁haaste	-12061
▁honest	-12062
▁hylkäs	-12063
▁kaikin	-12064
▁kestää	-12065
▁rosado	-12066
▁saanen	-12067
▁yhtään	-12068
avaltion	-12069
chairman	-12070
isestään	-12071
▁alleged	-12072
▁barthet	-12073
▁itseään	-12074
▁kaupall	-12075
▁oleviin	-12076
▁sympath	-12077
▁tukevat	-12078
▁waiting	-12079
▁admitted	-12080
▁ajanjaks	-12081
▁findings	-12082
▁julkinen	-12083
▁kannatta	-12084
▁kolmesta	-12085
▁lehdistö	-12086
▁reliable	-12087
▁syntynyt	-12088
▁yliopist	-12089
convention	-12090
▁demograph	-12091
▁katastrof	-12092
▁kuvitella	-12093
▁paikkansa	-12094
▁pidettiin	-12095
▁reflected	-12096
▁tehokkaan	-12097
▁edistämään	-12098
▁huolestune	-12099
▁virallisen	-12100
▁acknowledge	-12101
▁johtokunnan	-12102
▁prosenttiin	-12103
▁seuraavista	-12104
▁politiikasta	-12105
▁tarvittaessa	-12106
▁käsittelemään	-12107
▁lääketieteell	-12108
▁vahvistettava	-12109
hr	-12110
vy	-12111
bel	-12112
kit	-12113
pah	-12114
▁oj	-12115
fied	-12116
itas	-12117
kapp	-12118
kier	-12119
leyn	-12120
muot	-12121
▁dro	-12122
▁imb	-12123
▁jer	-12124
▁ots	-12125
▁pes	-12126
▁uut	-12127
astic	-12128
geted	-12129
itely	-12130
iviik	-12131
onian	-12132
tavir	-12133
▁debt	-12134
▁jänn	-12135
▁kyky	-12136
▁murh	-12137
▁teur	-12138
▁vetä	-12139
▁zone	-12140
atonta	-12141
edusta	-12142
ictory	-12143
tuneen	-12144
umista	-12145
▁aguir	-12146
▁alber	-12147
▁camis	-12148
▁conce	-12149
▁eisma	-12150
▁enjoy	-12151
▁faith	-12152
▁fixed	-12153
▁hoita	-12154
▁länsi	-12155
▁palve	-12156
▁posts	-12157
▁seksi	-12158
▁semin	-12159
▁tunne	-12160
▁yhtyä	-12161
misella	-12162
tilante	-12163
▁lakeja	-12164
▁miltei	-12165
▁muistu	-12166
▁näemme	-12167
▁scient	-12168
▁solely	-12169
▁suffer	-12170
administ	-12171
asioista	-12172
fficient	-12173
istukset	-12174
▁alkuper	-12175
▁antaman	-12176
▁awarded	-12177
▁epäsuor	-12178
▁fraudul	-12179
▁hardsta	-12180
▁invited	-12181
▁jätetty	-12182
▁koordin	-12183
▁kulutus	-12184
▁lasting	-12185
▁neutral	-12186
▁realist	-12187
▁running	-12188
▁santini	-12189
▁enhanced	-12190
▁helpotta	-12191
▁instruct	-12192
▁ottaneet	-12193
▁suuressa	-12194
▁teachers	-12195
▁tuolloin	-12196
▁tuotteet	-12197
▁työstään	-12198
▁cigarette	-12199
▁integrity	-12200
▁lentokone	-12201
▁myönnetty	-12202
▁palauttaa	-12203
▁tiedetään	-12204
▁tutkimaan	-12205
▁unanimous	-12206
▁tavoitetta	-12207
▁todellisia	-12208
▁tutkittava	-12209
▁useimmissa	-12210
▁entisestään	-12211
▁luultavasti	-12212
▁toimijoiden	-12213
▁äänestetään	-12214
▁hyväksymistä	-12215
▁tarkasteltava	-12216
▁congratulating	-12217
▁simplification	-12218
▁huippukokouksen	-12219
▁taloudellisista	-12220
chi	-12221
tys	-12222
örf	-12223
crip	-12224
enth	-12225
icro	-12226
issl	-12227
umin	-12228
▁gap	-12229
▁hum	-12230
▁kop	-12231
aseen	-12232
cohol	-12233
emman	-12234
ennut	-12235
odoul	-12236
quaak	-12237
tamme	-12238
▁diez	-12239
▁disp	-12240
▁funk	-12241
▁guil	-12242
▁hein	-12243
▁opti	-12244
▁path	-12245
▁phar	-12246
▁prag	-12247
▁user	-12248
▁util	-12249
▁vamm	-12250
▁vier	-12251
hoidon	-12252
kansan	-12253
opping	-12254
orship	-12255
vyttöm	-12256
▁diagn	-12257
▁extre	-12258
▁fabra	-12259
▁huoli	-12260
▁judge	-12261
▁moroc	-12262
▁pysäy	-12263
▁quote	-12264
▁rapor	-12265
▁seeks	-12266
▁tilaa	-12267
▁todis	-12268
▁valin	-12269
▁cambod	-12270
▁except	-12271
▁paikan	-12272
▁retail	-12273
▁toteaa	-12274
ceptions	-12275
ulations	-12276
▁aguirre	-12277
▁asiakka	-12278
▁ollessa	-12279
▁promise	-12280
▁siirtol	-12281
▁tekniik	-12282
▁theonas	-12283
▁tribute	-12284
▁turning	-12285
▁uusista	-12286
▁vehicle	-12287
▁vertail	-12288
▁ymmärrä	-12289
▁believes	-12290
▁directed	-12291
▁disposal	-12292
▁expenses	-12293
▁iltapäiv	-12294
▁kriteere	-12295
▁nykyiset	-12296
▁preserve	-12297
▁reflects	-12298
▁speeches	-12299
▁syrjäyty	-12300
▁vuodeksi	-12301
ijärjestel	-12302
▁avoimesti	-12303
▁employers	-12304
▁juurikaan	-12305
▁jätteiden	-12306
▁suurimman	-12307
▁tunnustaa	-12308
▁acceptance	-12309
▁komissioon	-12310
▁minorities	-12311
▁tasapainon	-12312
avaliokunnan	-12313
▁aloitteesta	-12314
▁christodoul	-12315
▁investointi	-12316
▁tutkimuksia	-12317
▁vaatimusten	-12318
▁valvontaval	-12319
▁direktiiviin	-12320
▁ehdotuksista	-12321
▁enemmistöllä	-12322
▁käyttöönotto	-12323
▁luottamuksen	-12324
▁ponnisteluja	-12325
▁pöytäkirjaan	-12326
▁tanskalaiset	-12327
▁vastauksesta	-12328
▁väliaikaisen	-12329
▁kiinnitettävä	-12330
▁puhemiehistön	-12331
▁toivottavasti	-12332
▁sosiaaliturvan	-12333
▁taloudelliseen	-12334
▁täytäntöönpano	-12335
▁ulkopolitiikan	-12336
▁puheenjohtajaka	-12337
sti	-12338
utp	-12339
disc	-12340
kkiä	-12341
oler	-12342
▁asb	-12343
▁hyp	-12344
▁mad	-12345
▁pim	-12346
▁vät	-12347
atisf	-12348
iosta	-12349
lähet	-12350
odest	-12351
remid	-12352
tansa	-12353
tetyt	-12354
uated	-12355
varez	-12356
which	-12357
▁hahm	-12358
▁järk	-12359
▁kone	-12360
▁koso	-12361
▁neet	-12362
▁nets	-12363
▁sold	-12364
contro	-12365
forman	-12366
örfler	-12367
▁kenya	-12368
▁kinds	-12369
▁pätee	-12370
sierens	-12371
▁arvioi	-12372
▁asteen	-12373
▁baring	-12374
▁burman	-12375
▁cornel	-12376
▁fortun	-12377
▁greens	-12378
▁helped	-12379
▁langen	-12380
▁missio	-12381
▁multil	-12382
▁myynti	-12383
▁odotan	-12384
▁reding	-12385
▁selviä	-12386
▁sexual	-12387
▁wealth	-12388
koulutus	-12389
▁afrikan	-12390
▁alkohol	-12391
▁avustus	-12392
▁declare	-12393
▁erottaa	-12394
▁existed	-12395
▁letters	-12396
▁monilla	-12397
▁officer	-12398
▁onneksi	-12399
▁pension	-12400
▁tosiaan	-12401
▁vaarall	-12402
taloudell	-12403
▁advanced	-12404
▁enintään	-12405
▁esitystä	-12406
▁extraord	-12407
▁granting	-12408
▁laajasti	-12409
▁luettelo	-12410
iikennettä	-12411
▁hardstaff	-12412
▁järjestöt	-12413
▁keskuksen	-12414
▁palveluja	-12415
▁tuloksena	-12416
▁inventions	-12417
▁kehittämis	-12418
▁negotiated	-12419
▁saadakseen	-12420
▁tärkeimmät	-12421
conventional	-12422
▁bureaucracy	-12423
▁esimerkkinä	-12424
▁hankkeisiin	-12425
▁hyväksymisen	-12426
▁maaliskuussa	-12427
▁määritellään	-12428
▁perustaminen	-12429
▁suuntaviivat	-12430
▁investointien	-12431
▁luxemburgissa	-12432
▁yhteiskunnall	-12433
▁environmentally	-12434
▁kyseenalaiseksi	-12435
▁toimintasuunnit	-12436
efe	-12437
koi	-12438
loc	-12439
rut	-12440
sut	-12441
tot	-12442
zid	-12443
äkö	-12444
arin	-12445
ikön	-12446
kall	-12447
poja	-12448
roed	-12449
teks	-12450
tere	-12451
▁cab	-12452
aleen	-12453
essal	-12454
halti	-12455
ional	-12456
kenut	-12457
llään	-12458
tuffs	-12459
▁depl	-12460
▁sain	-12461
istien	-12462
▁ainut	-12463
▁david	-12464
▁garos	-12465
▁gians	-12466
▁häviä	-12467
▁items	-12468
▁lukem	-12469
▁milla	-12470
▁promp	-12471
▁roopp	-12472
aisilta	-12473
annosta	-12474
intansa	-12475
▁albani	-12476
▁chosen	-12477
▁diplom	-12478
▁elimen	-12479
▁fairly	-12480
▁graefe	-12481
▁heidät	-12482
▁joutuu	-12483
▁kannus	-12484
▁looked	-12485
▁meiltä	-12486
▁outset	-12487
▁paikka	-12488
▁podest	-12489
▁pohtia	-12490
▁puolen	-12491
▁pystyy	-12492
▁sallia	-12493
▁tonnia	-12494
▁vision	-12495
burtonin	-12496
inations	-12497
menettel	-12498
ollisten	-12499
omaisten	-12500
standard	-12501
▁crowley	-12502
▁ehdotta	-12503
▁hyvästä	-12504
▁informa	-12505
▁katsoen	-12506
▁kokemus	-12507
▁kreissl	-12508
▁popular	-12509
▁postpon	-12510
▁privile	-12511
▁refened	-12512
▁saatiin	-12513
▁sairaus	-12514
▁ulkomin	-12515
▁voisiko	-12516
anomainen	-12517
▁blokland	-12518
▁collabor	-12519
▁ephremid	-12520
▁estimate	-12521
▁informal	-12522
▁lecturer	-12523
▁mainitsi	-12524
▁puitteet	-12525
▁päätetty	-12526
▁sanoitte	-12527
▁targeted	-12528
▁vakauden	-12529
ohjelmassa	-12530
ohjelmasta	-12531
▁corneliss	-12532
▁epäilystä	-12533
▁katsotaan	-12534
▁lisättävä	-12535
▁neuvottel	-12536
▁otteeseen	-12537
▁suhtautuu	-12538
▁tehokasta	-12539
▁vaikkakin	-12540
▁valtioita	-12541
▁varieties	-12542
▁apparently	-12543
▁arvioinnin	-12544
▁barcelonan	-12545
▁brinkhorst	-12546
▁britannian	-12547
▁ehdottanut	-12548
▁strategian	-12549
▁azerbaidzan	-12550
▁ilmoittanut	-12551
▁komissaaria	-12552
▁toivottavaa	-12553
▁tyytyväisiä	-12554
▁constituency	-12555
▁keskisuurten	-12556
▁marraskuussa	-12557
▁paikallisten	-12558
▁laajentumista	-12559
▁tulevaisuuteen	-12560
▁yhdysvalloissa	-12561
▁yhteistyösopim	-12562
▁direktiiviehdot	-12563
▁kauppajärjestön	-12564
ww	-12565
iol	-12566
lis	-12567
▁tv	-12568
avaa	-12569
ilee	-12570
iven	-12571
kauk	-12572
kiel	-12573
quis	-12574
▁...	-12575
▁alt	-12576
▁bow	-12577
▁hir	-12578
▁ica	-12579
▁kot	-12580
▁mix	-12581
craft	-12582
eista	-12583
kable	-12584
▁dijk	-12585
▁kore	-12586
▁loog	-12587
▁quar	-12588
▁suhd	-12589
entive	-12590
iments	-12591
tavuor	-12592
umping	-12593
▁begun	-12594
▁leads	-12595
▁mayor	-12596
▁osaan	-12597
▁remed	-12598
aiseksi	-12599
aloitte	-12600
teltava	-12601
yksistä	-12602
▁encoun	-12603
▁europa	-12604
▁jaettu	-12605
▁kambod	-12606
▁kosovo	-12607
▁kriisi	-12608
▁kykene	-12609
▁metsän	-12610
▁mobile	-12611
▁newspa	-12612
▁paying	-12613
▁pettin	-12614
▁thinks	-12615
▁transf	-12616
▁ukrain	-12617
▁unions	-12618
▁varoit	-12619
▁weaken	-12620
▁yleisö	-12621
okkaasti	-12622
ttäisiin	-12623
▁arvosta	-12624
▁lancker	-12625
▁student	-12626
▁taataan	-12627
▁tiettyä	-12628
▁tupakka	-12629
▁yhteens	-12630
oikeudell	-12631
▁aliarvio	-12632
▁kannasta	-12633
▁leonardo	-12634
▁mukaisia	-12635
▁sisäisen	-12636
▁stronger	-12637
valtioiden	-12638
▁ollenkaan	-12639
▁osoitettu	-12640
▁religious	-12641
▁vieläkään	-12642
▁viitataan	-12643
▁baringdorf	-12644
▁esitettiin	-12645
▁löydettävä	-12646
▁vapaakaupp	-12647
▁contributed	-12648
▁keskusteltu	-12649
▁liittymistä	-12650
▁luottamusta	-12651
▁tehokkuuden	-12652
▁menettelyjen	-12653
▁politiikkaan	-12654
▁tulliviranom	-12655
▁tärkeimmistä	-12656
▁vaihtoehtoja	-12657
▁kehitysmaiden	-12658
▁suuntaviivoja	-12659
▁tavoitteeseen	-12660
▁huumausaineiden	-12661
nt	-12662
eur	-12663
new	-12664
rik	-12665
ule	-12666
uti	-12667
iger	-12668
jiin	-12669
jään	-12670
utel	-12671
utui	-12672
▁unc	-12673
emieh	-12674
itain	-12675
kevat	-12676
ksenä	-12677
oilta	-12678
oring	-12679
sinki	-12680
tyypp	-12681
▁avat	-12682
▁bund	-12683
▁cass	-12684
▁hiil	-12685
▁ihme	-12686
▁invo	-12687
▁lous	-12688
▁oles	-12689
▁palk	-12690
▁rare	-12691
▁save	-12692
▁seta	-12693
▁stay	-12694
▁yutp	-12695
annual	-12696
elmien	-12697
piteen	-12698
tamien	-12699
vuoden	-12700
▁catal	-12701
▁datab	-12702
▁eräät	-12703
▁maksa	-12704
▁minut	-12705
▁nosta	-12706
▁raska	-12707
▁smith	-12708
dörfler	-12709
issamme	-12710
▁edelly	-12711
▁ehdoll	-12712
▁ennako	-12713
▁esteet	-12714
▁hatzid	-12715
▁kohdat	-12716
▁miguel	-12717
▁search	-12718
▁sulkea	-12719
▁tiukem	-12720
▁tutkii	-12721
▁ulkora	-12722
▁verkot	-12723
määrärah	-12724
▁alvarez	-12725
▁clarity	-12726
▁hakemus	-12727
▁ideolog	-12728
▁intoler	-12729
▁jerusal	-12730
▁liittyä	-12731
▁liittää	-12732
▁normaal	-12733
▁ottavat	-12734
▁schroed	-12735
▁subsidy	-12736
▁televis	-12737
itykselle	-12738
▁confiden	-12739
▁drafting	-12740
▁esitetyt	-12741
▁esittämä	-12742
▁features	-12743
▁freedoms	-12744
▁nuorille	-12745
▁nykyaika	-12746
▁occurred	-12747
▁palvelut	-12748
▁powerful	-12749
▁setaside	-12750
▁toivotan	-12751
▁valitsem	-12752
▁welcomes	-12753
▁assisting	-12754
▁intervene	-12755
▁succeeded	-12756
▁säädösten	-12757
▁transkauk	-12758
▁työryhmän	-12759
▁täydentää	-12760
▁veronmaks	-12761
▁vihreiden	-12762
▁approaches	-12763
▁asetettava	-12764
▁euroopalle	-12765
▁käyttäjien	-12766
▁olosuhteet	-12767
▁passitusta	-12768
▁pääjohtaja	-12769
▁tapahtuvan	-12770
▁citizenship	-12771
▁constitutes	-12772
▁englanniksi	-12773
▁jäsenmaissa	-12774
▁osoittaneet	-12775
▁radioactive	-12776
▁supervision	-12777
▁terveydenhu	-12778
▁unnecessary	-12779
▁luonteeltaan	-12780
▁satisfaction	-12781
▁sopimuksella	-12782
▁virkamiesten	-12783
▁misunderstand	-12784
▁tavoitteisiin	-12785
▁tunnustettava	-12786
mahdollisuuksia	-12787
▁demokraattista	-12788
▁lainsäädäntöön	-12789
▁jäsenvaltioista	-12790
▁konkreettisesti	-12791
bro	-12792
how	-12793
kal	-12794
lim	-12795
▁bö	-12796
oing	-12797
venä	-12798
yrit	-12799
zech	-12800
änen	-12801
▁anx	-12802
▁cur	-12803
▁dus	-12804
▁jyr	-12805
▁kah	-12806
iliar	-12807
mming	-12808
osion	-12809
tumis	-12810
▁alla	-12811
▁bond	-12812
▁chin	-12813
▁epär	-12814
▁goal	-12815
▁judg	-12816
▁nine	-12817
▁stru	-12818
▁tait	-12819
▁vege	-12820
lation	-12821
utamme	-12822
yksiin	-12823
ystävä	-12824
▁ahern	-12825
▁mekan	-12826
▁mennä	-12827
▁pääty	-12828
▁varmu	-12829
▁vuoro	-12830
alueita	-12831
itation	-12832
ollisen	-12833
utuksen	-12834
▁chilen	-12835
▁crimes	-12836
▁dramat	-12837
▁extrad	-12838
▁hankin	-12839
▁jatkuu	-12840
▁laista	-12841
▁murder	-12842
▁pyrkin	-12843
▁pysyvä	-12844
▁rivera	-12845
▁seeing	-12846
▁taxpay	-12847
▁täsmen	-12848
▁britain	-12849
▁creates	-12850
▁ehdokka	-12851
▁ehtojen	-12852
▁harkita	-12853
▁jackson	-12854
▁lulling	-12855
▁oloissa	-12856
▁osoitus	-12857
▁protest	-12858
▁substit	-12859
▁suostum	-12860
▁varmaan	-12861
▁viikkoa	-12862
▁vähittä	-12863
imerkiksi	-12864
upolitiik	-12865
yritykset	-12866
▁dramaatt	-12867
▁frontier	-12868
▁johtuvat	-12869
▁luomista	-12870
▁luonteen	-12871
▁patients	-12872
▁poikkeus	-12873
▁pystyvät	-12874
▁pääjohta	-12875
▁svensson	-12876
▁transpos	-12877
▁weakness	-12878
▁yksipuol	-12879
▁delighted	-12880
▁expensive	-12881
▁fernandes	-12882
▁intensive	-12883
▁laittoman	-12884
▁lausuntoa	-12885
▁neuvostol	-12886
▁satisfied	-12887
▁seuraavia	-12888
▁tapahtune	-12889
▁teknisten	-12890
periaatetta	-12891
▁collection	-12892
▁conversion	-12893
▁enemmistön	-12894
▁määritelty	-12895
▁määrärahat	-12896
▁repeatedly	-12897
▁voimaantul	-12898
▁yhteisessä	-12899
▁laajentumis	-12900
▁muistettava	-12901
▁parantamaan	-12902
▁prosecution	-12903
▁toimivallan	-12904
viranomaisten	-12905
▁esittelijänä	-12906
▁kysymyksestä	-12907
▁representing	-12908
▁kuolemanranga	-12909
▁rekisteröinti	-12910
▁substantially	-12911
▁tiedonannosta	-12912
▁työntekijöitä	-12913
▁äänestyksessä	-12914
▁suojelemiseksi	-12915
ael	-12916
cia	-12917
ecu	-12918
ivä	-12919
jär	-12920
rot	-12921
ryn	-12922
syn	-12923
uke	-12924
älä	-12925
▁fi	-12926
enne	-12927
teko	-12928
▁ben	-12929
▁cra	-12930
ivoim	-12931
ontaa	-12932
teltu	-12933
▁avaa	-12934
▁depr	-12935
▁insu	-12936
▁sake	-12937
▁sota	-12938
andida	-12939
itably	-12940
rosess	-12941
utusta	-12942
▁acted	-12943
▁expan	-12944
▁hetki	-12945
▁johti	-12946
▁kabil	-12947
▁kerää	-12948
▁käyty	-12949
▁lisät	-12950
▁panna	-12951
▁petos	-12952
▁socio	-12953
astossa	-12954
essalon	-12955
istisen	-12956
▁envhon	-12957
▁frustr	-12958
▁inside	-12959
▁kolman	-12960
▁neljäs	-12961
▁nostaa	-12962
▁oppose	-12963
▁osasto	-12964
▁ovatko	-12965
▁pahoit	-12966
▁provan	-12967
▁päästy	-12968
▁toivom	-12969
alueilla	-12970
hallinto	-12971
▁alcohol	-12972
▁broader	-12973
▁dangers	-12974
▁helmiku	-12975
▁hormone	-12976
▁korjata	-12977
▁laisten	-12978
▁levittä	-12979
▁melkein	-12980
▁summary	-12981
▁syrjäis	-12982
▁tulkinn	-12983
▁tulosta	-12984
▁valitus	-12985
oikeuksia	-12986
▁avoimuus	-12987
▁councill	-12988
▁emerging	-12989
▁hanketta	-12990
▁ilmoitti	-12991
▁jäsenyys	-12992
▁molemmin	-12993
▁offering	-12994
▁olevansa	-12995
▁regulate	-12996
▁sanoneet	-12997
▁sokrates	-12998
▁suitable	-12999
▁torjunta	-13000
▁tärkeätä	-13001
▁vaarassa	-13002
osapuolten	-13003
▁aikataulu	-13004
▁expansion	-13005
▁ilmaissut	-13006
▁indonesia	-13007
▁kaikkiaan	-13008
▁kutsutaan	-13009
▁moorhouse	-13010
▁odotetaan	-13011
▁pidetyssä	-13012
▁regulated	-13013
▁telephone	-13014
▁vastavuor	-13015
urvallisuus	-13016
▁categories	-13017
▁controvers	-13018
▁coordinate	-13019
▁differenti	-13020
▁ecological	-13021
▁innovaatio	-13022
▁inspection	-13023
▁kysymysten	-13024
▁luomiseksi	-13025
▁myönteisen	-13026
▁ristiriita	-13027
▁valvontaan	-13028
järjestelmät	-13029
▁accompanied	-13030
▁circulation	-13031
▁käsiteltiin	-13032
▁puuttuminen	-13033
▁päätökseksi	-13034
▁economically	-13035
▁intellectual	-13036
▁seurauksista	-13037
▁valtiovarain	-13038
▁poliittisista	-13039
▁lähestymistavan	-13040
▁toteuttamisesta	-13041
▁täytäntöönpanoa	-13042
rk	-13043
aag	-13044
sek	-13045
atin	-13046
berg	-13047
ikom	-13048
kulk	-13049
look	-13050
rupt	-13051
▁alv	-13052
▁amp	-13053
▁suj	-13054
▁uhr	-13055
▁äly	-13056
astuu	-13057
eksän	-13058
iossa	-13059
pojen	-13060
tehtä	-13061
▁andr	-13062
▁anna	-13063
▁atom	-13064
▁elää	-13065
▁keen	-13066
▁kokk	-13067
▁kurd	-13068
▁muis	-13069
▁roma	-13070
▁sais	-13071
▁tahd	-13072
asteen	-13073
carnet	-13074
ikelpo	-13075
itettä	-13076
maihin	-13077
▁banks	-13078
▁hyökk	-13079
▁kapas	-13080
▁lakia	-13081
▁moved	-13082
▁param	-13083
▁pääom	-13084
▁sinne	-13085
▁suver	-13086
▁täysi	-13087
ointiin	-13088
▁anasta	-13089
▁ballot	-13090
▁epäsel	-13091
▁freely	-13092
▁kiittä	-13093
▁kuultu	-13094
▁marset	-13095
▁nuoria	-13096
▁permit	-13097
▁pompid	-13098
▁sports	-13099
ettaessa	-13100
formance	-13101
ilaisten	-13102
periaate	-13103
▁alusten	-13104
▁annamme	-13105
▁baldare	-13106
▁chinese	-13107
▁kaukana	-13108
▁muotoil	-13109
▁osoitti	-13110
▁refused	-13111
▁tapahdu	-13112
ympäristö	-13113
▁analyysi	-13114
▁cultures	-13115
▁disabled	-13116
▁heinisch	-13117
▁julkiset	-13118
▁laajalti	-13119
▁lindholm	-13120
▁meantime	-13121
▁muutamat	-13122
▁puolella	-13123
▁päässeet	-13124
▁recorded	-13125
▁software	-13126
▁toimivan	-13127
▁tuotteen	-13128
▁vaikutel	-13129
ministerin	-13130
▁confusion	-13131
▁deadlines	-13132
▁initiated	-13133
▁kohdistuu	-13134
▁osapuolet	-13135
▁paikallis	-13136
▁perusteet	-13137
▁rangaista	-13138
▁tradition	-13139
▁vaikeudet	-13140
esimerkiksi	-13141
▁assosioint	-13142
▁byrokraatt	-13143
▁erilaisten	-13144
▁facilities	-13145
▁liittotasa	-13146
▁paragraphs	-13147
▁schroedter	-13148
▁scientists	-13149
▁settlement	-13150
▁simplified	-13151
▁tyydyttävä	-13152
▁vuoropuhel	-13153
▁asetuksessa	-13154
▁erinomaisen	-13155
▁exceptional	-13156
▁incorporate	-13157
▁trafficking	-13158
▁vaikutuksen	-13159
▁deregulation	-13160
▁infringement	-13161
▁productivity	-13162
▁ratkaisemaan	-13163
▁suunnitelman	-13164
▁viranomaisia	-13165
▁approximately	-13166
▁puheenjohtajaa	-13167
▁viranomaisille	-13168
▁lähestymistapaa	-13169
▁nonconventional	-13170
ea	-13171
np	-13172
bio	-13173
cos	-13174
fin	-13175
uen	-13176
urt	-13177
ätä	-13178
jina	-13179
tani	-13180
uluk	-13181
▁amn	-13182
▁art	-13183
▁egy	-13184
▁lip	-13185
▁rio	-13186
aging	-13187
cques	-13188
enous	-13189
essed	-13190
hardt	-13191
tivät	-13192
▁apul	-13193
▁meda	-13194
▁nime	-13195
▁solm	-13196
▁tors	-13197
▁york	-13198
allagh	-13199
kaupun	-13200
utunut	-13201
utuvat	-13202
weggen	-13203
▁eight	-13204
▁fresh	-13205
▁guide	-13206
▁kalak	-13207
▁kalli	-13208
▁meets	-13209
▁puhuu	-13210
▁pysyy	-13211
▁pääll	-13212
▁sopus	-13213
▁tintö	-13214
▁tyyty	-13215
▁usual	-13216
ellario	-13217
opoulos	-13218
ostland	-13219
ursseja	-13220
▁alalle	-13221
▁alojen	-13222
▁asenne	-13223
▁banned	-13224
▁choose	-13225
▁divers	-13226
▁grants	-13227
▁katsoa	-13228
▁laajan	-13229
▁lastly	-13230
▁owners	-13231
▁suojat	-13232
▁sääntö	-13233
▁tanska	-13234
▁tiedus	-13235
▁viesti	-13236
▁warmly	-13237
behrendt	-13238
▁besides	-13239
▁hänellä	-13240
▁inciden	-13241
▁kandida	-13242
▁korosta	-13243
▁kreikka	-13244
▁laajenn	-13245
▁recital	-13246
▁seurann	-13247
▁tullien	-13248
▁ylläpit	-13249
committee	-13250
omaisesti	-13251
▁giansily	-13252
▁itävalta	-13253
▁käytäntö	-13254
▁marginal	-13255
▁mistakes	-13256
▁offences	-13257
▁onnistuu	-13258
▁presents	-13259
▁ryhtynyt	-13260
▁sections	-13261
▁teknistä	-13262
▁valinnan	-13263
▁desirable	-13264
▁esimerkin	-13265
▁incentive	-13266
▁kiinnittä	-13267
▁passenger	-13268
▁receiving	-13269
▁suurlähet	-13270
▁säädöksiä	-13271
▁tapauksia	-13272
▁arviointia	-13273
▁councillor	-13274
▁demokratis	-13275
▁ephremidis	-13276
▁kauttakulk	-13277
▁käsitellyt	-13278
▁lopullista	-13279
▁luonnonvar	-13280
▁ohjelmasta	-13281
▁originally	-13282
▁poistetaan	-13283
▁regardless	-13284
▁sakellario	-13285
▁sisältyvät	-13286
▁internation	-13287
▁yhteisvastu	-13288
politiikkojen	-13289
▁puheenvuoroa	-13290
▁tarkastuksia	-13291
▁varmistetaan	-13292
▁yhdentymisen	-13293
▁osallistumaan	-13294
▁participating	-13295
▁sisämarkkinat	-13296
▁vahvistaminen	-13297
ask	-13298
ksy	-13299
lon	-13300
tod	-13301
▁ct	-13302
cauc	-13303
ioon	-13304
islu	-13305
muod	-13306
pros	-13307
tics	-13308
▁ain	-13309
▁auk	-13310
▁fou	-13311
▁gol	-13312
▁vit	-13313
▁vul	-13314
acted	-13315
aints	-13316
place	-13317
teitä	-13318
telmä	-13319
ticip	-13320
▁cacc	-13321
▁mere	-13322
▁rela	-13323
▁viin	-13324
▁wind	-13325
▁yhty	-13326
erving	-13327
ikkaan	-13328
inette	-13329
▁andre	-13330
▁bases	-13331
▁count	-13332
▁fines	-13333
▁hesit	-13334
▁ideal	-13335
▁laatu	-13336
▁nassa	-13337
▁sattu	-13338
▁tuonn	-13339
▁ultra	-13340
▁worry	-13341
astosta	-13342
▁brutto	-13343
▁forgot	-13344
▁loista	-13345
▁perjan	-13346
▁puoliv	-13347
▁remove	-13348
▁roolin	-13349
▁sektor	-13350
▁torjun	-13351
▁työelä	-13352
▁työnsä	-13353
▁vapaus	-13354
▁driving	-13355
▁extreme	-13356
▁halusin	-13357
▁irlanti	-13358
▁mccarth	-13359
▁olevaan	-13360
▁aircraft	-13361
▁airlines	-13362
▁anastass	-13363
▁halunnut	-13364
▁interreg	-13365
▁kehottaa	-13366
▁kilometr	-13367
▁promised	-13368
▁ylläpitä	-13369
▁aiheeseen	-13370
▁campaigns	-13371
▁kannustaa	-13372
▁surprised	-13373
▁säädetään	-13374
▁tehokkuus	-13375
▁terveyttä	-13376
▁toimivien	-13377
▁vihreässä	-13378
▁yhteyksiä	-13379
▁biological	-13380
▁expressing	-13381
▁huolissaan	-13382
▁keskuspank	-13383
▁kulttuuria	-13384
▁maksettava	-13385
▁preventive	-13386
▁sallinette	-13387
▁translated	-13388
▁valmistele	-13389
▁vastavuoro	-13390
▁yhteisesti	-13391
▁demographic	-13392
▁palveluiden	-13393
▁periaatteet	-13394
▁rakenteiden	-13395
▁suositukset	-13396
▁yrityksissä	-13397
▁demonstrates	-13398
▁pääministeri	-13399
▁salakuljetus	-13400
▁torjumiseksi	-13401
▁uudistamista	-13402
administration	-13403
▁consolidation	-13404
▁documentation	-13405
▁järjestelmään	-13406
▁kilpailukyvyn	-13407
▁significantly	-13408
▁kehittämiseksi	-13409
▁keskustelemaan	-13410
▁yksinkertainen	-13411
fy	-13412
agg	-13413
ars	-13414
asa	-13415
ony	-13416
aise	-13417
kona	-13418
muut	-13419
rich	-13420
tane	-13421
zard	-13422
▁sri	-13423
finan	-13424
innit	-13425
kalta	-13426
onnut	-13427
uteta	-13428
viksi	-13429
▁jälk	-13430
▁rojo	-13431
▁sana	-13432
▁sett	-13433
llista	-13434
▁alarm	-13435
▁arbit	-13436
▁avoin	-13437
▁kloon	-13438
▁lause	-13439
▁naval	-13440
▁pubuc	-13441
▁summa	-13442
▁takuu	-13443
▁töitä	-13444
▁unkar	-13445
elliset	-13446
itative	-13447
jektiiv	-13448
urssien	-13449
▁abroad	-13450
▁absurd	-13451
▁ajatel	-13452
▁double	-13453
▁maanti	-13454
▁määräa	-13455
▁privat	-13456
▁sincer	-13457
▁sloven	-13458
▁tamino	-13459
▁trends	-13460
▁vedota	-13461
▁verkon	-13462
ervatory	-13463
▁amnesty	-13464
▁emerged	-13465
▁erimiel	-13466
▁etteikö	-13467
▁gallagh	-13468
▁ignored	-13469
▁keinoin	-13470
▁ongoing	-13471
▁removed	-13472
▁riskejä	-13473
▁serbian	-13474
▁siviili	-13475
▁tarjous	-13476
▁tarkoin	-13477
▁uudesta	-13478
ityksistä	-13479
▁airports	-13480
▁ajatusta	-13481
▁azzolini	-13482
▁bulgaria	-13483
▁enabling	-13484
▁flemming	-13485
▁hakijama	-13486
▁kehitysa	-13487
▁missions	-13488
▁mongolia	-13489
▁oostland	-13490
▁pakottaa	-13491
▁pleasure	-13492
▁recovery	-13493
▁santerin	-13494
▁straight	-13495
▁suurella	-13496
päätöslaus	-13497
▁brysselin	-13498
▁forwarded	-13499
▁hyväkseen	-13500
▁initially	-13501
▁rejection	-13502
▁societies	-13503
▁televisio	-13504
▁administer	-13505
▁allocation	-13506
▁definitive	-13507
▁immigrants	-13508
▁recognised	-13509
▁withdrawal	-13510
▁yhteisölle	-13511
▁kansalainen	-13512
▁kunnioittaa	-13513
▁mahdolliset	-13514
▁mietintönsä	-13515
▁toimielimiä	-13516
▁alternatives	-13517
▁jarzembowski	-13518
▁sisällytetty	-13519
▁toimivaltaan	-13520
▁varmistamaan	-13521
▁extraordinary	-13522
▁muukalaisvihan	-13523
▁strasbourgissa	-13524
▁talousarviosta	-13525
kl	-13526
sy	-13527
jot	-13528
str	-13529
card	-13530
rain	-13531
repr	-13532
tuzz	-13533
yölä	-13534
▁bac	-13535
▁mak	-13536
emaan	-13537
imäär	-13538
inely	-13539
pahtu	-13540
tason	-13541
▁maij	-13542
▁moot	-13543
▁peij	-13544
▁repr	-13545
▁sale	-13546
ishall	-13547
tellut	-13548
ykseen	-13549
▁alkan	-13550
▁hoped	-13551
▁jäädä	-13552
▁maced	-13553
▁micro	-13554
▁nähtä	-13555
▁reass	-13556
▁twice	-13557
▁täten	-13558
idelich	-13559
umption	-13560
▁assent	-13561
▁omalla	-13562
▁roolia	-13563
▁routes	-13564
▁samoja	-13565
▁stabil	-13566
▁työttö	-13567
▁vaadit	-13568
▁vilpit	-13569
emiseksi	-13570
istaneet	-13571
▁adviser	-13572
▁ajoissa	-13573
▁broadly	-13574
▁divided	-13575
▁fantuzz	-13576
▁guarant	-13577
▁kädessä	-13578
▁käsitys	-13579
▁käynnis	-13580
▁näkökan	-13581
▁optimis	-13582
▁playing	-13583
▁rahasto	-13584
▁resumed	-13585
▁samassa	-13586
▁samland	-13587
▁showing	-13588
▁tonight	-13589
▁tuodaan	-13590
▁useissa	-13591
▁vakavan	-13592
uttamista	-13593
▁barriers	-13594
▁distingu	-13595
▁esittele	-13596
▁kysynnän	-13597
▁longterm	-13598
▁petokset	-13599
▁pitämään	-13600
▁prospect	-13601
▁seksuaal	-13602
▁taloutta	-13603
▁tehottom	-13604
▁thanking	-13605
▁todennut	-13606
▁tunnista	-13607
▁antamalla	-13608
▁edellisen	-13609
▁julkaisem	-13610
▁keskiviik	-13611
▁laborator	-13612
▁medicines	-13613
▁miljardin	-13614
▁ohjelmaan	-13615
▁ohjelmiin	-13616
▁ottamalla	-13617
▁prosessin	-13618
▁providers	-13619
▁seurausta	-13620
▁syrjintää	-13621
▁tarjoavat	-13622
▁waidelich	-13623
▁aikaiseksi	-13624
▁arkaluonto	-13625
▁fraudulent	-13626
▁hyväksymme	-13627
▁indication	-13628
▁innovative	-13629
▁istunnossa	-13630
▁joustavuus	-13631
▁lähentymis	-13632
▁merenkulku	-13633
▁olennaisen	-13634
▁passengers	-13635
▁restricted	-13636
▁suggestion	-13637
▁väkivaltaa	-13638
▁experienced	-13639
▁highlighted	-13640
▁liittyvissä	-13641
▁lisääntynyt	-13642
▁poistaminen	-13643
▁ratkaistava	-13644
▁recommended	-13645
▁selvityksen	-13646
▁taistelussa	-13647
▁työntekijät	-13648
▁täydellinen	-13649
▁uudistusten	-13650
▁uusiutuvien	-13651
▁bureaucratic	-13652
▁direktiivien	-13653
▁perustettiin	-13654
▁shipbuilding	-13655
▁sosiaaliseen	-13656
▁väliaikainen	-13657
▁puheenvuoroni	-13658
▁rikollisuutta	-13659
▁tarkistukseen	-13660
▁vaikutuksista	-13661
▁välttämiseksi	-13662
▁sydämellisesti	-13663
▁anastassopoulos	-13664
▁sovittelukomite	-13665
ado	-13666
eld	-13667
eli	-13668
joa	-13669
mid	-13670
mos	-13671
brid	-13672
enee	-13673
mpan	-13674
orde	-13675
raud	-13676
urdy	-13677
▁fit	-13678
▁hos	-13679
▁hun	-13680
▁nar	-13681
icing	-13682
nyttä	-13683
orous	-13684
pread	-13685
uille	-13686
▁aion	-13687
▁detr	-13688
▁earn	-13689
▁entr	-13690
▁hans	-13691
▁liha	-13692
▁meps	-13693
▁sums	-13694
▁öljy	-13695
elance	-13696
isilta	-13697
▁alaan	-13698
▁alter	-13699
▁autom	-13700
▁compr	-13701
▁czech	-13702
▁epärö	-13703
▁fails	-13704
▁jatko	-13705
▁luvan	-13706
▁manif	-13707
▁mosta	-13708
▁night	-13709
▁suhde	-13710
▁tuote	-13711
▁tween	-13712
▁unity	-13713
▁worst	-13714
oksille	-13715
virasto	-13716
välimer	-13717
ymmenen	-13718
▁beleng	-13719
▁campos	-13720
▁commis	-13721
▁dictat	-13722
▁epävir	-13723
▁hänsch	-13724
▁interv	-13725
▁jollei	-13726
▁korjaa	-13727
▁lailla	-13728
▁master	-13729
▁pitäen	-13730
▁solved	-13731
▁street	-13732
▁sturdy	-13733
▁teistä	-13734
▁vankil	-13735
▁vulner	-13736
oikeudet	-13737
utettiin	-13738
▁african	-13739
▁bernard	-13740
▁biggest	-13741
▁devoted	-13742
▁imagine	-13743
▁jacques	-13744
▁joitain	-13745
▁miranda	-13746
▁myöskin	-13747
▁storage	-13748
▁tavanom	-13749
▁tragedy	-13750
hallinnon	-13751
▁advances	-13752
▁asetettu	-13753
▁asetusta	-13754
▁cambodia	-13755
▁haluatte	-13756
▁imported	-13757
▁kannusti	-13758
▁kohdasta	-13759
▁mainitut	-13760
▁paremman	-13761
▁reactors	-13762
▁relative	-13763
▁sihteeri	-13764
▁sisällön	-13765
▁vakuuden	-13766
▁älkäämme	-13767
neuvottelu	-13768
vapauksien	-13769
▁chernobyl	-13770
▁emergency	-13771
▁jäsenelle	-13772
▁replacing	-13773
▁tekijöitä	-13774
▁vaarantaa	-13775
▁verkkojen	-13776
poliittinen	-13777
▁envhonment	-13778
▁exceptions	-13779
▁määrittely	-13780
▁reflection	-13781
▁saamiseksi	-13782
▁uskoakseni	-13783
▁valtuuksia	-13784
▁aloitteiden	-13785
▁contracting	-13786
▁extradition	-13787
▁foundations	-13788
▁hyödyllistä	-13789
▁merkittävän	-13790
▁valiokuntaa	-13791
▁äänestämään	-13792
▁acknowledged	-13793
▁joustavuutta	-13794
▁kulttuuriper	-13795
▁muukalaisvih	-13796
▁tavoitteista	-13797
▁työskennellä	-13798
▁äänestykseen	-13799
▁clarification	-13800
▁direktiiviksi	-13801
▁ihmisoikeudet	-13802
▁investointeja	-13803
▁humanitaarisen	-13804
▁neuvotteluihin	-13805
ejä	-13806
mes	-13807
met	-13808
zeg	-13809
ders	-13810
endy	-13811
ifor	-13812
ksid	-13813
okku	-13814
tian	-13815
tick	-13816
ttöä	-13817
yöhy	-13818
▁aus	-13819
▁cha	-13820
▁eco	-13821
▁unw	-13822
▁vii	-13823
aloit	-13824
eland	-13825
hyöty	-13826
isian	-13827
kilpa	-13828
lomak	-13829
opard	-13830
äärää	-13831
▁card	-13832
▁fran	-13833
▁nimi	-13834
▁riko	-13835
▁seat	-13836
▁tava	-13837
empänä	-13838
isikin	-13839
kampan	-13840
suunta	-13841
▁fassa	-13842
▁fouow	-13843
▁horiz	-13844
▁ilmiö	-13845
▁infla	-13846
▁kurss	-13847
▁liese	-13848
▁menot	-13849
▁minen	-13850
▁panos	-13851
▁prere	-13852
▁puhui	-13853
▁saast	-13854
▁salli	-13855
▁space	-13856
▁spite	-13857
▁tenor	-13858
▁unohd	-13859
▁wides	-13860
▁yhtei	-13861
ellisia	-13862
itsemme	-13863
tavalla	-13864
▁aasian	-13865
▁britti	-13866
▁concep	-13867
▁englan	-13868
▁ethics	-13869
▁friday	-13870
▁lambra	-13871
▁laskem	-13872
▁poissa	-13873
▁schmid	-13874
▁showed	-13875
▁theato	-13876
ednesday	-13877
mättömiä	-13878
▁aineita	-13879
▁ammatin	-13880
▁arrived	-13881
▁berisha	-13882
▁deserve	-13883
▁dumping	-13884
▁hylkäsi	-13885
▁julkais	-13886
▁kantelu	-13887
▁kirjall	-13888
▁kollego	-13889
▁syventä	-13890
▁valtava	-13891
▁varattu	-13892
tamisessa	-13893
uvostossa	-13894
▁familiar	-13895
▁governed	-13896
▁lisätään	-13897
▁madridin	-13898
▁menestys	-13899
▁ohjelmat	-13900
▁resulted	-13901
▁seikkoja	-13902
▁sisäistä	-13903
▁suurelta	-13904
▁tähänast	-13905
▁vieläkin	-13906
teollisuus	-13907
yhteistyön	-13908
▁edessämme	-13909
▁freelance	-13910
▁luomiseen	-13911
▁maksetaan	-13912
▁päinvasta	-13913
▁runsaasti	-13914
▁suurempaa	-13915
▁tekstissä	-13916
▁toivottaa	-13917
▁beneficial	-13918
▁encouraged	-13919
▁eventually	-13920
▁leadership	-13921
▁muutettava	-13922
▁sisällöstä	-13923
▁widespread	-13924
▁keksintöjen	-13925
▁observatory	-13926
▁parannuksia	-13927
▁sopimuksiin	-13928
▁tutkimusten	-13929
▁vapaaehtois	-13930
▁alueellisten	-13931
▁asiakirjassa	-13932
▁concentrated	-13933
▁sovellettava	-13934
▁hallitukselle	-13935
▁talousarviota	-13936
▁investigations	-13937
▁mahdollistavat	-13938
▁tarkistuksesta	-13939
▁turvallisuuteen	-13940
non	-13941
uum	-13942
anni	-13943
ikir	-13944
rors	-13945
tona	-13946
undi	-13947
ytyä	-13948
▁ion	-13949
▁iso	-13950
▁nut	-13951
▁win	-13952
adier	-13953
ainen	-13954
aista	-13955
erate	-13956
jemme	-13957
kohte	-13958
oboda	-13959
paiko	-13960
woman	-13961
▁book	-13962
▁bran	-13963
▁hiuk	-13964
▁hung	-13965
▁mään	-13966
▁sier	-13967
▁sinä	-13968
▁taip	-13969
▁tuet	-13970
▁zair	-13971
ismien	-13972
keneet	-13973
oliitt	-13974
tutkim	-13975
▁aloja	-13976
▁baldi	-13977
▁gross	-13978
▁indig	-13979
▁loans	-13980
▁sanam	-13981
▁shape	-13982
▁units	-13983
essämme	-13984
istynyt	-13985
▁arises	-13986
▁attach	-13987
▁attrib	-13988
▁cities	-13989
▁disreg	-13990
▁esitin	-13991
▁laying	-13992
▁listed	-13993
▁mentin	-13994
▁observ	-13995
▁potila	-13996
▁serbia	-13997
▁sopiva	-13998
▁surull	-13999
▁tekisi	-14000
▁tender	-14001
▁turkki	-14002
▁valvom	-14003
▁visits	-14004
arvoisen	-14005
▁aiheita	-14006
▁decline	-14007
▁ehdotan	-14008
▁erikois	-14009
▁israeli	-14010
▁miseksi	-14011
▁osoitta	-14012
▁procure	-14013
▁seikkaa	-14014
▁sinänsä	-14015
▁swoboda	-14016
▁tyypill	-14017
▁verojen	-14018
formation	-14019
istumisen	-14020
uttamisen	-14021
▁analyses	-14022
▁entering	-14023
▁herättää	-14024
▁jäsenenä	-14025
▁kyseistä	-14026
▁persuade	-14027
▁pursuing	-14028
▁sektorin	-14029
aisuudesta	-14030
▁ajattelen	-14031
▁aloitetta	-14032
▁assessing	-14033
▁conservat	-14034
▁everybody	-14035
▁increases	-14036
▁jatketaan	-14037
▁joutuneet	-14038
▁maksamaan	-14039
▁prerequis	-14040
▁rohkeutta	-14041
▁secondary	-14042
▁shipments	-14043
▁sincerely	-14044
▁todettiin	-14045
▁transcauc	-14046
▁transfers	-14047
▁vahingoit	-14048
▁wednesday	-14049
▁accounting	-14050
▁authorized	-14051
▁internetin	-14052
▁jokaisella	-14053
▁korkeakoul	-14054
▁menettelyt	-14055
▁prosperity	-14056
▁techniques	-14057
▁tuottajien	-14058
▁ulottuvuus	-14059
▁kehittämään	-14060
▁neuvostolta	-14061
▁tehokkuutta	-14062
▁tekemisissä	-14063
▁uncertainty	-14064
▁intelligence	-14065
▁järjestelmiä	-14066
▁käyttöönoton	-14067
▁sopimuksista	-14068
▁tehokkaammin	-14069
tuomioistuimen	-14070
▁asianmukaista	-14071
▁huolehdittava	-14072
▁keskustelujen	-14073
▁televiestinnän	-14074
uä	-14075
che	-14076
dez	-14077
hal	-14078
ogg	-14079
pag	-14080
tse	-14081
alez	-14082
isat	-14083
kahd	-14084
main	-14085
▁cow	-14086
▁inj	-14087
▁ped	-14088
▁tse	-14089
▁ylä	-14090
ikoko	-14091
journ	-14092
known	-14093
llaan	-14094
neitä	-14095
ovina	-14096
pical	-14097
tukea	-14098
ucted	-14099
usted	-14100
uvapa	-14101
while	-14102
▁eyes	-14103
▁fire	-14104
▁kong	-14105
▁kump	-14106
▁ribe	-14107
▁uhre	-14108
▁vilj	-14109
alueet	-14110
ashion	-14111
istune	-14112
tavuus	-14113
▁bears	-14114
▁hehta	-14115
▁käsin	-14116
▁opera	-14117
▁perry	-14118
▁rales	-14119
▁rekry	-14120
▁tehta	-14121
▁vahva	-14122
ellistä	-14123
illance	-14124
quately	-14125
tietoja	-14126
tyneitä	-14127
täväksi	-14128
usehdot	-14129
▁aiomme	-14130
▁breyer	-14131
▁disarm	-14132
▁kittel	-14133
▁kotima	-14134
▁mielen	-14135
▁pahoin	-14136
▁provin	-14137
▁severe	-14138
▁tunnet	-14139
▁välill	-14140
ikkeiden	-14141
kunnasta	-14142
▁arvokka	-14143
▁asialle	-14144
▁ehdotti	-14145
▁entrepr	-14146
▁jeopard	-14147
▁kielten	-14148
▁korosti	-14149
▁kulunut	-14150
▁myynnin	-14151
▁olettaa	-14152
▁pattern	-14153
▁poliisi	-14154
▁pradier	-14155
▁turvata	-14156
▁valmiit	-14157
aisuuksia	-14158
▁harrison	-14159
▁helsinki	-14160
▁ilmapiir	-14161
▁japanese	-14162
▁kahdessa	-14163
▁kaikilta	-14164
▁keskipit	-14165
▁obstacle	-14166
▁olevassa	-14167
▁olevasta	-14168
▁producer	-14169
▁prosenti	-14170
▁rohkaise	-14171
▁suomessa	-14172
▁supplies	-14173
▁tehtyjen	-14174
▁tekniset	-14175
▁toimisto	-14176
uksellisen	-14177
▁exemption	-14178
▁jerusalem	-14179
▁jäsenmaat	-14180
▁kanssanne	-14181
▁lobbyists	-14182
▁mainitsen	-14183
▁oikeuteen	-14184
▁radiation	-14185
▁suhteissa	-14186
[...]
