<pad>	0
<unk>	0
<s>	0
</s>	0
▁t	-0
en	-1
in	-2
is	-3
an	-4
on	-5
he	-6
it	-7
ta	-8
▁a	-9
es	-10
▁s	-11
▁o	-12
▁the	-13
at	-14
▁p	-15
ll	-16
er	-17
▁m	-18
▁k	-19
et	-20
re	-21
▁j	-22
al	-23
ion	-24
ar	-25
▁v	-26
tä	-27
te	-28
us	-29
▁to	-30
▁w	-31
ro	-32
or	-33
▁c	-34
as	-35
▁of	-36
ut	-37
ks	-38
om	-39
▁h	-40
▁b	-41
▁in	-42
ent	-43
▁an	-44
un	-45
le	-46
▁n	-47
▁on	-48
ti	-49
▁e	-50
▁f	-51
im	-52
▁th	-53
os	-54
▁l	-55
ed	-56
ing	-57
id	-58
el	-59
▁and	-60
ic	-61
▁d	-62
sa	-63
ik	-64
än	-65
▁ja	-66
ul	-67
ot	-68
▁E	-69
ia	-70
ur	-71
▁T	-72
op	-73
ka	-74
il	-75
▁y	-76
ment	-77
ist	-78
▁r	-79
ol	-80
▁I	-81
▁M	-82
mis	-83
▁C	-84
ill	-85
▁re	-86
uro	-87
▁be	-88
iv	-89
ation	-90
▁is	-91
▁P	-92
▁Euro	-93
ke	-94
▁that	-95
uks	-96
▁(	-97
all	-98
▁et	-99
▁as	-100
ys	-101
av	-102
ää	-103
ec	-104
▁S	-105
em	-106
ell	-107
▁A	-108
ir	-109
▁for	-110
▁pro	-111
ud	-112
▁ma	-113
▁että	-114
me	-115
▁jo	-116
▁su	-117
äs	-118
▁wh	-119
io	-120
▁-	-121
ista	-122
ly	-123
▁it	-124
▁con	-125
yt	-126
hd	-127
aa	-128
ce	-129
ies	-130
pe	-131
ess	-132
ity	-133
yö	-134
▁g	-135
la	-136
ksi	-137
tu	-138
een	-139
aan	-140
ra	-141
▁al	-142
▁tä	-143
iden	-144
▁ta	-145
itä	-146
mä	-147
inen	-148
to	-149
▁se	-150
vä	-151
▁Com	-152
ais	-153
sion	-154
▁pu	-155
ust	-156
ort	-157
▁va	-158
hte	-159
utta	-160
pp	-161
oit	-162
ty	-163
▁par	-164
iin	-165
ct	-166
▁Europe	-167
▁te	-168
ien	-169
▁en	-170
oul	-171
▁ne	-172
▁are	-173
tö	-174
ith	-175
kin	-176
ans	-177
am	-178
ter	-179
▁The	-180
ow	-181
▁with	-182
tel	-183
oll	-184
▁K	-185
▁we	-186
▁this	-187
▁tu	-188
ja	-189
tav	-190
▁mu	-191
▁Euroop	-192
ig	-193
ään	-194
ich	-195
ould	-196
her	-197
▁un	-198
tr	-199
▁com	-200
ko	-201
oun	-202
▁not	-203
asta	-204
▁hav	-205
ch	-206
ers	-207
▁European	-208
um	-209
▁which	-210
ble	-211
▁have	-212
▁me	-213
taa	-214
uv	-215
▁vo	-216
▁by	-217
▁Euroopan	-218
ad	-219
res	-220
ises	-221
pa	-222
▁ex	-223
ike	-224
▁B	-225
ver	-226
se	-227
▁O	-228
▁es	-229
sä	-230
ann	-231
▁Par	-232
▁ka	-233
▁yhte	-234
▁de	-235
mme	-236
ih	-237
ark	-238
▁ole	-239
if	-240
▁he	-241
▁ei	-242
od	-243
▁sh	-244
isen	-245
port	-246
qu	-247
issa	-248
iet	-249
▁ku	-250
est	-251
▁si	-252
ate	-253
▁val	-254
ve	-255
mission	-256
st	-257
ille	-258
vat	-259
ittä	-260
▁la	-261
äl	-262
▁H	-263
iel	-264
▁Commission	-265
▁U	-266
isi	-267
▁sa	-268
▁W	-269
jen	-270
assa	-271
men	-272
▁N	-273
▁so	-274
▁ko	-275
ber	-276
ten	-277
▁F	-278
unn	-279
▁D	-280
omis	-281
lament	-282
är	-283
usta	-284
ial	-285
itte	-286
istä	-287
).	-288
▁ol	-289
▁per	-290
▁toim	-291
ita	-292
▁myö	-293
▁L	-294
▁pol	-295
▁Mr	-296
up	-297
ect	-298
▁or	-299
▁has	-300
▁R	-301
▁at	-302
vo	-303
lia	-304
ön	-305
▁ra	-306
män	-307
ions	-308
▁res	-309
▁V	-310
ore	-311
esta	-312
isten	-313
▁hy	-314
use	-315
ted	-316
▁er	-317
iit	-318
isesti	-319
si	-320
uksen	-321
ident	-322
▁im	-323
▁le	-324
liament	-325
uud	-326
ge	-327
our	-328
▁kos	-329
▁will	-330
ue	-331
▁hu	-332
äsen	-333
ki	-334
man	-335
ht	-336
ost	-337
ie	-338
taan	-339
▁puhe	-340
▁G	-341
and	-342
so	-343
jo	-344
ant	-345
▁ag	-346
▁komis	-347
▁Parliament	-348
ou	-349
essa	-350
▁kes	-351
▁pää	-352
vel	-353
ure	-354
▁jäsen	-355
oin	-356
▁all	-357
▁ar	-358
ff	-359
▁ot	-360
iik	-361
resident	-362
ive	-363
▁kä	-364
kä	-365
ard	-366
▁myös	-367
lla	-368
ma	-369
▁ed	-370
▁In	-371
▁Un	-372
inn	-373
▁vu	-374
▁J	-375
ian	-376
tat	-377
▁ac	-378
▁parlament	-379
ire	-380
ations	-381
▁nä	-382
▁jot	-383
yn	-384
uus	-385
val	-386
ast	-387
▁President	-388
▁Comm	-389
▁do	-390
▁should	-391
mp	-392
ärj	-393
ember	-394
ip	-395
▁pa	-396
rom	-397
tic	-398
ät	-399
▁työ	-400
▁ad	-401
▁var	-402
yttä	-403
äär	-404
▁sen	-405
▁joka	-406
▁Th	-407
isa	-408
▁ovat	-409
▁its	-410
▁from	-411
ok	-412
hta	-413
▁lu	-414
va	-415
illä	-416
▁ver	-417
eksi	-418
ärjes	-419
eet	-420
llä	-421
mies	-422
▁kans	-423
lo	-424
essä	-425
▁väl	-426
▁ke	-427
▁tr	-428
▁there	-429
ied	-430
tava	-431
de	-432
▁comp	-433
ms	-434
▁kaik	-435
ree	-436
▁kesk	-437
▁also	-438
iz	-439
▁no	-440
ight	-441
▁would	-442
▁reg	-443
▁been	-444
alu	-445
▁Ar	-446
iten	-447
illa	-448
ella	-449
pos	-450
yd	-451
ments	-452
min	-453
alla	-454
▁wor	-455
▁tark	-456
▁koske	-457
fer	-458
ay	-459
du	-460
der	-461
ime	-462
▁union	-463
out	-464
opim	-465
▁yhteis	-466
ction	-467
▁Union	-468
cil	-469
▁oike	-470
ite	-471
ry	-472
▁Member	-473
▁app	-474
▁was	-475
▁but	-476
ansa	-477
estä	-478
▁hyvä	-479
▁report	-480
▁us	-481
▁must	-482
ken	-483
uksia	-484
per	-485
▁coun	-486
og	-487
▁qu	-488
ksen	-489
ally	-490
ollis	-491
▁kys	-492
▁go	-493
sio	-494
reat	-495
ua	-496
▁tal	-497
ult	-498
▁Tä	-499
▁vasta	-500
▁comm	-501
ical	-502
▁can	-503
tam	-504
▁cons	-505
bl	-506
▁Coun	-507
▁ab	-508
ym	-509
▁jotka	-510
ku	-511
▁inter	-512
▁min	-513
▁Y	-514
ome	-515
voisa	-516
▁tiet	-517
th	-518
▁neuv	-519
ational	-520
▁os	-521
▁pr	-522
kaan	-523
tain	-524
▁countr	-525
isä	-526
ustel	-527
orm	-528
ana	-529
▁EU	-530
oc	-531
▁It	-532
▁our	-533
ish	-534
onn	-535
ihin	-536
▁Council	-537
▁ni	-538
▁tar	-539
▁inc	-540
▁käs	-541
▁pos	-542
▁toe	-543
teen	-544
▁mon	-545
ance	-546
tates	-547
▁jos	-548
rit	-549
ine	-550
▁We	-551
hdot	-552
asti	-553
▁tule	-554
ced	-555
▁teh	-556
ens	-557
idän	-558
▁fa	-559
▁il	-560
▁tai	-561
rat	-562
ittee	-563
ne	-564
ij	-565
ition	-566
▁huom	-567
ear	-568
▁other	-569
▁talo	-570
▁puhemies	-571
elm	-572
kunn	-573
lle	-574
▁tod	-575
▁siitä	-576
ytä	-577
▁conc	-578
iä	-579
ank	-580
▁keh	-581
ely	-582
alta	-583
yh	-584
▁san	-585
unity	-586
▁aik	-587
▁am	-588
▁määr	-589
▁tav	-590
mista	-591
▁propos	-592
▁co	-593
▁more	-594
▁States	-595
▁el	-596
▁mahd	-597
tive	-598
vät	-599
ak	-600
▁you	-601
ong	-602
▁miet	-603
▁miel	-604
ap	-605
▁Arvoisa	-606
ug	-607
ities	-608
▁komission	-609
▁str	-610
▁kuin	-611
ain	-612
ässä	-613
▁sel	-614
ence	-615
▁ch	-616
▁saa	-617
▁dem	-618
▁mer	-619
▁trans	-620
ina	-621
SE	-622
ac	-623
con	-624
▁keskustel	-625
ös	-626
iset	-627
▁halu	-628
▁vä	-629
▁sitä	-630
tiin	-631
cial	-632
ary	-633
itiik	-634
uuden	-635
ice	-636
pec	-637
ose	-638
ettu	-639
▁dis	-640
ihe	-641
▁bec	-642
▁vi	-643
▁komissio	-644
▁very	-645
ution	-646
ink	-647
▁puol	-648
▁sta	-649
isiin	-650
▁men	-651
isia	-652
jan	-653
tal	-654
uten	-655
▁sit	-656
▁hyväks	-657
one	-658
tom	-659
tio	-660
▁pre	-661
▁out	-662
issä	-663
▁one	-664
▁parlamentin	-665
▁On	-666
eg	-667
alais	-668
▁they	-669
▁pe	-670
ivat	-671
end	-672
▁ro	-673
▁mark	-674
▁sekä	-675
▁mutta	-676
van	-677
▁dec	-678
▁ter	-679
hj	-680
▁polic	-681
▁these	-682
että	-683
▁who	-684
▁ehdot	-685
▁fin	-686
ide	-687
ject	-688
▁liit	-689
mend	-690
▁work	-691
▁their	-692
▁import	-693
ern	-694
▁use	-695
ärjestel	-696
▁kansa	-697
rke	-698
pr	-699
▁voi	-700
▁sub	-701
▁tämän	-702
velop	-703
▁cont	-704
▁tapa	-705
vin	-706
▁op	-707
▁pal	-708
▁dire	-709
▁esit	-710
PE	-711
▁tärke	-712
ase	-713
ign	-714
uu	-715
misen	-716
▁käyt	-717
elle	-718
▁po	-719
ures	-720
▁kuiten	-721
tää	-722
▁up	-723
▁hall	-724
▁countries	-725
ates	-726
▁bet	-727
ves	-728
form	-729
▁need	-730
▁ens	-731
▁This	-732
pport	-733
ause	-734
▁kanssa	-735
▁resp	-736
oint	-737
ästä	-738
yste	-739
▁unionin	-740
▁lä	-741
able	-742
▁sy	-743
ated	-744
ces	-745
cy	-746
▁jäsenval	-747
▁Community	-748
▁acc	-749
vit	-750
▁leg	-751
und	-752
ivät	-753
ukset	-754
jä	-755
jat	-756
▁kul	-757
▁what	-758
▁mat	-759
▁agree	-760
minen	-761
fore	-762
ven	-763
▁kun	-764
▁imp	-765
▁if	-766
ib	-767
▁puheen	-768
▁ser	-769
▁sopim	-770
▁only	-771
▁osa	-772
ino	-773
usten	-774
▁Committee	-775
ious	-776
conom	-777
johta	-778
▁right	-779
▁päätö	-780
▁py	-781
),	-782
▁olisi	-783
pu	-784
stit	-785
ikä	-786
▁asia	-787
▁rec	-788
ky	-789
▁De	-790
ull	-791
emb	-792
▁develop	-793
▁tra	-794
▁tas	-795
▁erity	-796
uttaa	-797
ere	-798
▁like	-799
▁year	-800
▁An	-801
sible	-802
▁syste	-803
▁whe	-804
▁partic	-805
▁vaik	-806
▁To	-807
▁time	-808
ettava	-809
▁yks	-810
▁any	-811
udell	-812
etta	-813
▁proposal	-814
▁alue	-815
▁ind	-816
▁my	-817
ang	-818
▁main	-819
▁tut	-820
▁prog	-821
▁eff	-822
ystä	-823
ass	-824
ord	-825
▁yh	-826
▁tul	-827
▁perus	-828
ular	-829
mat	-830
▁new	-831
▁til	-832
▁seur	-833
ific	-834
▁rat	-835
▁about	-836
▁prov	-837
▁liitty	-838
▁policy	-839
▁mitä	-840
tely	-841
kun	-842
maan	-843
roup	-844
▁tied	-845
ata	-846
uutta	-847
▁void	-848
joit	-849
▁'	-850
ise	-851
miseksi	-852
▁because	-853
estion	-854
king	-855
▁tämä	-856
osta	-857
olog	-858
..	-859
pä	-860
▁"	-861
imme	-862
lear	-863
▁vir	-864
▁merk	-865
mään	-866
▁suur	-867
oks	-868
vän	-869
iitt	-870
▁part	-871
kunnan	-872
bil	-873
ther	-874
▁concern	-875
su	-876
▁laa	-877
▁proble	-878
▁Al	-879
▁jon	-880
fic	-881
ween	-882
▁En	-883
▁ha	-884
aisten	-885
uta	-886
▁ih	-887
irst	-888
▁sam	-889
uk	-890
▁some	-891
▁As	-892
oston	-893
▁st	-894
▁Parlament	-895
▁under	-896
▁hän	-897
emp	-898
▁pres	-899
▁econom	-900
ople	-901
▁into	-902
▁kuitenkin	-903
▁pit	-904
ojen	-905
kaa	-906
▁between	-907
▁yhteisön	-908
eration	-909
▁ob	-910
▁kysym	-911
tan	-912
▁point	-913
▁yhd	-914
▁produ	-915
▁dif	-916
▁tur	-917
ulk	-918
ossa	-919
ention	-920
ellä	-921
▁important	-922
oa	-923
▁rah	-924
ttä	-925
▁Tämä	-926
▁Se	-927
▁appro	-928
olitiik	-929
▁such	-930
▁again	-931
▁sec	-932
▁take	-933
▁now	-934
vern	-935
▁niin	-936
ins	-937
iksi	-938
are	-939
tion	-940
▁bas	-941
vir	-942
▁hyvin	-943
▁ker	-944
ittää	-945
ope	-946
▁aihe	-947
▁aut	-948
uc	-949
ved	-950
enk	-951
▁oll	-952
▁polit	-953
▁those	-954
nyt	-955
istyö	-956
get	-957
pan	-958
▁made	-959
ond	-960
etään	-961
oja	-962
▁were	-963
lud	-964
osia	-965
isy	-966
inta	-967
uden	-968
▁asi	-969
▁people	-970
▁mahdollis	-971
ision	-972
uksessa	-973
▁rel	-974
▁make	-975
kir	-976
isin	-977
▁tote	-978
▁kann	-979
▁vain	-980
ach	-981
▁oli	-982
yks	-983
emme	-984
ural	-985
ile	-986
▁eivät	-987
osto	-988
now	-989
PSE	-990
▁kuten	-991
▁Pu	-992
▁man	-993
▁hel	-994
▁particular	-995
gan	-996
▁huomio	-997
▁koska	-998
ielä	-999
ag	-1000
cep	-1001
air	-1002
tary	-1003
blic	-1004
▁koko	-1005
▁ent	-1006
uka	-1007
▁gen	-1008
▁ong	-1009
enn	-1010
▁inform	-1011
▁tull	-1012
hän	-1013
▁ryh	-1014
▁puheenjohta	-1015
iew	-1016
ääd	-1017
ism	-1018
miseen	-1019
tia	-1020
▁support	-1021
▁tulee	-1022
iseen	-1023
ous	-1024
▁jonka	-1025
uman	-1026
xt	-1027
alle	-1028
▁fact	-1029
▁Parlamentin	-1030
vu	-1031
▁yle	-1032
▁think	-1033
▁system	-1034
▁meidän	-1035
▁Me	-1036
▁määrä	-1037
cess	-1038
opp	-1039
▁Con	-1040
▁vielä	-1041
etty	-1042
mistä	-1043
▁market	-1044
mm	-1045
▁bud	-1046
kim	-1047
▁pla	-1048
ever	-1049
istö	-1050
▁when	-1051
tern	-1052
▁koskev	-1053
▁inv	-1054
erg	-1055
osiaal	-1056
▁deb	-1057
loy	-1058
▁mietinn	-1059
▁spec	-1060
ward	-1061
▁vuod	-1062
▁social	-1063
ech	-1064
its	-1065
▁than	-1066
▁muut	-1067
vall	-1068
▁national	-1069
ors	-1070
▁say	-1071
▁amend	-1072
▁valio	-1073
▁käsitte	-1074
▁rep	-1075
järjestel	-1076
▁economic	-1077
ante	-1078
▁clear	-1079
▁vuo	-1080
▁tehd	-1081
intö	-1082
bility	-1083
▁kir	-1084
▁good	-1085
▁yhteistyö	-1086
jet	-1087
▁hyväksy	-1088
▁political	-1089
ole	-1090
▁uud	-1091
▁know	-1092
roug	-1093
▁kor	-1094
▁jäsenvaltio	-1095
▁joita	-1096
väl	-1097
kti	-1098
▁being	-1099
▁ään	-1100
▁sisä	-1101
▁how	-1102
keen	-1103
ityks	-1104
tavat	-1105
red	-1106
▁Min	-1107
tik	-1108
▁emp	-1109
▁first	-1110
DE	-1111
▁cl	-1112
ros	-1113
▁enn	-1114
▁question	-1115
▁them	-1116
immä	-1117
ory	-1118
▁tw	-1119
ting	-1120
▁sosiaal	-1121
asto	-1122
▁Deb	-1123
▁poliitt	-1124
▁tässä	-1125
hor	-1126
▁coop	-1127
yty	-1128
▁keskustelut	-1129
lemen	-1130
▁disc	-1131
uh	-1132
PPE	-1133
▁requ	-1134
▁suhte	-1135
▁Debates	-1136
ister	-1137
▁meas	-1138
mpär	-1139
▁voidaan	-1140
▁olla	-1141
embers	-1142
▁talous	-1143
▁nyt	-1144
▁consid	-1145
▁seura	-1146
hing	-1147
kö	-1148
▁kol	-1149
▁ass	-1150
▁lop	-1151
ittäin	-1152
▁hallit	-1153
▁progra	-1154
isiä	-1155
▁ins	-1156
▁intern	-1157
▁her	-1158
▁arv	-1159
ertain	-1160
▁tarkist	-1161
▁kom	-1162
htu	-1163
par	-1164
lan	-1165
eral	-1166
tetaan	-1167
inc	-1168
aisin	-1169
ts	-1170
kon	-1171
yttää	-1172
▁Ch	-1173
lic	-1174
▁human	-1175
▁respon	-1176
▁tuot	-1177
oitte	-1178
ings	-1179
▁ilm	-1180
kn	-1181
hen	-1182
imer	-1183
ni	-1184
▁yl	-1185
▁euro	-1186
▁niiden	-1187
amp	-1188
▁fra	-1189
▁exp	-1190
▁instit	-1191
oike	-1192
▁num	-1193
▁No	-1194
ustom	-1195
▁sillä	-1196
wn	-1197
oug	-1198
ating	-1199
▁way	-1200
▁kansall	-1201
▁over	-1202
ind	-1203
▁neuvoston	-1204
ktiiv	-1205
▁har	-1206
ksiä	-1207
▁may	-1208
ihen	-1209
itys	-1210
ästi	-1211
sopim	-1212
ran	-1213
▁teke	-1214
ettely	-1215
politiik	-1216
EN	-1217
ual	-1218
▁parlamentti	-1219
ress	-1220
▁ri	-1221
▁view	-1222
▁taloudell	-1223
atta	-1224
töön	-1225
ons	-1226
▁kaikki	-1227
▁where	-1228
▁That	-1229
viron	-1230
oth	-1231
▁far	-1232
▁had	-1233
oj	-1234
atim	-1235
ieve	-1236
kea	-1237
▁kyse	-1238
▁tarkoit	-1239
aik	-1240
sin	-1241
▁two	-1242
▁cooperation	-1243
▁ki	-1244
uation	-1245
▁ympär	-1246
▁kohd	-1247
▁organ	-1248
ck	-1249
amme	-1250
▁aset	-1251
▁shall	-1252
▁serv	-1253
▁raken	-1254
▁proced	-1255
▁puolesta	-1256
▁Mrs	-1257
▁käsit	-1258
uot	-1259
▁li	-1260
▁siihen	-1261
rough	-1262
ative	-1263
ustoms	-1264
▁see	-1265
▁selv	-1266
▁regard	-1267
ppor	-1268
▁lisä	-1269
▁great	-1270
▁information	-1271
▁adop	-1272
ene	-1273
▁development	-1274
▁dra	-1275
▁But	-1276
▁pass	-1277
▁ihmis	-1278
enp	-1279
ture	-1280
▁cour	-1281
▁mietintö	-1282
▁giv	-1283
▁mil	-1284
▁jossa	-1285
▁possible	-1286
▁jäl	-1287
▁many	-1288
▁liik	-1289
vien	-1290
▁certain	-1291
istu	-1292
ukseen	-1293
▁could	-1294
ri	-1295
▁ann	-1296
▁Puhe	-1297
ents	-1298
▁just	-1299
▁kas	-1300
äänn	-1301
▁set	-1302
▁author	-1303
isl	-1304
▁includ	-1305
▁gu	-1306
▁here	-1307
▁jotta	-1308
▁tehtä	-1309
▁matter	-1310
▁kaikk	-1311
▁lo	-1312
▁tätä	-1313
hed	-1314
▁mukaan	-1315
▁myön	-1316
▁jat	-1317
▁does	-1318
▁debate	-1319
▁prote	-1320
▁measures	-1321
ady	-1322
▁ever	-1323
misesta	-1324
▁uus	-1325
tation	-1326
▁public	-1327
▁cann	-1328
▁epä	-1329
▁sol	-1330
▁fe	-1331
reaty	-1332
▁even	-1333
▁edell	-1334
▁muka	-1335
▁artik	-1336
▁therefore	-1337
eng	-1338
▁maa	-1339
telij	-1340
ently	-1341
▁jota	-1342
▁Komis	-1343
▁ratka	-1344
▁tarvit	-1345
imp	-1346
incip	-1347
▁huomioon	-1348
astu	-1349
▁­	-1350
▁sti	-1351
ulation	-1352
▁olemme	-1353
▁osoit	-1354
EL	-1355
▁vah	-1356
ric	-1357
iall	-1358
tön	-1359
▁huol	-1360
▁cannot	-1361
ci	-1362
yky	-1363
▁päätös	-1364
▁against	-1365
▁within	-1366
▁mahdoll	-1367
yden	-1368
massa	-1369
ytän	-1370
muka	-1371
▁princip	-1372
ited	-1373
▁bel	-1374
▁nim	-1375
▁Nä	-1376
▁ty	-1377
omen	-1378
mer	-1379
mät	-1380
enkil	-1381
▁erityisesti	-1382
go	-1383
▁level	-1384
usti	-1385
elman	-1386
▁years	-1387
▁incre	-1388
▁pä	-1389
ettav	-1390
▁kon	-1391
uksesta	-1392
▁kuul	-1393
▁Commissioner	-1394
itse	-1395
▁resol	-1396
äädän	-1397
ES	-1398
▁vaan	-1399
int	-1400
▁lähe	-1401
uksista	-1402
elma	-1403
▁des	-1404
ussa	-1405
FR	-1406
kseen	-1407
▁There	-1408
▁mo	-1409
▁sect	-1410
land	-1411
kunta	-1412
ettiin	-1413
astaan	-1414
▁consider	-1415
dit	-1416
▁ele	-1417
▁Ol	-1418
ices	-1419
att	-1420
itiz	-1421
▁fund	-1422
▁same	-1423
ctive	-1424
jon	-1425
utions	-1426
▁through	-1427
arv	-1428
▁group	-1429
jien	-1430
▁beh	-1431
ettävä	-1432
olla	-1433
▁add	-1434
iko	-1435
▁taken	-1436
▁law	-1437
les	-1438
töm	-1439
unut	-1440
▁Su	-1441
▁esittä	-1442
▁Wh	-1443
anom	-1444
▁Halu	-1445
▁vuoden	-1446
▁ask	-1447
▁pros	-1448
▁rights	-1449
▁put	-1450
▁ris	-1451
▁number	-1452
▁legisl	-1453
alf	-1454
▁situation	-1455
ough	-1456
▁pid	-1457
▁country	-1458
teur	-1459
cts	-1460
estäni	-1461
▁environ	-1462
kes	-1463
telu	-1464
ohj	-1465
laus	-1466
▁voim	-1467
echn	-1468
uture	-1469
loyment	-1470
avat	-1471
pporteur	-1472
▁most	-1473
▁ollut	-1474
▁agreement	-1475
▁puh	-1476
ds	-1477
▁future	-1478
ference	-1479
▁käsittele	-1480
uss	-1481
▁erittäin	-1482
isesta	-1483
terd	-1484
ecess	-1485
▁mieltä	-1486
inväl	-1487
▁interest	-1488
▁Ne	-1489
▁neuvosto	-1490
ollow	-1491
▁oikeus	-1492
uksien	-1493
▁said	-1494
eh	-1495
ab	-1496
▁How	-1497
tele	-1498
▁Treaty	-1499
▁rapporteur	-1500
▁conf	-1501
▁ohj	-1502
▁democ	-1503
▁finan	-1504
▁Es	-1505
▁too	-1506
wor	-1507
▁lis	-1508
▁case	-1509
tien	-1510
▁täys	-1511
össä	-1512
▁customs	-1513
▁result	-1514
insäädän	-1515
vallis	-1516
viä	-1517
tanut	-1518
▁aino	-1519
▁perusta	-1520
▁long	-1521
ala	-1522
▁sp	-1523
olleg	-1524
aiset	-1525
esti	-1526
kään	-1527
utus	-1528
▁Kys	-1529
▁help	-1530
▁common	-1531
▁cr	-1532
▁energ	-1533
▁hig	-1534
aisen	-1535
kan	-1536
▁joh	-1537
▁want	-1538
▁kat	-1539
▁his	-1540
▁eikä	-1541
▁vahv	-1542
▁euroopp	-1543
itus	-1544
▁asian	-1545
▁ennen	-1546
▁still	-1547
▁well	-1548
ince	-1549
ren	-1550
ective	-1551
mental	-1552
tamaan	-1553
▁eri	-1554
tään	-1555
ah	-1556
▁invol	-1557
▁toimenp	-1558
▁problem	-1559
▁tähän	-1560
ouse	-1561
▁demok	-1562
▁enem	-1563
▁tehdä	-1564
ization	-1565
▁reas	-1566
▁nyky	-1567
▁maks	-1568
▁vote	-1569
▁ongelm	-1570
uri	-1571
▁vaka	-1572
▁järjes	-1573
otta	-1574
▁cost	-1575
▁vuos	-1576
uva	-1577
imin	-1578
▁puheenjohtaja	-1579
▁Jos	-1580
▁onn	-1581
▁techn	-1582
▁%	-1583
▁yr	-1584
▁int	-1585
▁tutkim	-1586
▁pys	-1587
▁tunn	-1588
ays	-1589
kino	-1590
▁henkil	-1591
▁necess	-1592
elf	-1593
▁jälkeen	-1594
▁problems	-1595
ld	-1596
▁then	-1597
▁action	-1598
ateg	-1599
onna	-1600
järjes	-1601
urther	-1602
▁cur	-1603
▁indust	-1604
ier	-1605
▁esimer	-1606
▁oper	-1607
▁antaa	-1608
▁follow	-1609
▁order	-1610
▁esittelij	-1611
▁citiz	-1612
ful	-1613
ready	-1614
arge	-1615
▁car	-1616
▁own	-1617
▁def	-1618
▁osall	-1619
▁hyö	-1620
ipp	-1621
änä	-1622
▁Mad	-1623
▁pitää	-1624
▁compet	-1625
▁govern	-1626
▁kiin	-1627
▁toiv	-1628
tiv	-1629
▁vastaan	-1630
▁contin	-1631
▁kolleg	-1632
jor	-1633
▁course	-1634
▁paljon	-1635
▁viime	-1636
▁already	-1637
▁differ	-1638
▁kunn	-1639
▁end	-1640
▁much	-1641
▁siir	-1642
iseksi	-1643
tabl	-1644
istaa	-1645
▁vuoksi	-1646
▁olen	-1647
ani	-1648
anta	-1649
▁real	-1650
▁tulev	-1651
▁politiik	-1652
▁lainsäädän	-1653
▁vastu	-1654
▁Puhemies	-1655
▁met	-1656
▁Group	-1657
asia	-1658
▁means	-1659
NL	-1660
▁pow	-1661
tin	-1662
▁hope	-1663
▁pers	-1664
row	-1665
▁opin	-1666
▁meet	-1667
▁pitä	-1668
▁examp	-1669
▁tällä	-1670
▁saad	-1671
▁accep	-1672
une	-1673
urg	-1674
▁ref	-1675
▁impro	-1676
▁spe	-1677
▁major	-1678
▁edusta	-1679
▁EC	-1680
▁kirj	-1681
▁pur	-1682
▁järjestel	-1683
vää	-1684
▁both	-1685
▁project	-1686
anne	-1687
uksi	-1688
isäl	-1689
ynn	-1690
▁Mar	-1691
iaat	-1692
ute	-1693
ional	-1694
uring	-1695
aisia	-1696
▁Re	-1697
▁sano	-1698
alth	-1699
▁pra	-1700
▁legal	-1701
▁call	-1702
▁yhteyd	-1703
mark	-1704
▁pyr	-1705
▁valv	-1706
tru	-1707
ior	-1708
ctions	-1709
▁pl	-1710
▁If	-1711
▁turvallis	-1712
ft	-1713
kem	-1714
fter	-1715
rol	-1716
▁elä	-1717
▁contr	-1718
olle	-1719
▁tekn	-1720
alaisten	-1721
ule	-1722
isions	-1723
▁kansainväl	-1724
▁sc	-1725
▁And	-1726
▁itse	-1727
▁subject	-1728
▁establ	-1729
▁br	-1730
▁rik	-1731
urity	-1732
▁deal	-1733
ityksen	-1734
▁rahoit	-1735
eseen	-1736
paa	-1737
▁hank	-1738
▁process	-1739
ount	-1740
▁ulk	-1741
▁koh	-1742
▁voit	-1743
▁sign	-1744
▁joiden	-1745
▁kansalais	-1746
ects	-1747
▁Yhd	-1748
▁basis	-1749
▁välttä	-1750
own	-1751
yksen	-1752
oim	-1753
▁Ag	-1754
▁believe	-1755
▁programme	-1756
▁kil	-1757
▁siis	-1758
▁given	-1759
▁sisäl	-1760
sue	-1761
▁ext	-1762
▁laaj	-1763
▁today	-1764
▁decision	-1765
ration	-1766
vaa	-1767
ided	-1768
▁Pro	-1769
ett	-1770
oista	-1771
minist	-1772
▁repres	-1773
ules	-1774
▁osalta	-1775
atalo	-1776
iti	-1777
▁tapahtu	-1778
▁before	-1779
▁koul	-1780
▁behalf	-1781
▁päät	-1782
▁direktiiv	-1783
▁ympäristö	-1784
age	-1785
▁For	-1786
▁without	-1787
IT	-1788
ujen	-1789
aal	-1790
▁suor	-1791
▁necessary	-1792
mär	-1793
▁budget	-1794
▁vaike	-1795
ilta	-1796
▁present	-1797
▁ach	-1798
▁mikä	-1799
▁arvio	-1800
▁international	-1801
ysten	-1802
▁stand	-1803
▁saav	-1804
▁place	-1805
▁committee	-1806
▁able	-1807
ily	-1808
apa	-1809
▁Tämän	-1810
▁kaup	-1811
▁give	-1812
▁consum	-1813
▁jäsenvaltioiden	-1814
▁specific	-1815
▁diffic	-1816
▁•	-1817
kij	-1818
▁kal	-1819
ivan	-1820
▁form	-1821
itta	-1822
paik	-1823
uksiin	-1824
cc	-1825
▁equ	-1826
▁maan	-1827
▁yhteydessä	-1828
neet	-1829
▁aina	-1830
▁asio	-1831
til	-1832
ining	-1833
ird	-1834
ustann	-1835
ange	-1836
▁puut	-1837
▁position	-1838
ticle	-1839
rodu	-1840
ized	-1841
cing	-1842
▁example	-1843
lus	-1844
unic	-1845
uudessa	-1846
▁citizens	-1847
▁vuonna	-1848
▁tästä	-1849
▁ette	-1850
▁transit	-1851
▁Lu	-1852
alio	-1853
▁niitä	-1854
▁ensimmä	-1855
▁julk	-1856
▁Members	-1857
ari	-1858
AN	-1859
work	-1860
▁yhteen	-1861
toa	-1862
▁last	-1863
▁Sta	-1864
▁kau	-1865
AR	-1866
ially	-1867
▁since	-1868
tives	-1869
▁mill	-1870
stä	-1871
▁trade	-1872
▁seuraav	-1873
▁authorities	-1874
▁mis	-1875
kka	-1876
kuuta	-1877
▁So	-1878
▁Sch	-1879
▁exc	-1880
▁whether	-1881
▁procedure	-1882
ivers	-1883
hel	-1884
▁prev	-1885
▁peruste	-1886
▁off	-1887
itive	-1888
ila	-1889
▁ec	-1890
tyä	-1891
▁emme	-1892
▁House	-1893
▁adopted	-1894
oma	-1895
▁However	-1896
▁protection	-1897
▁guar	-1898
▁state	-1899
▁Komissio	-1900
▁Madam	-1901
▁tax	-1902
press	-1903
llisy	-1904
oh	-1905
ties	-1906
▁area	-1907
▁your	-1908
▁respect	-1909
▁päätöslaus	-1910
▁avo	-1911
eltä	-1912
iety	-1913
ound	-1914
▁und	-1915
▁olemassa	-1916
▁issue	-1917
▁concerned	-1918
uut	-1919
▁aid	-1920
mien	-1921
▁why	-1922
ack	-1923
DR	-1924
hip	-1925
▁transport	-1926
rem	-1927
▁työn	-1928
▁services	-1929
ultural	-1930
▁financial	-1931
kohta	-1932
▁edistä	-1933
▁haluaisin	-1934
▁every	-1935
kiksi	-1936
teiden	-1937
uvat	-1938
onta	-1939
▁areas	-1940
▁sector	-1941
▁require	-1942
ha	-1943
▁suoj	-1944
▁tarpe	-1945
▁ainoastaan	-1946
com	-1947
ety	-1948
ral	-1949
▁sm	-1950
TO	-1951
▁vapa	-1952
ilu	-1953
pend	-1954
▁proposals	-1955
▁simp	-1956
▁väh	-1957
▁noud	-1958
▁amendments	-1959
▁ap	-1960
▁päiv	-1961
msterd	-1962
▁applic	-1963
▁ensure	-1964
ffair	-1965
ulttu	-1966
isessa	-1967
▁tehok	-1968
▁further	-1969
ati	-1970
ges	-1971
astus	-1972
▁komissa	-1973
ines	-1974
omet	-1975
▁activ	-1976
iinä	-1977
▁resolution	-1978
▁tuom	-1979
▁guarante	-1980
▁security	-1981
▁kiel	-1982
▁aloit	-1983
▁kilpa	-1984
▁Amsterd	-1985
ph	-1986
reed	-1987
unnit	-1988
▁att	-1989
▁tieto	-1990
▁valmis	-1991
▁näin	-1992
▁opinion	-1993
tend	-1994
▁ju	-1995
▁kehittä	-1996
▁tärkeää	-1997
▁täysin	-1998
▁tulevais	-1999
▁eh	-2000
mie	-2001
▁compl	-2002
▁United	-2003
▁läh	-2004
▁Gre	-2005
▁van	-2006
ratic	-2007
▁control	-2008
▁legislation	-2009
ingle	-2010
▁hänen	-2011
mmär	-2012
▁ilmoit	-2013
kuv	-2014
▁Olen	-2015
▁mod	-2016
▁obj	-2017
▁opp	-2018
▁high	-2019
▁kolm	-2020
▁valit	-2021
ild	-2022
▁inf	-2023
▁kulutta	-2024
▁luonn	-2025
▁prac	-2026
ulture	-2027
▁henkilö	-2028
ffice	-2029
isu	-2030
ger	-2031
▁käyttä	-2032
ov	-2033
▁saada	-2034
▁todell	-2035
▁käyttöön	-2036
▁ajat	-2037
▁aw	-2038
öytä	-2039
▁after	-2040
▁enemmän	-2041
hteis	-2042
▁Q	-2043
stan	-2044
▁talousarv	-2045
▁menettely	-2046
▁maiden	-2047
▁vaikka	-2048
▁todella	-2049
joon	-2050
▁maatalo	-2051
▁Br	-2052
▁Tr	-2053
taminen	-2054
▁opport	-2055
▁Ma	-2056
▁second	-2057
ron	-2058
▁jät	-2059
▁pet	-2060
▁muod	-2061
wer	-2062
ffic	-2063
imen	-2064
▁yksi	-2065
▁säänn	-2066
▁ev	-2067
act	-2068
▁Is	-2069
▁paik	-2070
▁sä	-2071
▁compan	-2072
ale	-2073
ete	-2074
▁saf	-2075
▁different	-2076
pri	-2077
teg	-2078
ffairs	-2079
▁exist	-2080
tyy	-2081
yys	-2082
ize	-2083
puol	-2084
▁jul	-2085
▁yhteisö	-2086
▁Sen	-2087
▁sovel	-2088
▁aikana	-2089
▁het	-2090
▁suos	-2091
▁miljoon	-2092
aut	-2093
▁increas	-2094
▁kan	-2095
▁kehit	-2096
▁progress	-2097
▁He	-2098
östä	-2099
▁soc	-2100
▁toimenpite	-2101
ential	-2102
▁health	-2103
ek	-2104
▁fraud	-2105
hem	-2106
▁cre	-2107
▁toimin	-2108
ined	-2109
▁voivat	-2110
▁introdu	-2111
▁serious	-2112
▁hand	-2113
ination	-2114
▁lisäksi	-2115
▁three	-2116
▁merkittä	-2117
▁full	-2118
▁nämä	-2119
▁pien	-2120
▁used	-2121
▁sitten	-2122
▁Meidän	-2123
ryh	-2124
ulla	-2125
▁maail	-2126
oita	-2127
other	-2128
▁yrit	-2129
ished	-2130
▁general	-2131
▁suun	-2132
▁ottaa	-2133
▁asiassa	-2134
▁crit	-2135
ferens	-2136
▁Article	-2137
tojen	-2138
adies	-2139
isista	-2140
enkin	-2141
▁employment	-2142
▁tärkeä	-2143
▁valiokunnan	-2144
una	-2145
ately	-2146
ote	-2147
avour	-2148
▁inde	-2149
elleen	-2150
▁whole	-2151
sibility	-2152
ving	-2153
▁allow	-2154
äätö	-2155
▁laus	-2156
▁third	-2157
▁kulttu	-2158
hes	-2159
▁kuljet	-2160
tuu	-2161
attom	-2162
▁tele	-2163
cu	-2164
▁strateg	-2165
▁implemen	-2166
led	-2167
▁dr	-2168
▁gent	-2169
▁mahdollista	-2170
▁koskevan	-2171
ying	-2172
▁prosent	-2173
enta	-2174
erta	-2175
▁sanoa	-2176
din	-2177
▁välillä	-2178
astr	-2179
▁terms	-2180
ELDR	-2181
raatt	-2182
toja	-2183
▁contrib	-2184
tta	-2185
▁Fin	-2186
▁ymmär	-2187
▁passitus	-2188
aks	-2189
▁forward	-2190
▁jäsenvalti	-2191
▁arvo	-2192
▁redu	-2193
ases	-2194
tenä	-2195
▁Reg	-2196
▁Tur	-2197
änään	-2198
▁kysymyks	-2199
▁ide	-2200
ueen	-2201
▁ajan	-2202
▁sell	-2203
utu	-2204
▁med	-2205
▁toiminta	-2206
ner	-2207
....	-2208
▁pel	-2209
▁issu	-2210
▁työllisy	-2211
▁State	-2212
▁principle	-2213
aisiin	-2214
ified	-2215
▁terve	-2216
▁toimiel	-2217
ues	-2218
▁ava	-2219
▁eli	-2220
▁neuvot	-2221
▁Amsterdam	-2222
ottaa	-2223
▁administ	-2224
▁mukaisesti	-2225
sel	-2226
goti	-2227
isessä	-2228
▁arvoisa	-2229
kia	-2230
▁industry	-2231
oksia	-2232
▁om	-2233
isestä	-2234
▁negoti	-2235
asio	-2236
usin	-2237
emmin	-2238
▁saat	-2239
▁kiinn	-2240
▁prior	-2241
tua	-2242
▁miten	-2243
▁come	-2244
▁rules	-2245
▁particularly	-2246
▁curr	-2247
ences	-2248
iltä	-2249
kojen	-2250
▁dist	-2251
▁vaikut	-2252
▁eurooppalais	-2253
NG	-2254
▁ilman	-2255
EC	-2256
▁mietinnön	-2257
▁jolla	-2258
OM	-2259
▁aim	-2260
▁exper	-2261
▁world	-2262
ditions	-2263
▁joilla	-2264
ives	-2265
▁yhtä	-2266
▁vastaav	-2267
töä	-2268
▁find	-2269
misestä	-2270
▁ste	-2271
▁clos	-2272
Euro	-2273
inten	-2274
▁costs	-2275
▁pain	-2276
▁vaku	-2277
▁keskus	-2278
elv	-2279
▁single	-2280
▁role	-2281
rj	-2282
uol	-2283
▁kasv	-2284
▁ihmisoike	-2285
▁Sec	-2286
▁wish	-2287
▁yhden	-2288
valio	-2289
▁tavoit	-2290
▁kehitys	-2291
▁kustann	-2292
▁näkö	-2293
▁initi	-2294
▁somet	-2295
▁San	-2296
▁Dire	-2297
soci	-2298
▁tavar	-2299
yksiä	-2300
▁meillä	-2301
▁reason	-2302
▁members	-2303
▁asp	-2304
▁mone	-2305
▁ti	-2306
ämme	-2307
▁bene	-2308
ep	-2309
▁aivan	-2310
▁frame	-2311
▁toimiv	-2312
▁mielestäni	-2313
▁aikaan	-2314
▁relations	-2315
osten	-2316
▁näiden	-2317
estions	-2318
▁esimerkiksi	-2319
▁ky	-2320
äärä	-2321
vention	-2322
med	-2323
▁job	-2324
▁each	-2325
▁refer	-2326
AT	-2327
ytyy	-2328
ality	-2329
▁What	-2330
▁av	-2331
▁going	-2332
▁suhteen	-2333
▁toteutta	-2334
wards	-2335
▁tuke	-2336
idency	-2337
lu	-2338
▁avu	-2339
▁occ	-2340
▁gentlemen	-2341
IR	-2342
▁Qu	-2343
▁juuri	-2344
uksissa	-2345
▁haluan	-2346
▁valtio	-2347
▁goods	-2348
als	-2349
▁express	-2350
▁rece	-2351
▁koskee	-2352
▁käytän	-2353
▁done	-2354
▁women	-2355
▁avulla	-2356
uudesta	-2357
▁yleis	-2358
swer	-2359
▁quite	-2360
ency	-2361
earch	-2362
tavan	-2363
▁directive	-2364
ena	-2365
▁did	-2366
▁ECU	-2367
aston	-2368
▁writ	-2369
▁riittä	-2370
▁appropri	-2371
▁institution	-2372
▁pay	-2373
▁siinä	-2374
kk	-2375
▁pat	-2376
▁pitäisi	-2377
▁osallist	-2378
▁suc	-2379
▁offic	-2380
▁tänään	-2381
▁products	-2382
esty	-2383
▁next	-2384
▁Mutta	-2385
▁speak	-2386
▁agreements	-2387
▁od	-2388
▁kahd	-2389
etaan	-2390
▁least	-2391
▁happ	-2392
▁favour	-2393
▁Kes	-2394
▁korke	-2395
allisesti	-2396
iassa	-2397
isivat	-2398
▁ladies	-2399
aus	-2400
mit	-2401
ida	-2402
entral	-2403
▁small	-2404
▁sopimuksen	-2405
sequ	-2406
▁kaikkia	-2407
utes	-2408
▁seem	-2409
gin	-2410
▁At	-2411
▁Sw	-2412
▁ul	-2413
come	-2414
▁ban	-2415
▁back	-2416
▁alalla	-2417
▁viranom	-2418
ps	-2419
ette	-2420
▁lead	-2421
▁toiminn	-2422
▁nat	-2423
▁move	-2424
▁Trans	-2425
usiness	-2426
uksena	-2427
▁integ	-2428
▁tavalla	-2429
ror	-2430
▁look	-2431
▁mitään	-2432
uuteen	-2433
▁asiasta	-2434
ED	-2435
▁access	-2436
▁laatim	-2437
▁institutions	-2438
▁anal	-2439
▁asem	-2440
▁joissa	-2441
tand	-2442
▁framework	-2443
▁conditions	-2444
ogn	-2445
cted	-2446
▁olev	-2447
▁Soc	-2448
ically	-2449
▁siten	-2450
▁resour	-2451
ikke	-2452
▁down	-2453
▁kaksi	-2454
▁mainit	-2455
▁olevan	-2456
▁periaat	-2457
▁Go	-2458
mätön	-2459
▁vaar	-2460
▁tehtävä	-2461
▁prom	-2462
▁really	-2463
▁yhtenä	-2464
▁improve	-2465
uun	-2466
▁rajoit	-2467
▁however	-2468
koja	-2469
▁Siksi	-2470
▁unders	-2471
▁del	-2472
▁tulisi	-2473
ON	-2474
öiden	-2475
▁siksi	-2476
▁Haluaisin	-2477
iir	-2478
▁establish	-2479
son	-2480
▁stud	-2481
mmes	-2482
erman	-2483
▁discuss	-2484
▁hyöd	-2485
▁artiklan	-2486
▁tapauksessa	-2487
▁vaatim	-2488
uja	-2489
▁ettei	-2490
▁hetke	-2491
▁kokon	-2492
▁voimme	-2493
isti	-2494
▁Tässä	-2495
▁account	-2496
▁yli	-2497
▁following	-2498
nä	-2499
▁mana	-2500
▁recogn	-2501
▁standard	-2502
▁docu	-2503
▁Van	-2504
▁let	-2505
▁sat	-2506
▁voida	-2507
▁lab	-2508
els	-2509
han	-2510
istön	-2511
▁tavoitte	-2512
ilj	-2513
▁varten	-2514
▁koskevat	-2515
▁Itä	-2516
▁lim	-2517
lemme	-2518
▁pan	-2519
UE	-2520
▁direct	-2521
istyn	-2522
▁ulkop	-2523
▁involved	-2524
ton	-2525
ised	-2526
sopimuksen	-2527
▁pak	-2528
▁Rans	-2529
▁tarjo	-2530
▁various	-2531
▁Le	-2532
ital	-2533
▁kaupp	-2534
▁keske	-2535
▁uudelleen	-2536
.)	-2537
ways	-2538
▁business	-2539
nön	-2540
▁approach	-2541
▁Pol	-2542
▁less	-2543
▁agric	-2544
▁sanot	-2545
▁tiedon	-2546
äällä	-2547
▁text	-2548
▁abs	-2549
▁ehkä	-2550
▁environmental	-2551
pro	-2552
ksiin	-2553
▁komissaari	-2554
ides	-2555
estys	-2556
▁free	-2557
▁perio	-2558
inkerta	-2559
▁Affairs	-2560
▁open	-2561
▁tasolla	-2562
▁hetkellä	-2563
▁Kysym	-2564
▁tutkin	-2565
ium	-2566
mää	-2567
▁rev	-2568
▁another	-2569
▁fore	-2570
▁palvel	-2571
▁democratic	-2572
▁ess	-2573
airman	-2574
▁Green	-2575
▁oikeudell	-2576
ivid	-2577
▁esittelijä	-2578
▁syn	-2579
▁Intern	-2580
▁unioni	-2581
▁espec	-2582
▁resources	-2583
järjestelmän	-2584
▁few	-2585
▁inves	-2586
▁effort	-2587
▁guarantee	-2588
▁kansalaisten	-2589
▁itself	-2590
uct	-2591
▁hä	-2592
▁towards	-2593
NGL	-2594
▁fo	-2595
▁puheenjohtaj	-2596
▁Lisä	-2597
▁power	-2598
▁programmes	-2599
▁ist	-2600
▁kum	-2601
▁nu	-2602
opan	-2603
▁Miel	-2604
▁mention	-2605
▁tun	-2606
▁regul	-2607
▁asiakir	-2608
iteet	-2609
▁ment	-2610
▁proposed	-2611
▁activities	-2612
▁needs	-2613
▁sisäll	-2614
ban	-2615
oksen	-2616
▁enc	-2617
ology	-2618
uussa	-2619
uvosto	-2620
▁regions	-2621
▁teollis	-2622
ient	-2623
▁issues	-2624
▁yksity	-2625
mon	-2626
eter	-2627
uvoston	-2628
▁points	-2629
kul	-2630
▁yhä	-2631
ength	-2632
▁based	-2633
over	-2634
taneet	-2635
▁difficult	-2636
▁grow	-2637
▁valtu	-2638
enä	-2639
▁nope	-2640
▁äänestä	-2641
▁responsible	-2642
ota	-2643
ulle	-2644
var	-2645
▁väär	-2646
▁konferens	-2647
▁vot	-2648
itsee	-2649
▁working	-2650
▁non	-2651
▁hist	-2652
▁accord	-2653
▁na	-2654
▁kuitenkaan	-2655
art	-2656
alan	-2657
▁gr	-2658
▁varm	-2659
jaan	-2660
▁during	-2661
▁internal	-2662
▁BSE	-2663
▁benef	-2664
▁edelleen	-2665
inä	-2666
isella	-2667
unities	-2668
▁accept	-2669
▁fiel	-2670
▁pääs	-2671
ommend	-2672
▁million	-2673
▁especially	-2674
töjen	-2675
▁ohjelm	-2676
▁kaikkien	-2677
▁educ	-2678
▁Govern	-2679
▁heidän	-2680
▁safety	-2681
▁questions	-2682
iU	-2683
round	-2684
▁täällä	-2685
het	-2686
▁demokrat	-2687
▁johta	-2688
ged	-2689
▁muiden	-2690
▁perustamis	-2691
▁Lisäksi	-2692
xemb	-2693
▁saan	-2694
aps	-2695
kup	-2696
old	-2697
▁minun	-2698
oro	-2699
ove	-2700
▁ear	-2701
mällä	-2702
▁kannat	-2703
▁turvallisuus	-2704
tynyt	-2705
▁laat	-2706
▁rather	-2707
▁struct	-2708
▁tiedot	-2709
▁importance	-2710
ace	-2711
kom	-2712
racy	-2713
otion	-2714
ussion	-2715
▁koros	-2716
▁täytyy	-2717
▁individ	-2718
▁lait	-2719
▁rema	-2720
▁stat	-2721
▁asiaa	-2722
▁kulttuur	-2723
▁rem	-2724
AL	-2725
▁jä	-2726
▁uh	-2727
quir	-2728
raph	-2729
▁mar	-2730
▁edist	-2731
▁thank	-2732
▁better	-2733
teita	-2734
▁samaa	-2735
IS	-2736
enda	-2737
▁riipp	-2738
▁policies	-2739
iss	-2740
▁tah	-2741
▁velv	-2742
ohjelm	-2743
IN	-2744
idence	-2745
▁muist	-2746
politiikan	-2747
kien	-2748
▁sov	-2749
▁wel	-2750
▁provide	-2751
▁meille	-2752
▁tilante	-2753
▁vaih	-2754
aisesti	-2755
▁always	-2756
▁koskeva	-2757
▁Te	-2758
▁bring	-2759
▁luot	-2760
▁kind	-2761
▁prof	-2762
SV	-2763
tim	-2764
äli	-2765
▁ep	-2766
▁star	-2767
rib	-2768
tell	-2769
▁Val	-2770
▁Amer	-2771
▁rauh	-2772
▁chang	-2773
▁myönte	-2774
▁including	-2775
▁herra	-2776
▁society	-2777
▁sopimus	-2778
▁bod	-2779
▁show	-2780
▁Olemme	-2781
▁environment	-2782
gement	-2783
ioistu	-2784
▁energy	-2785
▁appe	-2786
▁cases	-2787
▁continue	-2788
▁Conference	-2789
▁sään	-2790
▁esittää	-2791
▁Question	-2792
itted	-2793
okset	-2794
▁Luxemb	-2795
▁special	-2796
▁addition	-2797
▁communic	-2798
▁mie	-2799
▁selke	-2800
▁clearly	-2801
lä	-2802
gal	-2803
▁government	-2804
▁Mitä	-2805
eto	-2806
teet	-2807
utettu	-2808
▁something	-2809
▁become	-2810
tekij	-2811
▁säännö	-2812
▁research	-2813
▁toat	-2814
▁fis	-2815
ikäli	-2816
öytäkir	-2817
▁implementation	-2818
uista	-2819
▁toimi	-2820
kinoiden	-2821
▁käyttää	-2822
▁interests	-2823
▁Dec	-2824
▁individual	-2825
▁tukea	-2826
▁hal	-2827
▁creat	-2828
▁ammat	-2829
▁alueella	-2830
yr	-2831
jaa	-2832
▁period	-2833
▁things	-2834
ived	-2835
▁Bel	-2836
ither	-2837
table	-2838
uneet	-2839
▁cong	-2840
▁cor	-2841
▁muu	-2842
▁cover	-2843
▁net	-2844
▁understand	-2845
eria	-2846
ppan	-2847
▁hallinn	-2848
▁suunnit	-2849
unto	-2850
▁proper	-2851
▁harjoit	-2852
▁kaikkea	-2853
▁increase	-2854
UPE	-2855
has	-2856
ness	-2857
▁Toiv	-2858
▁huomat	-2859
▁service	-2860
▁projects	-2861
ross	-2862
▁Brit	-2863
▁vapaa	-2864
▁conclus	-2865
▁hyväksyä	-2866
▁Kun	-2867
for	-2868
▁success	-2869
tle	-2870
mättä	-2871
▁avail	-2872
here	-2873
tical	-2874
▁maailman	-2875
sid	-2876
kesk	-2877
▁hyvät	-2878
▁perust	-2879
▁conte	-2880
▁training	-2881
▁concerning	-2882
▁puheenvu	-2883
▁Alger	-2884
▁kertom	-2885
ho	-2886
kel	-2887
▁obs	-2888
▁discussion	-2889
leg	-2890
▁Fr	-2891
imes	-2892
▁laajen	-2893
▁niistä	-2894
koko	-2895
▁usein	-2896
Par	-2897
▁sur	-2898
▁risk	-2899
▁German	-2900
iversity	-2901
toim	-2902
▁making	-2903
urs	-2904
ettel	-2905
▁actu	-2906
▁lähes	-2907
▁muuta	-2908
mb	-2909
▁vai	-2910
▁esiin	-2911
▁tarkas	-2912
▁attention	-2913
▁maatalous	-2914
GUE	-2915
▁demokraatt	-2916
▁get	-2917
oilla	-2918
▁vähen	-2919
▁demand	-2920
ratul	-2921
rative	-2922
▁josta	-2923
ellisen	-2924
▁kysymys	-2925
pol	-2926
▁bu	-2927
▁johd	-2928
▁month	-2929
▁available	-2930
▁once	-2931
▁suure	-2932
▁systems	-2933
istan	-2934
enne	-2935
▁provided	-2936
▁exam	-2937
▁impos	-2938
▁kunnio	-2939
▁oltava	-2940
▁yrityks	-2941
elta	-2942
ists	-2943
▁companies	-2944
DA	-2945
gether	-2946
▁These	-2947
ants	-2948
▁dut	-2949
▁las	-2950
▁työs	-2951
▁Social	-2952
▁contain	-2953
ification	-2954
ceed	-2955
▁Mon	-2956
▁vaa	-2957
▁Per	-2958
▁matters	-2959
▁amendment	-2960
▁otta	-2961
▁terror	-2962
▁Mielestäni	-2963
ected	-2964
▁read	-2965
▁congratul	-2966
ler	-2967
▁täll	-2968
▁joint	-2969
▁meeting	-2970
▁kannalta	-2971
etun	-2972
inti	-2973
▁Lop	-2974
▁sop	-2975
▁vih	-2976
▁noudat	-2977
ath	-2978
ict	-2979
lex	-2980
imiel	-2981
quiry	-2982
▁vuoro	-2983
▁EM	-2984
▁loc	-2985
ented	-2986
▁Med	-2987
ialog	-2988
▁vast	-2989
ection	-2990
▁achieve	-2991
erv	-2992
▁Or	-2993
imman	-2994
▁supp	-2995
▁Amend	-2996
▁ident	-2997
▁large	-2998
▁kuinka	-2999
▁particip	-3000
▁ten	-3001
▁ryhmän	-3002
▁recommend	-3003
▁Government	-3004
▁kiit	-3005
▁viit	-3006
▁writing	-3007
▁yksinkerta	-3008
ience	-3009
▁mean	-3010
▁suuri	-3011
▁others	-3012
lann	-3013
▁välttämätön	-3014
▁lisää	-3015
▁effective	-3016
▁technical	-3017
rah	-3018
ning	-3019
▁taking	-3020
▁Eurooppa	-3021
▁aff	-3022
though	-3023
▁rouva	-3024
ket	-3025
haps	-3026
▁Office	-3027
▁decisions	-3028
au	-3029
tila	-3030
ialogue	-3031
▁toimia	-3032
▁procedures	-3033
ume	-3034
▁enää	-3035
▁complet	-3036
▁assist	-3037
▁kerran	-3038
▁regional	-3039
ave	-3040
▁might	-3041
▁majority	-3042
västi	-3043
illoin	-3044
▁hankke	-3045
oda	-3046
▁enter	-3047
ourg	-3048
dition	-3049
ological	-3050
▁application	-3051
ee	-3052
itor	-3053
▁voisi	-3054
kunnassa	-3055
▁yet	-3056
▁vall	-3057
▁johon	-3058
▁jäsenet	-3059
oub	-3060
▁budjet	-3061
▁request	-3062
▁sal	-3063
▁peace	-3064
menettely	-3065
▁strength	-3066
▁appropriate	-3067
▁Kos	-3068
▁kautta	-3069
opa	-3070
▁context	-3071
▁Ir	-3072
ensä	-3073
▁viol	-3074
▁draft	-3075
oon	-3076
▁achie	-3077
▁words	-3078
▁mielestä	-3079
▁responsibility	-3080
▁Ens	-3081
oiden	-3082
▁treat	-3083
▁simply	-3084
▁together	-3085
'.	-3086
ilar	-3087
▁ala	-3088
▁teks	-3089
▁instru	-3090
▁greater	-3091
▁consumer	-3092
▁opportunity	-3093
ARE	-3094
▁ecua	-3095
▁appl	-3096
▁ph	-3097
tice	-3098
▁person	-3099
▁Kuten	-3100
▁Haluan	-3101
▁dialogue	-3102
▁aware	-3103
ytäntöön	-3104
▁yhdessä	-3105
pal	-3106
enty	-3107
▁sovit	-3108
▁analys	-3109
▁essential	-3110
▁regulation	-3111
TA	-3112
koh	-3113
▁lit	-3114
arity	-3115
missa	-3116
rench	-3117
▁deta	-3118
▁i	-3119
▁Kaik	-3120
▁liian	-3121
▁tehty	-3122
▁education	-3123
▁miljoonaa	-3124
▁voitaisiin	-3125
mpi	-3126
ourt	-3127
▁colle	-3128
▁often	-3129
▁provisions	-3130
▁työt	-3131
▁pyytä	-3132
▁Yhdistyn	-3133
▁säil	-3134
▁joista	-3135
▁positive	-3136
of	-3137
uminen	-3138
▁change	-3139
▁selvästi	-3140
▁competition	-3141
▁bo	-3142
▁contra	-3143
▁tehokka	-3144
▁minister	-3145
▁hallitusten	-3146
omme	-3147
▁press	-3148
▁encour	-3149
▁negotiations	-3150
hod	-3151
uhe	-3152
puhel	-3153
ryhmän	-3154
▁results	-3155
▁production	-3156
anto	-3157
▁alle	-3158
istic	-3159
▁Swed	-3160
▁comb	-3161
yttävä	-3162
▁uudist	-3163
".	-3164
RO	-3165
kuun	-3166
▁drug	-3167
▁pyyd	-3168
▁short	-3169
▁democracy	-3170
arvo	-3171
▁urg	-3172
▁seems	-3173
yssä	-3174
▁aspects	-3175
gu	-3176
▁mor	-3177
▁rais	-3178
ishing	-3179
▁Party	-3180
▁näitä	-3181
▁markkin	-3182
▁päätöksen	-3183
▁Komission	-3184
iaa	-3185
ortu	-3186
ility	-3187
▁Court	-3188
▁kollegat	-3189
▁perusteella	-3190
▁kirjallisesti	-3191
);	-3192
innä	-3193
udet	-3194
urn	-3195
▁Mc	-3196
▁They	-3197
▁ur	-3198
ners	-3199
▁ret	-3200
johtaja	-3201
▁invest	-3202
▁Ber	-3203
intar	-3204
joiden	-3205
isaalta	-3206
▁groups	-3207
▁powers	-3208
▁prevent	-3209
▁täytäntöön	-3210
▁parlamentissa	-3211
koa	-3212
▁final	-3213
▁emphas	-3214
▁liittyvät	-3215
▁apply	-3216
▁kolme	-3217
▁colleag	-3218
▁eas	-3219
uuksia	-3220
▁indic	-3221
▁table	-3222
amen	-3223
▁farm	-3224
▁while	-3225
▁French	-3226
▁Euroopassa	-3227
yl	-3228
▁jobs	-3229
maiden	-3230
▁koulut	-3231
▁määrit	-3232
▁oikeuden	-3233
▁yhteisen	-3234
▁Pa	-3235
▁above	-3236
alue	-3237
kail	-3238
itsem	-3239
▁puhu	-3240
uclear	-3241
▁paran	-3242
▁vakav	-3243
▁field	-3244
▁found	-3245
ustr	-3246
▁funds	-3247
astrich	-3248
▁assess	-3249
▁strong	-3250
lev	-3251
ehto	-3252
itsi	-3253
▁suosit	-3254
EP	-3255
kiv	-3256
▁orig	-3257
▁rad	-3258
▁ryhmä	-3259
▁method	-3260
▁otetaan	-3261
▁certainly	-3262
▁mietinnössä	-3263
yhy	-3264
ikan	-3265
▁inn	-3266
ustice	-3267
▁oppos	-3268
▁increasing	-3269
▁adv	-3270
▁kohta	-3271
▁unemp	-3272
▁uuden	-3273
tavalio	-3274
▁subsid	-3275
ER	-3276
tens	-3277
▁effect	-3278
▁suojel	-3279
iselle	-3280
▁commit	-3281
▁Maastrich	-3282
▁Ex	-3283
▁enl	-3284
▁Ei	-3285
▁Ro	-3286
isto	-3287
▁Kyse	-3288
▁sall	-3289
isistä	-3290
▁representa	-3291
EDN	-3292
▁Ital	-3293
▁avoim	-3294
▁consequ	-3295
omaan	-3296
▁care	-3297
▁ehd	-3298
▁jopa	-3299
▁First	-3300
ru	-3301
▁eril	-3302
▁voin	-3303
▁esille	-3304
▁teille	-3305
▁reports	-3306
▁ehdotuksen	-3307
▁parlamentille	-3308
ulta	-3309
getary	-3310
▁kansan	-3311
▁prosenttia	-3312
kää	-3313
tar	-3314
▁che	-3315
imatta	-3316
▁answer	-3317
▁WTO	-3318
▁nor	-3319
▁Belg	-3320
reedom	-3321
▁among	-3322
▁neuvottelu	-3323
jän	-3324
▁puitte	-3325
▁Temp	-3326
▁kuuka	-3327
▁sever	-3328
▁bro	-3329
▁Saks	-3330
▁käsittely	-3331
ordin	-3332
▁kokonais	-3333
olm	-3334
ened	-3335
väksi	-3336
less	-3337
▁sella	-3338
▁sääd	-3339
isuuden	-3340
▁presidency	-3341
▁Yhdys	-3342
▁Yhteis	-3343
▁include	-3344
sään	-3345
▁nel	-3346
▁lain	-3347
lement	-3348
misessa	-3349
irc	-3350
ykset	-3351
▁reasons	-3352
ything	-3353
▁Fis	-3354
▁fir	-3355
▁lat	-3356
▁extrem	-3357
kseni	-3358
liamen	-3359
▁force	-3360
▁työntekij	-3361
▁act	-3362
ustaa	-3363
ession	-3364
▁vuotta	-3365
▁foreign	-3366
▁fail	-3367
▁play	-3368
▁origin	-3369
▁osoittaa	-3370
▁objective	-3371
iation	-3372
▁Alban	-3373
▁associ	-3374
▁työpaik	-3375
▁communication	-3376
ible	-3377
▁anim	-3378
▁region	-3379
▁etenkin	-3380
▁lää	-3381
▁Näin	-3382
ellinen	-3383
▁vaihto	-3384
era	-3385
usi	-3386
▁jär	-3387
isimme	-3388
▁indeed	-3389
▁toteut	-3390
lista	-3391
amental	-3392
tavasti	-3393
▁organis	-3394
▁vuoropuhel	-3395
por	-3396
tella	-3397
▁pysy	-3398
▁huole	-3399
▁create	-3400
▁welcome	-3401
▁ongelmia	-3402
kot	-3403
unnon	-3404
▁jouk	-3405
▁Tästä	-3406
uksella	-3407
▁tietty	-3408
▁current	-3409
ättä	-3410
oissa	-3411
▁samalla	-3412
lleen	-3413
▁uusi	-3414
▁lack	-3415
▁deleg	-3416
▁menet	-3417
▁member	-3418
▁Co	-3419
▁Pal	-3420
▁aiheutta	-3421
▁kalastus	-3422
▁Vasta	-3423
▁Santer	-3424
▁alueen	-3425
▁Directive	-3426
▁agricultural	-3427
ctor	-3428
ivil	-3429
▁muita	-3430
▁never	-3431
allisen	-3432
asioita	-3433
▁constit	-3434
▁unionissa	-3435
blig	-3436
into	-3437
▁taa	-3438
▁muun	-3439
▁Inter	-3440
▁verot	-3441
▁maissa	-3442
▁freedom	-3443
▁nuclear	-3444
▁him	-3445
▁lif	-3446
▁war	-3447
▁thing	-3448
▁having	-3449
llisesti	-3450
▁kiittää	-3451
▁jäsenvaltiot	-3452
hti	-3453
osu	-3454
yös	-3455
▁Sub	-3456
▁onnit	-3457
▁motion	-3458
▁substan	-3459
▁extremely	-3460
the	-3461
entre	-3462
▁konk	-3463
▁Lopuksi	-3464
▁partners	-3465
amaan	-3466
jojen	-3467
▁uusia	-3468
▁hon	-3469
▁kuuluu	-3470
▁reform	-3471
▁minä	-3472
isille	-3473
▁julka	-3474
▁vaihe	-3475
▁aiheut	-3476
▁valiokunta	-3477
▁den	-3478
▁ihm	-3479
▁oblig	-3480
▁Tempus	-3481
kki	-3482
▁lisään	-3483
▁olivat	-3484
▁efforts	-3485
▁kilpail	-3486
▁ratkais	-3487
ollisesti	-3488
vernmental	-3489
▁välttämätöntä	-3490
tömy	-3491
isuus	-3492
▁valtion	-3493
eks	-3494
▁All	-3495
▁bio	-3496
▁pop	-3497
beral	-3498
▁tais	-3499
jia	-3500
▁Vu	-3501
ising	-3502
äätös	-3503
▁liittyy	-3504
etä	-3505
kohd	-3506
▁summ	-3507
▁monitor	-3508
ait	-3509
▁best	-3510
▁food	-3511
▁tyyty	-3512
▁little	-3513
▁sovelta	-3514
▁signific	-3515
▁TH	-3516
▁lang	-3517
▁vaal	-3518
▁local	-3519
▁histor	-3520
▁huomiota	-3521
▁official	-3522
▁structural	-3523
TI	-3524
tall	-3525
▁Ad	-3526
▁sää	-3527
ased	-3528
▁sug	-3529
uudet	-3530
▁money	-3531
▁Econom	-3532
ba	-3533
ava	-3534
▁IN	-3535
aval	-3536
▁Gra	-3537
▁Pat	-3538
ingas	-3539
ustus	-3540
▁ongelma	-3541
▁concerns	-3542
▁yksimiel	-3543
▁tavoitteen	-3544
▁yhteistyötä	-3545
dom	-3546
lar	-3547
umme	-3548
▁ple	-3549
▁ras	-3550
engen	-3551
▁enlarge	-3552
▁actually	-3553
oung	-3554
▁silloin	-3555
▁underta	-3556
ellään	-3557
▁pitkä	-3558
▁kumppan	-3559
▁käsiteltä	-3560
co	-3561
voim	-3562
yhteis	-3563
▁vahvista	-3564
▁fundamental	-3565
▁hi	-3566
▁With	-3567
▁offer	-3568
▁Dut	-3569
▁nuor	-3570
▁tälla	-3571
▁varap	-3572
▁toimit	-3573
mukaista	-3574
▁liikkuv	-3575
▁siv	-3576
▁sure	-3577
▁vihre	-3578
▁administrative	-3579
lain	-3580
tended	-3581
vious	-3582
uttava	-3583
▁Second	-3584
▁hyväksyi	-3585
▁pöytäkir	-3586
mi	-3587
oo	-3588
uts	-3589
atin	-3590
ikka	-3591
▁kuningas	-3592
▁regulations	-3593
▁fre	-3594
▁kestä	-3595
▁enough	-3596
▁käsittelevän	-3597
emm	-3598
tor	-3599
▁draw	-3600
▁aloitte	-3601
▁kilpailu	-3602
ikö	-3603
ried	-3604
vers	-3605
ening	-3606
ively	-3607
▁huon	-3608
▁states	-3609
▁kohtaan	-3610
▁huolimatta	-3611
endit	-3612
▁Portu	-3613
▁parem	-3614
▁existing	-3615
ify	-3616
tac	-3617
töjä	-3618
▁Espan	-3619
▁employ	-3620
minister	-3621
▁hallituksen	-3622
▁klo	-3623
▁tode	-3624
▁advan	-3625
▁selvää	-3626
kset	-3627
ling	-3628
tavaa	-3629
▁Americ	-3630
▁tilanne	-3631
ellisesti	-3632
▁Economic	-3633
laa	-3634
ona	-3635
▁suhta	-3636
avar	-3637
fort	-3638
▁Bal	-3639
▁mom	-3640
mässä	-3641
vissä	-3642
▁Dutch	-3643
▁difficul	-3644
▁tarvitse	-3645
▁Ja	-3646
pact	-3647
▁cod	-3648
ternal	-3649
▁johtu	-3650
▁katso	-3651
▁syystä	-3652
▁voimak	-3653
▁initiative	-3654
miä	-3655
▁joht	-3656
▁onko	-3657
▁France	-3658
▁varmis	-3659
▁industr	-3660
▁välisen	-3661
▁cultural	-3662
liamentary	-3663
▁principles	-3664
▁disa	-3665
▁infr	-3666
▁välit	-3667
▁months	-3668
▁she	-3669
ittele	-3670
▁ollen	-3671
isf	-3672
elves	-3673
▁asked	-3674
▁korva	-3675
▁prepa	-3676
▁mentioned	-3677
▁objec	-3678
▁thems	-3679
▁langua	-3680
▁patent	-3681
▁solution	-3682
▁themselves	-3683
▁tuomioistu	-3684
itions	-3685
▁päättä	-3686
▁recent	-3687
▁perhaps	-3688
equ	-3689
ipl	-3690
▁idea	-3691
▁longer	-3692
▁muutta	-3693
▁keskustelu	-3694
▁eng	-3695
▁viik	-3696
heries	-3697
▁My	-3698
atio	-3699
reett	-3700
▁deter	-3701
▁growth	-3702
▁rahoitus	-3703
▁May	-3704
yteen	-3705
▁Ruot	-3706
▁feel	-3707
▁myönn	-3708
Euroopan	-3709
▁regards	-3710
enna	-3711
imum	-3712
ymmen	-3713
▁Nämä	-3714
▁lent	-3715
▁parla	-3716
▁varapuhe	-3717
kke	-3718
ret	-3719
▁THE	-3720
iljel	-3721
▁excell	-3722
governmental	-3723
ean	-3724
päiv	-3725
▁Vaik	-3726
▁naisten	-3727
▁tulevaisuudessa	-3728
▁cla	-3729
cient	-3730
▁hoit	-3731
▁Koska	-3732
alainen	-3733
▁harmon	-3734
▁quality	-3735
▁budgetary	-3736
▁talousarvio	-3737
idel	-3738
▁Ind	-3739
▁erin	-3740
ably	-3741
iled	-3742
kuper	-3743
▁ydin	-3744
▁total	-3745
▁suorit	-3746
ohjelman	-3747
ettavasti	-3748
▁esitetty	-3749
▁standards	-3750
▁jud	-3751
▁sul	-3752
atory	-3753
mästä	-3754
▁step	-3755
isters	-3756
▁young	-3757
▁office	-3758
▁Finally	-3759
▁maintain	-3760
urd	-3761
maks	-3762
▁anta	-3763
▁jatkuv	-3764
▁received	-3765
▁erityisen	-3766
▁direktiivin	-3767
▁Pe	-3768
tavia	-3769
kirjoit	-3770
▁Toivon	-3771
▁practice	-3772
itar	-3773
uole	-3774
ostaa	-3775
▁circ	-3776
palvel	-3777
isuutta	-3778
▁huomaut	-3779
▁koskevien	-3780
▁Vo	-3781
tekn	-3782
innäkin	-3783
▁varsin	-3784
öitä	-3785
▁prec	-3786
▁komissiota	-3787
▁congratulate	-3788
most	-3789
olta	-3790
vänä	-3791
▁basic	-3792
ika	-3793
cies	-3794
▁ing	-3795
nessä	-3796
order	-3797
▁four	-3798
▁mielip	-3799
▁moment	-3800
▁parties	-3801
▁konkreett	-3802
▁management	-3803
▁ir	-3804
orth	-3805
▁taka	-3806
▁valti	-3807
▁consumers	-3808
▁legislative	-3809
▁u	-3810
medi	-3811
side	-3812
ights	-3813
▁torj	-3814
▁työsken	-3815
▁excellent	-3816
▁enlargement	-3817
▁.	-3818
pid	-3819
reg	-3820
iving	-3821
▁heik	-3822
▁held	-3823
▁plan	-3824
astojen	-3825
▁yritysten	-3826
ojel	-3827
istus	-3828
lands	-3829
▁Vice	-3830
mitted	-3831
▁keino	-3832
▁artikla	-3833
▁mahdollisimman	-3834
▁anne	-3835
▁doub	-3836
▁luku	-3837
▁Schengen	-3838
▁approved	-3839
▁ratkaise	-3840
▁item	-3841
▁doing	-3842
▁kahden	-3843
▁yksityis	-3844
Ul	-3845
lav	-3846
iaan	-3847
▁ilma	-3848
kuussa	-3849
▁share	-3850
▁ympäristön	-3851
▁vis	-3852
▁data	-3853
▁ensisi	-3854
▁Italian	-3855
▁edustaja	-3856
▁objectives	-3857
):	-3858
ele	-3859
lob	-3860
▁käyttö	-3861
▁tasapa	-3862
▁vaikuttaa	-3863
▁established	-3864
osuhte	-3865
ians	-3866
kana	-3867
▁Hän	-3868
jille	-3869
▁aikais	-3870
▁arvois	-3871
▁needed	-3872
▁jälleen	-3873
tig	-3874
▁Jap	-3875
▁pen	-3876
tivel	-3877
▁char	-3878
eneral	-3879
▁asioita	-3880
▁päätöslauselm	-3881
TE	-3882
kit	-3883
cept	-3884
▁EMU	-3885
▁keep	-3886
▁aikaa	-3887
▁pysty	-3888
▁teitä	-3889
▁appear	-3890
▁joihin	-3891
▁Subject	-3892
▁alkuper	-3893
▁teknolog	-3894
▁Ku	-3895
▁Sam	-3896
▁several	-3897
▁hyväksyt	-3898
▁Aihe	-3899
▁odot	-3900
▁gener	-3901
▁perin	-3902
ick	-3903
kein	-3904
▁pare	-3905
▁tehnyt	-3906
▁toivon	-3907
▁Ka	-3908
▁ago	-3909
▁mel	-3910
atives	-3911
fortun	-3912
ittees	-3913
▁nothing	-3914
▁required	-3915
ynyt	-3916
▁Dem	-3917
masta	-3918
▁until	-3919
▁kaupan	-3920
▁toiminnan	-3921
US	-3922
▁Us	-3923
enteen	-3924
tively	-3925
ibility	-3926
▁continu	-3927
▁tarvitaan	-3928
uly	-3929
paan	-3930
agraph	-3931
▁nimittäin	-3932
▁lopull	-3933
▁achieved	-3934
valiokunnan	-3935
▁unemployment	-3936
sen	-3937
entu	-3938
▁either	-3939
▁hallitus	-3940
▁TIR	-3941
▁priv	-3942
▁broad	-3943
▁oikein	-3944
▁ihmisten	-3945
▁täytäntöönpan	-3946
yhd	-3947
▁Jo	-3948
▁Ita	-3949
▁sav	-3950
ointed	-3951
▁consul	-3952
▁economy	-3953
ettaisiin	-3954
▁strategy	-3955
▁Regulation	-3956
Ua	-3957
elä	-3958
▁käy	-3959
▁tekee	-3960
▁agreed	-3961
▁voting	-3962
▁contribution	-3963
by	-3964
▁Vi	-3965
ettom	-3966
oss	-3967
▁EP	-3968
sten	-3969
▁Nyt	-3970
▁air	-3971
▁Myös	-3972
▁seen	-3973
miehen	-3974
ineiden	-3975
▁organiz	-3976
lation	-3977
▁ilmais	-3978
▁stress	-3979
▁Ranskan	-3980
▁osallistu	-3981
▁stage	-3982
▁esitys	-3983
▁tyytyvä	-3984
ley	-3985
▁ai	-3986
▁vol	-3987
▁qual	-3988
aisuus	-3989
itystä	-3990
▁fight	-3991
▁ottaen	-3992
▁tapaht	-3993
▁though	-3994
▁although	-3995
▁koskevia	-3996
▁allekirjoit	-3997
ottu	-3998
▁pohj	-3999
▁ship	-4000
▁Paper	-4001
▁purpos	-4002
▁criteria	-4003
▁relating	-4004
eman	-4005
äsnä	-4006
▁address	-4007
▁conclud	-4008
▁lainsäädäntö	-4009
▁kr	-4010
uvan	-4011
▁Bar	-4012
▁huume	-4013
▁työtä	-4014
▁tavoin	-4015
▁mission	-4016
▁joitakin	-4017
▁mennessä	-4018
▁ratkaisu	-4019
▁puitteissa	-4020
po	-4021
▁fully	-4022
▁onnist	-4023
▁Toiseksi	-4024
▁priority	-4025
▁kansallisten	-4026
bly	-4027
maa	-4028
isis	-4029
▁You	-4030
▁Rule	-4031
▁maat	-4032
▁mies	-4033
▁tänä	-4034
suojel	-4035
ustelu	-4036
▁promote	-4037
▁haluamme	-4038
▁velvollis	-4039
ught	-4040
▁Wor	-4041
▁beg	-4042
nerah	-4043
▁Tark	-4044
▁link	-4045
▁carry	-4046
▁Vaikka	-4047
▁paikall	-4048
▁implement	-4049
NI	-4050
icy	-4051
▁II	-4052
mise	-4053
uuta	-4054
utkin	-4055
▁King	-4056
umattom	-4057
▁vakuut	-4058
▁benefit	-4059
▁järjestä	-4060
▁Er	-4061
hall	-4062
▁glob	-4063
▁life	-4064
▁equal	-4065
▁makes	-4066
▁included	-4067
▁korostaa	-4068
oto	-4069
isena	-4070
▁child	-4071
▁impact	-4072
▁kohdist	-4073
▁varmasti	-4074
uds	-4075
▁US	-4076
isemp	-4077
▁lyhy	-4078
isissa	-4079
▁kiire	-4080
▁amount	-4081
▁carried	-4082
▁valvonta	-4083
▁La	-4084
▁Li	-4085
▁Onko	-4086
▁jout	-4087
astoin	-4088
▁Tällä	-4089
▁effic	-4090
▁halua	-4091
▁staff	-4092
▁Centre	-4093
▁johtaa	-4094
▁tulliv	-4095
▁document	-4096
▁koulutus	-4097
▁previous	-4098
egal	-4099
▁day	-4100
▁aika	-4101
▁capa	-4102
▁Japan	-4103
▁läsnä	-4104
▁called	-4105
▁obvious	-4106
▁protect	-4107
▁kehityksen	-4108
iiv	-4109
▁Si	-4110
▁pot	-4111
▁sus	-4112
▁cred	-4113
Office	-4114
▁Amendment	-4115
ET	-4116
ef	-4117
nö	-4118
truct	-4119
▁loppu	-4120
▁tutkimus	-4121
järjestelmä	-4122
hern	-4123
iste	-4124
▁joll	-4125
▁asiaan	-4126
▁etu	-4127
▁fam	-4128
▁kär	-4129
▁wiU	-4130
▁true	-4131
▁parha	-4132
järjesty	-4133
▁mietintöä	-4134
▁significant	-4135
Uy	-4136
ets	-4137
pen	-4138
iven	-4139
ugos	-4140
▁due	-4141
vistä	-4142
▁post	-4143
heless	-4144
ittain	-4145
▁mikäli	-4146
▁movement	-4147
▁jäsenvaltioissa	-4148
outh	-4149
▁Kre	-4150
▁Yhte	-4151
▁entire	-4152
▁kaupun	-4153
▁kuljetus	-4154
▁tapahtuu	-4155
▁työllisyys	-4156
dem	-4157
äni	-4158
part	-4159
isenä	-4160
▁term	-4161
▁vähän	-4162
ugoslav	-4163
▁valvon	-4164
▁changes	-4165
▁valtuus	-4166
▁mahdollisuus	-4167
▁wit	-4168
▁käynn	-4169
▁immedi	-4170
▁Kingdom	-4171
▁workers	-4172
ijn	-4173
eiden	-4174
ustav	-4175
▁käänn	-4176
▁agenda	-4177
▁tabled	-4178
▁December	-4179
▁markkino	-4180
erc	-4181
rael	-4182
▁One	-4183
▁wUl	-4184
▁monet	-4185
▁crisis	-4186
▁seuraa	-4187
▁fishing	-4188
▁technology	-4189
▁opportunities	-4190
ame	-4191
pit	-4192
gest	-4193
▁conn	-4194
▁Secondly	-4195
▁documents	-4196
▁z	-4197
ityksiä	-4198
kuntien	-4199
▁prepar	-4200
▁edistää	-4201
▁yksittä	-4202
politiikkaa	-4203
▁Let	-4204
▁Fund	-4205
▁dang	-4206
▁central	-4207
▁presented	-4208
ief	-4209
enten	-4210
▁noin	-4211
intarv	-4212
▁Patijn	-4213
▁National	-4214
▁keskustelun	-4215
anga	-4216
pain	-4217
▁absol	-4218
▁build	-4219
▁meitä	-4220
▁Minister	-4221
▁kyseessä	-4222
▁välttämät	-4223
▁conclusion	-4224
EU	-4225
▁Car	-4226
▁Net	-4227
ators	-4228
jassa	-4229
unction	-4230
▁nature	-4231
▁yhteistyön	-4232
etut	-4233
iston	-4234
▁koro	-4235
▁demons	-4236
▁produc	-4237
▁return	-4238
▁kunnioit	-4239
▁increased	-4240
▁elin	-4241
▁nimen	-4242
▁practical	-4243
▁valtioiden	-4244
kut	-4245
unti	-4246
▁civil	-4247
▁sanoi	-4248
▁start	-4249
▁väkiv	-4250
periaat	-4251
▁tutkintavalio	-4252
talo	-4253
▁fig	-4254
iding	-4255
malla	-4256
▁asti	-4257
miselle	-4258
bilities	-4259
▁olevien	-4260
▁demonstr	-4261
▁järjestelmä	-4262
▁järjestelmän	-4263
anu	-4264
▁PPE	-4265
▁toi	-4266
itean	-4267
▁Pres	-4268
public	-4269
tamalla	-4270
▁satisf	-4271
▁jolloin	-4272
▁sitting	-4273
▁determin	-4274
▁sisämark	-4275
comm	-4276
gree	-4277
allan	-4278
telut	-4279
▁Form	-4280
▁vaat	-4281
▁Kansa	-4282
▁missä	-4283
▁design	-4284
▁toisen	-4285
▁Chairman	-4286
ysym	-4287
▁luo	-4288
▁past	-4289
▁veto	-4290
essaan	-4291
▁effec	-4292
▁depend	-4293
▁remain	-4294
AS	-4295
temp	-4296
ucture	-4297
▁scient	-4298
▁actions	-4299
▁Maa	-4300
▁syy	-4301
▁Tied	-4302
▁hard	-4303
▁sille	-4304
▁culture	-4305
▁toimintaa	-4306
gra	-4307
▁thus	-4308
▁kieltä	-4309
▁ymmärr	-4310
▁creation	-4311
▁myöskään	-4312
▁Convention	-4313
▁parliament	-4314
▁poliittisen	-4315
▁päätöslauselma	-4316
toc	-4317
▁Emme	-4318
▁täyd	-4319
▁esittäjä	-4320
▁toimenpiteitä	-4321
▁Bud	-4322
▁norm	-4323
▁järke	-4324
▁relev	-4325
▁commer	-4326
▁useita	-4327
▁alueiden	-4328
▁transpar	-4329
▁assistance	-4330
OR	-4331
ismin	-4332
uljet	-4333
▁syrj	-4334
▁turva	-4335
▁applied	-4336
▁expendit	-4337
▁independ	-4338
▁investig	-4339
▁monetary	-4340
▁tarkoittaa	-4341
▁talousarvion	-4342
vy	-4343
ssä	-4344
vasta	-4345
▁ponn	-4346
▁upon	-4347
udsman	-4348
▁telev	-4349
▁täyden	-4350
▁British	-4351
▁nopeasti	-4352
▁toteuttaa	-4353
fortunately	-4354
▁kysymyksen	-4355
ini	-4356
pre	-4357
▁Ko	-4358
iter	-4359
▁tosi	-4360
pected	-4361
▁lähet	-4362
allinen	-4363
▁keskit	-4364
▁obtain	-4365
▁currently	-4366
bac	-4367
▁exch	-4368
▁sour	-4369
▁poista	-4370
▁elections	-4371
▁politiikan	-4372
▁Her	-4373
▁vas	-4374
▁EURO	-4375
▁pois	-4376
▁occas	-4377
▁siirty	-4378
▁Inquiry	-4379
▁decided	-4380
tuna	-4381
udan	-4382
▁poikke	-4383
▁energia	-4384
▁Tra	-4385
▁mind	-4386
▁myötä	-4387
▁kolmans	-4388
▁osapuol	-4389
▁expenditure	-4390
▁komissiolle	-4391
oman	-4392
▁poh	-4393
▁list	-4394
yminen	-4395
▁conta	-4396
▁tilan	-4397
▁näistä	-4398
▁laatima	-4399
▁paremmin	-4400
▁ulkopuole	-4401
▁rakennerah	-4402
▁Ky	-4403
▁lö	-4404
▁bear	-4405
stance	-4406
▁Develop	-4407
▁perustu	-4408
▁Yhteisön	-4409
▁luonnollisesti	-4410
käyt	-4411
miin	-4412
▁try	-4413
ledge	-4414
rimin	-4415
▁repe	-4416
▁väes	-4417
▁former	-4418
▁company	-4419
▁Du	-4420
itään	-4421
▁luom	-4422
ydestä	-4423
▁bodies	-4424
▁niihin	-4425
▁lisäänty	-4426
▁Amsterdamin	-4427
",	-4428
▁('	-4429
▁Hy	-4430
ansk	-4431
pite	-4432
▁Roth	-4433
▁duty	-4434
▁vastaa	-4435
▁Portugal	-4436
ollisuuden	-4437
kat	-4438
ock	-4439
▁Af	-4440
▁lin	-4441
imilar	-4442
ärjest	-4443
▁pursu	-4444
▁Policy	-4445
▁toimielinten	-4446
teli	-4447
▁Omb	-4448
umaan	-4449
▁tell	-4450
▁Minutes	-4451
▁paragraph	-4452
▁Parlamentti	-4453
mieh	-4454
▁jäs	-4455
ested	-4456
▁ensi	-4457
▁line	-4458
ederal	-4459
▁voted	-4460
▁review	-4461
▁alkuperä	-4462
▁committees	-4463
▁difficulties	-4464
▁yes	-4465
▁head	-4466
▁piir	-4467
▁pyytää	-4468
▁colleagues	-4469
▁mietinnöstä	-4470
',	-4471
be	-4472
taut	-4473
▁sil	-4474
▁fair	-4475
▁Alank	-4476
▁suunn	-4477
isation	-4478
itetaan	-4479
▁Former	-4480
▁enable	-4481
▁export	-4482
▁käytettä	-4483
▁representatives	-4484
anad	-4485
hank	-4486
▁using	-4487
alaista	-4488
▁Israel	-4489
▁monitoring	-4490
▁five	-4491
ourable	-4492
▁sisältää	-4493
▁kehitystä	-4494
▁toimielim	-4495
▁kysymykseen	-4496
öt	-4497
▁ilo	-4498
▁tuh	-4499
ought	-4500
▁Kesk	-4501
▁vaati	-4502
▁investo	-4503
▁parlamen	-4504
▁integration	-4505
The	-4506
kas	-4507
▁sense	-4508
allista	-4509
▁vaadit	-4510
▁reading	-4511
▁tehdään	-4512
▁merkitsee	-4513
▁ehdotuksia	-4514
▁puheenvuoro	-4515
ding	-4516
▁coll	-4517
▁Agree	-4518
▁lähesty	-4519
▁olemaan	-4520
President	-4521
▁budjetti	-4522
tem	-4523
pros	-4524
erous	-4525
nössä	-4526
rency	-4527
hesion	-4528
urance	-4529
▁äänesty	-4530
▁Ombudsman	-4531
▁merkittävä	-4532
▁throughout	-4533
bod	-4534
itur	-4535
vist	-4536
▁der	-4537
ikään	-4538
omais	-4539
▁kaiken	-4540
▁erityis	-4541
▁Luxembourg	-4542
▁poliittinen	-4543
▁Gu	-4544
▁St	-4545
crib	-4546
▁Bang	-4547
▁valvo	-4548
▁extent	-4549
▁kauppa	-4550
▁suffic	-4551
▁threat	-4552
▁päivänä	-4553
ival	-4554
määr	-4555
▁low	-4556
tally	-4557
västä	-4558
▁dest	-4559
▁pidä	-4560
▁road	-4561
▁tupa	-4562
▁comes	-4563
▁Toinen	-4564
▁declar	-4565
▁rakenn	-4566
▁tietoa	-4567
▁Central	-4568
UN	-4569
hden	-4570
▁taas	-4571
iljelij	-4572
▁Associ	-4573
▁Sweden	-4574
▁detail	-4575
▁haluaa	-4576
▁toinen	-4577
▁luottam	-4578
▁onnitella	-4579
▁organizations	-4580
jasta	-4581
▁joul	-4582
▁restr	-4583
▁tietää	-4584
▁Vastaus	-4585
▁governments	-4586
ura	-4587
▁Mu	-4588
▁jää	-4589
valtio	-4590
▁plann	-4591
▁analysis	-4592
▁voimakka	-4593
▁toisaalta	-4594
PT	-4595
▁Do	-4596
▁Ni	-4597
ilait	-4598
▁aikoo	-4599
ettujen	-4600
▁sijoit	-4601
▁relevant	-4602
him	-4603
htä	-4604
▁Dan	-4605
valta	-4606
▁hear	-4607
▁kohte	-4608
▁kokem	-4609
▁remin	-4610
▁Germany	-4611
▁todellakin	-4612
igh	-4613
ator	-4614
▁MEP	-4615
▁Str	-4616
isyys	-4617
▁June	-4618
▁väärin	-4619
▁kehityks	-4620
▁considered	-4621
bacco	-4622
emann	-4623
erial	-4624
▁doubt	-4625
▁ground	-4626
▁uusien	-4627
▁välinen	-4628
sibilities	-4629
▁consequences	-4630
▁institutional	-4631
▁lainsäädännön	-4632
▁Eu	-4633
▁chall	-4634
▁corre	-4635
▁defin	-4636
▁enemm	-4637
▁attemp	-4638
▁jonkin	-4639
▁sijaan	-4640
▁sovell	-4641
idelines	-4642
▁ainakin	-4643
▁vähentä	-4644
stitution	-4645
▁regarding	-4646
▁experience	-4647
▁population	-4648
sissa	-4649
▁took	-4650
isellä	-4651
llistä	-4652
▁along	-4653
▁refle	-4654
▁vital	-4655
▁muassa	-4656
▁ehdotus	-4657
▁otettava	-4658
▁relation	-4659
▁asianmuka	-4660
▁International	-4661
ool	-4662
▁tuo	-4663
▁kysy	-4664
▁note	-4665
▁Rights	-4666
▁prepared	-4667
▁Bangemann	-4668
▁liittyviä	-4669
▁tarkistuksia	-4670
sta	-4671
ecut	-4672
▁ahe	-4673
▁lähtö	-4674
▁confir	-4675
▁näyttää	-4676
▁terveys	-4677
▁stability	-4678
▁developing	-4679
▁introduction	-4680
LA	-4681
ob	-4682
via	-4683
ätte	-4684
▁Bon	-4685
▁alan	-4686
▁milj	-4687
▁opet	-4688
▁susta	-4689
▁takes	-4690
▁asiant	-4691
▁global	-4692
▁effects	-4693
▁external	-4694
▁Tal	-4695
qvist	-4696
▁suff	-4697
▁tasa	-4698
▁kolmann	-4699
▁proceed	-4700
▁yhteinen	-4701
▁Development	-4702
ju	-4703
ters	-4704
akoul	-4705
izing	-4706
▁kesä	-4707
▁luoda	-4708
▁profess	-4709
▁statement	-4710
nen	-4711
blin	-4712
▁edes	-4713
▁turn	-4714
▁väline	-4715
▁tietoja	-4716
enjohtaja	-4717
▁tietenkin	-4718
▁Presidency	-4719
▁perustamissopim	-4720
▁eth	-4721
▁wat	-4722
tivat	-4723
▁argu	-4724
▁päästä	-4725
▁Environ	-4726
▁Kysymys	-4727
▁huolest	-4728
▁delegation	-4729
▁sl	-4730
yhte	-4731
▁lar	-4732
ittely	-4733
selves	-4734
▁exerc	-4735
▁ensisij	-4736
ulf	-4737
▁estä	-4738
vallan	-4739
▁liikenne	-4740
▁saavutta	-4741
▁Kysymyksen	-4742
▁Maastricht	-4743
▁fr	-4744
▁Nor	-4745
▁etc	-4746
▁hyl	-4747
▁Tätä	-4748
▁rool	-4749
▁Fisch	-4750
▁saying	-4751
▁involve	-4752
▁sellaisen	-4753
▁accordance	-4754
▁Association	-4755
ennä	-4756
▁Res	-4757
▁six	-4758
anuary	-4759
▁kulut	-4760
▁siltä	-4761
alaiset	-4762
asiakir	-4763
▁critic	-4764
▁todeta	-4765
▁yhteisöjen	-4766
▁em	-4767
joja	-4768
▁Väl	-4769
▁sija	-4770
intään	-4771
▁study	-4772
▁tekij	-4773
▁saanut	-4774
▁Customs	-4775
▁Republic	-4776
▁children	-4777
▁Ha	-4778
▁Of	-4779
erve	-4780
▁nam	-4781
innan	-4782
▁osin	-4783
▁price	-4784
▁Dublin	-4785
▁compro	-4786
▁everyone	-4787
▁jäsenten	-4788
▁according	-4789
▁investment	-4790
▁teollisuus	-4791
▁Ass	-4792
▁han	-4793
▁hark	-4794
▁reply	-4795
▁labour	-4796
▁passit	-4797
▁tiedotus	-4798
pet	-4799
▁Az	-4800
omat	-4801
päin	-4802
ering	-4803
hteer	-4804
▁caus	-4805
▁eval	-4806
▁flex	-4807
▁jatk	-4808
▁Jäsen	-4809
▁pyrki	-4810
▁muutam	-4811
▁äänest	-4812
▁funding	-4813
▁Luxemburg	-4814
▁Sc	-4815
tial	-4816
▁When	-4817
▁vies	-4818
rought	-4819
▁eteen	-4820
▁syytä	-4821
ellista	-4822
▁crimin	-4823
▁giving	-4824
▁suuria	-4825
▁teidän	-4826
▁kehitty	-4827
▁näkökul	-4828
▁Internet	-4829
▁accepted	-4830
▁encourage	-4831
▁operation	-4832
▁provision	-4833
...	-4834
aisi	-4835
ully	-4836
ysti	-4837
▁body	-4838
▁miksi	-4839
▁Ministers	-4840
ude	-4841
▁log	-4842
▁ansi	-4843
▁luon	-4844
▁pelk	-4845
▁rate	-4846
▁risti	-4847
▁saman	-4848
▁whose	-4849
▁tietojen	-4850
▁käsitellä	-4851
▁yhteiskunn	-4852
▁requirements	-4853
ics	-4854
▁soon	-4855
▁task	-4856
lannin	-4857
yksiin	-4858
▁claim	-4859
▁kyllä	-4860
▁monim	-4861
▁reach	-4862
▁myöntä	-4863
▁Justice	-4864
▁sisällä	-4865
▁currency	-4866
▁tarkoituksena	-4867
▁kertaa	-4868
▁January	-4869
▁advanta	-4870
▁paranta	-4871
▁Alankoma	-4872
▁referred	-4873
▁periaatte	-4874
▁vahvistaa	-4875
▁oikeusasia	-4876
▁eurooppalaisen	-4877
cal	-4878
ihan	-4879
unsa	-4880
▁gra	-4881
▁hold	-4882
▁takia	-4883
▁material	-4884
▁discussed	-4885
jalla	-4886
▁loss	-4887
▁virka	-4888
tamista	-4889
▁määrin	-4890
▁Yhdysval	-4891
▁alueilla	-4892
▁Bur	-4893
vässä	-4894
▁Kiin	-4895
▁paid	-4896
▁crime	-4897
▁defence	-4898
▁tobacco	-4899
▁Algerian	-4900
▁koskevaa	-4901
▁consideration	-4902
CP	-4903
▁Ge	-4904
annon	-4905
uvien	-4906
▁sens	-4907
▁Agric	-4908
▁Democ	-4909
▁virhe	-4910
▁conflic	-4911
▁kaikille	-4912
LT	-4913
▁aU	-4914
▁neg	-4915
▁ilmi	-4916
▁theh	-4917
iranom	-4918
▁forms	-4919
ollinen	-4920
▁tulevat	-4921
▁viranomaisten	-4922
▁fl	-4923
ensive	-4924
▁valta	-4925
▁brought	-4926
politiikka	-4927
▁expressed	-4928
▁muistuttaa	-4929
ison	-4930
▁(')	-4931
▁Tod	-4932
▁vak	-4933
ettua	-4934
fully	-4935
itary	-4936
▁Minun	-4937
itykset	-4938
uuksien	-4939
▁function	-4940
▁tekemään	-4941
▁ratkaista	-4942
iva	-4943
▁OF	-4944
anut	-4945
koon	-4946
resp	-4947
viin	-4948
▁ill	-4949
▁mul	-4950
kysym	-4951
▁alka	-4952
▁tuon	-4953
▁yllä	-4954
päätös	-4955
ussels	-4956
▁uutta	-4957
änestys	-4958
▁hyödyn	-4959
lamentti	-4960
▁edellyt	-4961
KT	-4962
avan	-4963
burg	-4964
omin	-4965
tuot	-4966
▁cho	-4967
▁teki	-4968
ending	-4969
▁Rules	-4970
onetary	-4971
▁annual	-4972
▁saavut	-4973
▁finally	-4974
▁Fischler	-4975
Parliament	-4976
▁everything	-4977
tyi	-4978
tunut	-4979
▁More	-4980
▁pala	-4981
▁uskon	-4982
▁hyväksi	-4983
▁lopulta	-4984
▁pressure	-4985
▁wr	-4986
itim	-4987
▁pik	-4988
oihin	-4989
onnan	-4990
▁Cons	-4991
▁Miet	-4992
▁Oike	-4993
▁genu	-4994
▁tois	-4995
alance	-4996
▁close	-4997
▁kohti	-4998
▁limit	-4999
entions	-5000
uttavat	-5001
▁Answer	-5002
▁higher	-5003
▁laadit	-5004
▁aloilla	-5005
▁persons	-5006
ordination	-5007
▁sosiaalitur	-5008
▁ihmisoikeuksien	-5009
ydä	-5010
määrä	-5011
▁reac	-5012
▁condu	-5013
▁löytä	-5014
▁minkä	-5015
▁kannan	-5016
▁olleet	-5017
▁activity	-5018
▁elintarv	-5019
▁käytetään	-5020
▁ourselves	-5021
▁tapauksissa	-5022
ENT	-5023
käs	-5024
ests	-5025
ones	-5026
▁ase	-5027
▁roh	-5028
▁Austr	-5029
▁Keski	-5030
ostossa	-5031
▁hieman	-5032
▁levels	-5033
▁provides	-5034
ira	-5035
line	-5036
▁foc	-5037
▁measure	-5038
▁private	-5039
▁saattaa	-5040
▁Brussels	-5041
▁parliamentary	-5042
put	-5043
city	-5044
▁Bos	-5045
telen	-5046
llinen	-5047
▁Latin	-5048
▁huipp	-5049
▁laill	-5050
▁tasav	-5051
▁puolue	-5052
▁yritys	-5053
▁aiheuttaa	-5054
▁scientific	-5055
▁possibility	-5056
▁Pet	-5057
embly	-5058
▁fron	-5059
▁sent	-5060
isissä	-5061
ksemme	-5062
▁miljard	-5063
▁cent	-5064
▁begin	-5065
▁rajat	-5066
stances	-5067
▁ponnis	-5068
▁legitim	-5069
▁mahdollisuuksia	-5070
ili	-5071
aste	-5072
iver	-5073
uted	-5074
▁sito	-5075
elling	-5076
▁Spain	-5077
▁kuule	-5078
▁sanon	-5079
listalla	-5080
▁luonnon	-5081
▁tarkast	-5082
▁univers	-5083
▁yhteistä	-5084
▁authority	-5085
▁kumppanuus	-5086
▁considerable	-5087
teja	-5088
▁Span	-5089
▁anti	-5090
▁saavat	-5091
▁enterpr	-5092
▁outside	-5093
▁päättää	-5094
▁vahvist	-5095
▁tärkeitä	-5096
▁Bo	-5097
▁Va	-5098
attu	-5099
▁Our	-5100
arily	-5101
ishes	-5102
yssel	-5103
asiain	-5104
hemmän	-5105
▁hyödy	-5106
theless	-5107
tömästi	-5108
▁jatkaa	-5109
▁niille	-5110
▁farmers	-5111
▁thought	-5112
▁valitettavasti	-5113
li	-5114
anim	-5115
tific	-5116
▁oman	-5117
alaisen	-5118
▁naiset	-5119
▁olevat	-5120
▁status	-5121
▁content	-5122
▁laajentu	-5123
▁talouden	-5124
▁tarkoitus	-5125
Parlamentti	-5126
▁industrial	-5127
wh	-5128
hön	-5129
key	-5130
▁Eng	-5131
ounts	-5132
▁näkem	-5133
▁closed	-5134
▁Ensimmä	-5135
▁kuluttaj	-5136
▁confidence	-5137
rad	-5138
▁Ed	-5139
▁else	-5140
▁genet	-5141
▁käytä	-5142
▁kokoon	-5143
▁puuttu	-5144
▁infrastr	-5145
▁komissaar	-5146
▁potential	-5147
▁assessment	-5148
▁initiatives	-5149
isem	-5150
ulen	-5151
▁justi	-5152
tamatta	-5153
▁Kaikki	-5154
▁methods	-5155
▁varmistaa	-5156
vi	-5157
asi	-5158
iikan	-5159
▁usko	-5160
essään	-5161
▁olette	-5162
▁Further	-5163
▁suoraan	-5164
▁commercial	-5165
gn	-5166
▁Sa	-5167
tead	-5168
▁PSE	-5169
iiton	-5170
▁mole	-5171
▁publ	-5172
▁vält	-5173
inning	-5174
▁facil	-5175
▁mistä	-5176
▁shown	-5177
▁yliop	-5178
▁benefits	-5179
▁henkilös	-5180
▁voimassa	-5181
▁bre	-5182
▁kri	-5183
rated	-5184
▁says	-5185
▁koskaan	-5186
▁guidelines	-5187
▁mahdollisuuden	-5188
kum	-5189
kyky	-5190
omes	-5191
▁circum	-5192
▁raised	-5193
▁treatment	-5194
yyn	-5195
tiet	-5196
▁ASE	-5197
idaan	-5198
▁beef	-5199
▁bill	-5200
▁date	-5201
▁syyt	-5202
illaan	-5203
▁remind	-5204
▁täyttä	-5205
▁vaikutus	-5206
▁developed	-5207
ras	-5208
vet	-5209
hoit	-5210
orrow	-5211
telun	-5212
▁epäs	-5213
ikuuta	-5214
▁Agenda	-5215
▁toisin	-5216
▁viitta	-5217
▁minulle	-5218
▁lausunnon	-5219
▁taloudellisten	-5220
ikk	-5221
▁Pr	-5222
miss	-5223
▁rek	-5224
▁Uskon	-5225
▁yksin	-5226
▁muuten	-5227
▁created	-5228
▁response	-5229
▁completely	-5230
ör	-5231
EEC	-5232
acy	-5233
imm	-5234
ampa	-5235
used	-5236
▁adopt	-5237
▁artikl	-5238
▁unanim	-5239
▁Spanish	-5240
▁annetaan	-5241
▁evidence	-5242
▁toimival	-5243
▁Tiet	-5244
▁dipl	-5245
ketiet	-5246
▁Valio	-5247
▁asiat	-5248
▁jättä	-5249
▁Report	-5250
▁muodos	-5251
▁setting	-5252
▁violence	-5253
▁vähemmän	-5254
▁University	-5255
Un	-5256
ring	-5257
urin	-5258
tyvät	-5259
▁quick	-5260
▁times	-5261
▁tullut	-5262
▁noudatta	-5263
▁vapautta	-5264
▁reference	-5265
pane	-5266
▁Työ	-5267
▁kuv	-5268
▁July	-5269
▁Tähän	-5270
▁kohdan	-5271
▁medium	-5272
▁sitout	-5273
▁territ	-5274
▁virall	-5275
▁voimaan	-5276
ciliation	-5277
▁kysymyksiä	-5278
▁participation	-5279
OC	-5280
OP	-5281
ori	-5282
jois	-5283
tinen	-5284
▁ulko	-5285
▁Saksan	-5286
▁jäsenen	-5287
▁ehdottom	-5288
▁fisheries	-5289
▁keskustelua	-5290
ilen	-5291
arvio	-5292
▁seik	-5293
▁Thank	-5294
▁incor	-5295
aisille	-5296
▁pohjalta	-5297
▁vastuussa	-5298
▁asiantunti	-5299
▁käsittelevä	-5300
ca	-5301
▁Cy	-5302
aksi	-5303
more	-5304
ointi	-5305
utkim	-5306
▁tuki	-5307
ettuja	-5308
▁extra	-5309
▁paper	-5310
hdollis	-5311
▁Esitys	-5312
▁mukana	-5313
▁Neuvosto	-5314
▁tavoitteena	-5315
arn	-5316
▁Ca	-5317
pean	-5318
▁Hall	-5319
▁fall	-5320
▁tour	-5321
inable	-5322
▁decide	-5323
▁yhdist	-5324
▁Bryssel	-5325
▁suuntav	-5326
▁perustuu	-5327
▁Agreement	-5328
▁ensimmäinen	-5329
▁coordination	-5330
ece	-5331
elty	-5332
oinn	-5333
▁Bro	-5334
unnan	-5335
▁rest	-5336
astern	-5337
uneita	-5338
▁drawn	-5339
▁super	-5340
▁conver	-5341
▁animals	-5342
▁directly	-5343
▁hallinto	-5344
▁ohjelman	-5345
▁sosiaalisen	-5346
COM	-5347
▁aj	-5348
▁Tom	-5349
▁Vir	-5350
▁oleva	-5351
▁penal	-5352
▁repla	-5353
▁säädö	-5354
▁aktiiv	-5355
▁exclus	-5356
▁Monetary	-5357
▁connection	-5358
▁priorities	-5359
▁tuotteiden	-5360
▁instruments	-5361
▁recommendations	-5362
itz	-5363
umer	-5364
▁oma	-5365
asiassa	-5366
▁auttaa	-5367
▁degree	-5368
▁parann	-5369
▁samoin	-5370
▁ongelman	-5371
▁compromise	-5372
▁discussions	-5373
▁administration	-5374
pi	-5375
ker	-5376
kus	-5377
ilaj	-5378
usla	-5379
ception	-5380
misessä	-5381
otetaan	-5382
▁Danish	-5383
▁almost	-5384
▁balance	-5385
▁lopuksi	-5386
▁similar	-5387
▁vuosina	-5388
▁beginning	-5389
▁käyttöönot	-5390
▁kansalaiset	-5391
▁taloudellisen	-5392
▁kansainvälisen	-5393
ex	-5394
rid	-5395
wise	-5396
▁cap	-5397
terday	-5398
▁ranga	-5399
▁value	-5400
▁pyrkim	-5401
▁subsidi	-5402
▁haluavat	-5403
cel	-5404
kar	-5405
uer	-5406
▁Ob	-5407
▁Hel	-5408
▁mit	-5409
asian	-5410
utely	-5411
▁cross	-5412
ecutive	-5413
tations	-5414
........	-5415
▁työmark	-5416
▁ymmärtä	-5417
▁parlamenttia	-5418
▁yksityiskohta	-5419
kuu	-5420
▁kö	-5421
▁lik	-5422
▁mys	-5423
force	-5424
semme	-5425
▁kuts	-5426
▁Counc	-5427
▁Italy	-5428
▁avoid	-5429
▁drugs	-5430
▁kuulu	-5431
▁monia	-5432
annetta	-5433
suunnit	-5434
▁komissi	-5435
▁muuttaa	-5436
▁reached	-5437
▁sectors	-5438
▁produced	-5439
▁asetuksen	-5440
▁represent	-5441
▁konferenssin	-5442
org	-5443
okka	-5444
▁dam	-5445
▁tom	-5446
raken	-5447
▁ASEAN	-5448
▁estim	-5449
▁light	-5450
▁Turkey	-5451
herlands	-5452
▁Albania	-5453
▁concent	-5454
▁purpose	-5455
▁merkitys	-5456
▁ongelmat	-5457
▁recently	-5458
▁conference	-5459
▁kehittämistä	-5460
lier	-5461
rain	-5462
ineet	-5463
▁half	-5464
▁kään	-5465
▁päte	-5466
▁huippu	-5467
▁määrää	-5468
▁syistä	-5469
▁arvoisat	-5470
▁kiinnost	-5471
▁Environment	-5472
▁mielestämme	-5473
ltä	-5474
rup	-5475
kaup	-5476
▁Kolm	-5477
▁tiuk	-5478
tavien	-5479
▁known	-5480
▁prices	-5481
▁reduce	-5482
▁selvit	-5483
▁toista	-5484
aisuuden	-5485
▁asettaa	-5486
▁yleensä	-5487
▁päätöslauselman	-5488
alis	-5489
ikin	-5490
unta	-5491
yhti	-5492
▁key	-5493
▁lou	-5494
okone	-5495
equate	-5496
ranean	-5497
udesta	-5498
▁kauan	-5499
▁ments	-5500
▁onkin	-5501
▁wrong	-5502
▁Public	-5503
▁duties	-5504
▁rightly	-5505
▁tilanteen	-5506
▁commitment	-5507
▁conclusions	-5508
))	-5509
ub	-5510
sim	-5511
▁Tu	-5512
▁UK	-5513
aika	-5514
pril	-5515
oting	-5516
tocol	-5517
ureau	-5518
▁views	-5519
▁johtop	-5520
▁rauhan	-5521
▁transfer	-5522
unications	-5523
▁direction	-5524
▁knowledge	-5525
▁käytännön	-5526
▁tapahtunut	-5527
▁Netherlands	-5528
▁käsitellään	-5529
▁yhdenmukaista	-5530
uko	-5531
inut	-5532
opol	-5533
▁COM	-5534
tions	-5535
▁Lind	-5536
▁White	-5537
▁attit	-5538
▁istun	-5539
▁päätöks	-5540
▁chairman	-5541
▁olisivat	-5542
▁ehdotusta	-5543
▁enemmistö	-5544
▁poliittista	-5545
▁henkilökohta	-5546
keh	-5547
▁AN	-5548
enew	-5549
tujen	-5550
▁laid	-5551
hemmin	-5552
▁heard	-5553
ukselle	-5554
▁altern	-5555
entation	-5556
▁perinte	-5557
järjestön	-5558
▁säilyttä	-5559
▁insurance	-5560
▁tavaroiden	-5561
cks	-5562
▁bi	-5563
toon	-5564
annut	-5565
päivä	-5566
sovit	-5567
▁init	-5568
▁talk	-5569
keiden	-5570
ampaign	-5571
▁suppor	-5572
▁iloinen	-5573
▁liberal	-5574
▁tiedämme	-5575
▁president	-5576
▁vapaaehto	-5577
▁kansallisen	-5578
▁tarkistuksen	-5579
set	-5580
know	-5581
▁lev	-5582
▁pean	-5583
▁uiko	-5584
Uament	-5585
ittava	-5586
▁miele	-5587
▁Meillä	-5588
▁coming	-5589
▁distrib	-5590
▁controls	-5591
▁kaikissa	-5592
▁Ensinnäkin	-5593
▁demokratian	-5594
iance	-5595
▁epäl	-5596
▁face	-5597
▁rule	-5598
iction	-5599
▁kesken	-5600
▁täysist	-5601
iterranean	-5602
▁vaiheessa	-5603
je	-5604
ump	-5605
taar	-5606
▁Sil	-5607
tömiä	-5608
jected	-5609
kuntaa	-5610
▁reject	-5611
▁siellä	-5612
truction	-5613
▁Finland	-5614
▁talking	-5615
▁tarpeen	-5616
▁comments	-5617
▁seuraavana	-5618
ola	-5619
▁Rena	-5620
▁cens	-5621
▁päin	-5622
▁Eastern	-5623
▁Renault	-5624
▁elected	-5625
▁exchange	-5626
▁järjestö	-5627
▁community	-5628
▁introduced	-5629
▁implemented	-5630
▁transparency	-5631
LI	-5632
hu	-5633
urat	-5634
▁mur	-5635
▁Holl	-5636
▁week	-5637
elmien	-5638
ästään	-5639
▁maase	-5640
▁solid	-5641
▁mielessä	-5642
▁suhteessa	-5643
▁terrorism	-5644
järjestyksen	-5645
▁sopimukseen	-5646
orary	-5647
▁kats	-5648
▁April	-5649
elmista	-5650
▁maahan	-5651
▁record	-5652
▁alueell	-5653
▁correct	-5654
▁dealing	-5655
▁sisältä	-5656
▁parantaa	-5657
▁yritykset	-5658
▁absolutely	-5659
▁businesses	-5660
ging	-5661
igar	-5662
▁New	-5663
▁luv	-5664
▁type	-5665
ismark	-5666
telemme	-5667
▁CouncU	-5668
▁expect	-5669
ditional	-5670
kunnalle	-5671
▁compens	-5672
▁produce	-5673
▁reality	-5674
järjestelmää	-5675
▁politiikkaa	-5676
▁subsidiarity	-5677
Es	-5678
asb	-5679
toi	-5680
▁lia	-5681
apuol	-5682
uneen	-5683
▁temp	-5684
istaan	-5685
▁Since	-5686
▁medic	-5687
poliitt	-5688
▁aspect	-5689
▁concept	-5690
▁submitted	-5691
▁ensimmäisen	-5692
▁ACP	-5693
▁draf	-5694
▁expl	-5695
mattom	-5696
▁target	-5697
▁figures	-5698
▁ihmiset	-5699
▁lähtien	-5700
▁tavoite	-5701
▁operations	-5702
▁maailmanlaa	-5703
▁resolutions	-5704
AC	-5705
ibe	-5706
lad	-5707
▁Py	-5708
tech	-5709
▁cal	-5710
▁hin	-5711
where	-5712
▁pian	-5713
enpite	-5714
▁heinä	-5715
▁rahal	-5716
▁viera	-5717
▁Strasb	-5718
▁suurin	-5719
▁urgent	-5720
▁describ	-5721
▁partner	-5722
▁huomenna	-5723
▁reduction	-5724
▁oikeastaan	-5725
▁agriculture	-5726
ammin	-5727
telee	-5728
▁lopp	-5729
▁luov	-5730
▁prim	-5731
▁tamm	-5732
tömyys	-5733
▁dealt	-5734
▁mista	-5735
▁tunte	-5736
▁maassa	-5737
▁vaatii	-5738
▁minulla	-5739
▁traffic	-5740
▁campaign	-5741
▁selväksi	-5742
▁ParUament	-5743
▁tasapaino	-5744
▁additional	-5745
▁Ph	-5746
ards	-5747
erin	-5748
fied	-5749
▁USA	-5750
▁mut	-5751
istää	-5752
▁jaka	-5753
encies	-5754
▁estää	-5755
▁mihin	-5756
▁tukee	-5757
▁tulla	-5758
▁välia	-5759
viljelij	-5760
▁vastaava	-5761
▁toimenpiteet	-5762
RE	-5763
MENT	-5764
onom	-5765
oron	-5766
tore	-5767
▁Poh	-5768
ograph	-5769
▁alloc	-5770
▁grant	-5771
▁party	-5772
▁puhua	-5773
▁active	-5774
▁combat	-5775
▁oikeuksia	-5776
▁tullilait	-5777
▁huippukoko	-5778
ade	-5779
kkä	-5780
▁PH	-5781
▁oh	-5782
illar	-5783
valtu	-5784
▁Cont	-5785
▁ilme	-5786
▁influ	-5787
▁lopet	-5788
▁sport	-5789
▁pleased	-5790
▁pointed	-5791
▁encourag	-5792
▁tomorrow	-5793
rimination	-5794
▁parliaments	-5795
-,	-5796
zed	-5797
▁imm	-5798
▁sum	-5799
▁Kinn	-5800
▁Leon	-5801
ennäkö	-5802
▁Armen	-5803
▁March	-5804
▁arvos	-5805
▁attac	-5806
▁perhe	-5807
▁modern	-5808
▁trying	-5809
järjestö	-5810
▁allowed	-5811
▁tunnust	-5812
▁capacity	-5813
▁designed	-5814
▁määrärah	-5815
▁producers	-5816
▁edellyttää	-5817
ii	-5818
idät	-5819
jana	-5820
▁sch	-5821
▁top	-5822
▁mets	-5823
▁verk	-5824
retary	-5825
▁ainoa	-5826
▁kanta	-5827
▁occup	-5828
▁itsenä	-5829
▁kolmen	-5830
oikeuden	-5831
kuul	-5832
▁cun	-5833
echan	-5834
ineen	-5835
▁Sitä	-5836
▁Herra	-5837
▁cause	-5838
▁emerg	-5839
▁puole	-5840
▁volun	-5841
▁käännös	-5842
▁asioista	-5843
▁incorpor	-5844
▁tietysti	-5845
▁honourable	-5846
▁yhteensovit	-5847
KOM	-5848
▁Now	-5849
▁sek	-5850
▁nähd	-5851
isilla	-5852
▁gives	-5853
▁hakem	-5854
▁matka	-5855
▁muoto	-5856
▁renew	-5857
▁steps	-5858
▁synty	-5859
utkinto	-5860
▁merkin	-5861
▁vetoom	-5862
▁kohdalla	-5863
▁solutions	-5864
▁substantial	-5865
▁circumstances	-5866
NS	-5867
day	-5868
ente	-5869
▁Ang	-5870
aissa	-5871
▁antam	-5872
▁eläin	-5873
▁jatka	-5874
▁later	-5875
▁votes	-5876
▁epäile	-5877
▁lisätä	-5878
▁vahing	-5879
teknolog	-5880
▁genuine	-5881
▁suuntaan	-5882
▁jatkuvasti	-5883
▁merkitystä	-5884
▁teollisuuden	-5885
uls	-5886
▁UN	-5887
▁ge	-5888
kele	-5889
▁kin	-5890
▁tee	-5891
innän	-5892
oille	-5893
udanl	-5894
▁laps	-5895
oksista	-5896
▁earlier	-5897
▁limited	-5898
▁variety	-5899
▁meetings	-5900
▁yesterday	-5901
▁viranomaiset	-5902
▁huomattavasti	-5903
bia	-5904
gen	-5905
▁vic	-5906
yhmän	-5907
ctives	-5908
▁rapid	-5909
▁shows	-5910
▁kompro	-5911
▁quickly	-5912
▁informed	-5913
▁Transport	-5914
▁sensitive	-5915
▁supported	-5916
▁kuluttajien	-5917
▁tarkistusta	-5918
FI	-5919
ix	-5920
tiä	-5921
vis	-5922
term	-5923
▁blo	-5924
▁dead	-5925
▁Viime	-5926
utetaan	-5927
▁forces	-5928
▁Välimer	-5929
▁toimeen	-5930
isuudessa	-5931
olitiikan	-5932
▁intended	-5933
▁organization	-5934
raw	-5935
orin	-5936
vuod	-5937
▁Lab	-5938
▁prob	-5939
▁vanh	-5940
urally	-5941
▁const	-5942
▁huoma	-5943
istence	-5944
▁jättää	-5945
▁kymmen	-5946
▁muihin	-5947
▁ylittä	-5948
▁Transit	-5949
▁järjest	-5950
▁matkail	-5951
▁morning	-5952
▁related	-5953
▁tahansa	-5954
▁cohesion	-5955
▁kansalliset	-5956
▁increasingly	-5957
▁Esityslistalla	-5958
orn	-5959
ott	-5960
ifio	-5961
uttu	-5962
▁led	-5963
▁goes	-5964
▁withd	-5965
ettavaa	-5966
unnossa	-5967
▁convin	-5968
▁toivot	-5969
▁receive	-5970
▁sovelle	-5971
▁uudista	-5972
▁entirely	-5973
▁properly	-5974
▁työttömy	-5975
▁myöhemmin	-5976
▁puolustus	-5977
▁sustainable	-5978
▁consultation	-5979
communications	-5980
▁EY	-5981
▁Ra	-5982
▁SM	-5983
▁jne	-5984
▁saar	-5985
▁ways	-5986
orders	-5987
▁askel	-5988
▁ought	-5989
▁tiete	-5990
▁totta	-5991
itarian	-5992
pective	-5993
▁kantaa	-5994
▁mechan	-5995
▁namely	-5996
▁paitsi	-5997
▁censure	-5998
▁covered	-5999
▁luettel	-6000
▁minimum	-6001
▁network	-6002
▁prosess	-6003
▁Assembly	-6004
▁Regional	-6005
▁esittelijän	-6006
▁tutkimuksen	-6007
▁mahdollisesti	-6008
ansu	-6009
▁port	-6010
▁Marin	-6011
▁behind	-6012
▁strict	-6013
▁tuotta	-6014
▁vaikea	-6015
▁personal	-6016
▁rikollis	-6017
▁korkeakoul	-6018
▁osallistua	-6019
▁tilannetta	-6020
sij	-6021
hdon	-6022
▁Man	-6023
▁poU	-6024
iskel	-6025
▁Fore	-6026
▁osaa	-6027
▁tuen	-6028
▁ensin	-6029
▁banaan	-6030
▁regime	-6031
▁treaty	-6032
▁adoption	-6033
▁vastusta	-6034
▁yhteensä	-6035
▁tarkistus	-6036
▁pelkästään	-6037
▁Agriculture	-6038
▁riittävästi	-6039
▁tulevaisuuden	-6040
bU	-6041
tes	-6042
udun	-6043
▁nro	-6044
▁ssa	-6045
▁syr	-6046
▁poor	-6047
▁word	-6048
▁model	-6049
▁condem	-6050
▁events	-6051
▁myself	-6052
▁taxation	-6053
▁terveyden	-6054
CM	-6055
way	-6056
idem	-6057
▁App	-6058
▁urhe	-6059
uottam	-6060
▁defic	-6061
▁syrjä	-6062
prosess	-6063
▁school	-6064
▁Kinnock	-6065
▁coordin	-6066
▁tehneet	-6067
ettäisiin	-6068
▁criminal	-6069
▁hankkeen	-6070
▁pyritään	-6071
▁johtopäätö	-6072
▁opposition	-6073
▁recognition	-6074
lait	-6075
rate	-6076
▁cop	-6077
▁sos	-6078
annin	-6079
ellen	-6080
imaan	-6081
innin	-6082
▁kein	-6083
▁tonn	-6084
▁scope	-6085
▁sukup	-6086
ecision	-6087
▁mahdot	-6088
▁markets	-6089
▁ansiosta	-6090
▁accession	-6091
▁esitetään	-6092
▁selkeästi	-6093
▁koskevasta	-6094
▁enterprises	-6095
▁kokouksessa	-6096
▁kustannukset	-6097
CNS	-6098
ijat	-6099
aving	-6100
laista	-6101
▁brief	-6102
▁roopan	-6103
▁Belgian	-6104
▁affairs	-6105
▁failure	-6106
▁kasvilaj	-6107
▁language	-6108
▁sovittel	-6109
▁improving	-6110
▁mietinnös	-6111
▁instrument	-6112
▁establishment	-6113
▁CH	-6114
▁Kir	-6115
▁cru	-6116
▁wid	-6117
inson	-6118
techn	-6119
works	-6120
▁adap	-6121
▁Legal	-6122
▁firms	-6123
▁Turkin	-6124
▁animal	-6125
▁comput	-6126
▁liitto	-6127
puolueen	-6128
▁inquiry	-6129
▁aloittaa	-6130
▁complain	-6131
OS	-6132
pes	-6133
try	-6134
▁rac	-6135
stand	-6136
▁cigar	-6137
▁People	-6138
▁border	-6139
▁compre	-6140
▁extend	-6141
▁signed	-6142
▁Algeria	-6143
▁olosuhte	-6144
▁muutoksia	-6145
▁käytännössä	-6146
äh	-6147
etyn	-6148
▁AKT	-6149
▁Chr	-6150
▁div	-6151
▁tel	-6152
ehdot	-6153
▁abol	-6154
▁land	-6155
tember	-6156
▁focus	-6157
isyyden	-6158
▁kaikkein	-6159
▁käsittel	-6160
▁äänestys	-6161
▁introduce	-6162
▁effectively	-6163
upp	-6164
ajan	-6165
▁Nov	-6166
▁Tit	-6167
ilman	-6168
isely	-6169
matic	-6170
▁unac	-6171
▁ennak	-6172
▁kuole	-6173
▁plant	-6174
▁risks	-6175
▁borders	-6176
▁history	-6177
▁propose	-6178
▁regular	-6179
▁oikeutta	-6180
▁päätöksente	-6181
cto	-6182
pla	-6183
ury	-6184
▁hop	-6185
ytään	-6186
▁osan	-6187
▁raha	-6188
▁tack	-6189
▁vara	-6190
estaan	-6191
imäärä	-6192
reland	-6193
utensa	-6194
▁suunta	-6195
▁useful	-6196
▁Espanjan	-6197
▁military	-6198
▁sopimusten	-6199
▁taloudellinen	-6200
GC	-6201
▁äs	-6202
pect	-6203
▁jal	-6204
▁ansa	-6205
▁tiiv	-6206
istics	-6207
ulsory	-6208
▁aikav	-6209
▁separ	-6210
▁simpl	-6211
▁yrittä	-6212
▁session	-6213
iikenteen	-6214
▁Therefore	-6215
▁eteenpäin	-6216
▁Furthermore	-6217
▁seurauksena	-6218
▁jäsenvaltion	-6219
▁tie	-6220
▁via	-6221
▁mand	-6222
kauden	-6223
▁siirr	-6224
▁suuren	-6225
▁Foreign	-6226
▁joustav	-6227
▁ryhmäni	-6228
▁vastata	-6229
ministeri	-6230
▁complete	-6231
▁ymmärtää	-6232
▁vastaavan	-6233
▁mahdollisuudet	-6234
▁ho	-6235
ours	-6236
▁Var	-6237
▁won	-6238
temme	-6239
▁meat	-6240
ioiden	-6241
isivät	-6242
ranted	-6243
▁arran	-6244
▁olenn	-6245
▁pyynn	-6246
tellaan	-6247
▁Mikäli	-6248
▁monimut	-6249
▁naudanl	-6250
yhteistyö	-6251
▁creating	-6252
▁sanotaan	-6253
▁vaihtoehto	-6254
▁specifically	-6255
II	-6256
pl	-6257
ama	-6258
▁Am	-6259
▁af	-6260
erba	-6261
ques	-6262
tail	-6263
▁pil	-6264
ystem	-6265
▁Kiit	-6266
cedure	-6267
making	-6268
otamme	-6269
▁China	-6270
▁Budget	-6271
▁puutte	-6272
▁suhtaut	-6273
▁ehdottaa	-6274
▁tiedätte	-6275
prus	-6276
alled	-6277
ously	-6278
▁Turk	-6279
▁kuull	-6280
▁melko	-6281
▁olevia	-6282
▁vastuu	-6283
▁Ireland	-6284
▁closely	-6285
▁saadaan	-6286
▁improved	-6287
▁tunnusta	-6288
▁languages	-6289
▁Strasbourg	-6290
▁artiklassa	-6291
sy	-6292
ohl	-6293
▁YK	-6294
orms	-6295
iteen	-6296
▁Some	-6297
▁ille	-6298
▁name	-6299
▁perä	-6300
linson	-6301
▁Entinen	-6302
▁välistä	-6303
▁asioiden	-6304
▁monimutka	-6305
▁maailmanlaaju	-6306
ito	-6307
yond	-6308
▁vähä	-6309
▁early	-6310
▁parts	-6311
ologies	-6312
▁Cyprus	-6313
▁happen	-6314
▁pillar	-6315
▁billion	-6316
▁rakente	-6317
▁unaccep	-6318
▁independent	-6319
ETY	-6320
iso	-6321
▁old	-6322
▁rea	-6323
▁äär	-6324
apter	-6325
▁clar	-6326
▁hait	-6327
▁Georg	-6328
▁ilmen	-6329
▁tutki	-6330
akuljet	-6331
▁petosten	-6332
▁toimintaan	-6333
▁undertaking	-6334
▁riippumattom	-6335
eb	-6336
▁Bosn	-6337
▁Siinä	-6338
▁esitti	-6339
▁submit	-6340
▁suurta	-6341
▁ulottu	-6342
▁Swedish	-6343
▁aikaväl	-6344
▁loppuun	-6345
▁sources	-6346
▁November	-6347
▁contrary	-6348
▁eläinten	-6349
▁Tomlinson	-6350
▁esimerkki	-6351
▁todennäkö	-6352
▁institutionaal	-6353
cka	-6354
isc	-6355
▁Ta	-6356
ourn	-6357
▁DOC	-6358
▁sea	-6359
▁veh	-6360
itoim	-6361
matta	-6362
▁Inde	-6363
▁home	-6364
▁poli	-6365
▁sele	-6366
▁tyyd	-6367
▁Offic	-6368
▁takaa	-6369
▁letter	-6370
▁ryhtyä	-6371
▁toimet	-6372
▁toimii	-6373
▁saaneet	-6374
▁suggest	-6375
▁kyseisen	-6376
▁tuotanto	-6377
▁vähintään	-6378
▁contribute	-6379
▁partnership	-6380
▁toimitetaan	-6381
▁ehdotuksesta	-6382
ION	-6383
amer	-6384
usij	-6385
▁Aut	-6386
▁max	-6387
▁tek	-6388
▁heti	-6389
▁enorm	-6390
▁exact	-6391
▁tulli	-6392
istuksen	-6393
▁jäseniä	-6394
▁offices	-6395
▁respond	-6396
▁sanottava	-6397
▁convention	-6398
▁impossible	-6399
▁sufficient	-6400
▁developments	-6401
▁taloudellisia	-6402
den	-6403
▁')	-6404
tiete	-6405
▁Coll	-6406
▁pitk	-6407
▁whom	-6408
▁Afric	-6409
▁appre	-6410
▁inten	-6411
▁messa	-6412
▁minor	-6413
▁tietä	-6414
▁lausun	-6415
▁minusta	-6416
▁toimiin	-6417
▁vuosien	-6418
▁exercise	-6419
valiokunta	-6420
▁politiikka	-6421
▁esittelijää	-6422
▁establishing	-6423
▁organisations	-6424
▁taloudellista	-6425
▁työntekijöiden	-6426
▁toimenpiteisiin	-6427
atu	-6428
▁Uk	-6429
entä	-6430
piir	-6431
▁CHA	-6432
▁jur	-6433
ilaus	-6434
▁aine	-6435
▁After	-6436
▁kiell	-6437
isyyttä	-6438
ollista	-6439
▁cooper	-6440
▁maalis	-6441
▁sanoen	-6442
▁tervet	-6443
▁consist	-6444
▁despite	-6445
▁payment	-6446
▁kaikista	-6447
▁guarantees	-6448
▁pi	-6449
neen	-6450
roll	-6451
vaik	-6452
▁IGC	-6453
▁arr	-6454
▁flo	-6455
ottom	-6456
▁pyyn	-6457
▁side	-6458
▁Irish	-6459
▁PHARE	-6460
▁rates	-6461
▁vient	-6462
▁Bonino	-6463
▁simple	-6464
▁wishes	-6465
ollisten	-6466
▁remains	-6467
▁attitude	-6468
▁pidetään	-6469
▁äänestää	-6470
▁oikeuksien	-6471
▁sellaisten	-6472
▁immediately	-6473
▁neuvostolle	-6474
fl	-6475
▁Il	-6476
oina	-6477
itaan	-6478
▁left	-6479
▁Joint	-6480
▁Monti	-6481
▁death	-6482
▁kasvu	-6483
allisia	-6484
▁beyond	-6485
▁käytön	-6486
▁määrän	-6487
▁oikeut	-6488
▁thanks	-6489
telemaan	-6490
▁America	-6491
▁applies	-6492
▁natural	-6493
▁accident	-6494
▁kohdassa	-6495
▁kuuluvat	-6496
▁Toisaalta	-6497
▁ilmoittaa	-6498
▁ihmisoikeus	-6499
ugg	-6500
ula	-6501
vapa	-6502
▁big	-6503
oples	-6504
▁fear	-6505
▁Chair	-6506
▁metsä	-6507
▁pilar	-6508
▁pitän	-6509
▁fiscal	-6510
▁pyydän	-6511
▁työstä	-6512
▁comment	-6513
▁Procedure	-6514
▁Keskustelu	-6515
▁unacceptable	-6516
Com	-6517
ese	-6518
pers	-6519
▁EPJ	-6520
amber	-6521
▁Minä	-6522
▁away	-6523
▁firm	-6524
▁mall	-6525
▁Organ	-6526
▁Sillä	-6527
▁aimed	-6528
▁reven	-6529
▁prefer	-6530
▁rikkom	-6531
ritysten	-6532
▁tekevät	-6533
▁lääketiet	-6534
▁principal	-6535
▁saavuttaa	-6536
▁kolmansien	-6537
▁keskustella	-6538
bit	-6539
ohn	-6540
▁SP	-6541
inne	-6542
mist	-6543
▁Ken	-6544
▁PAR	-6545
iaate	-6546
telua	-6547
öistä	-6548
▁acts	-6549
cation	-6550
▁Energ	-6551
▁accom	-6552
▁elect	-6553
▁touko	-6554
▁weeks	-6555
▁asking	-6556
▁regret	-6557
▁requir	-6558
▁Austria	-6559
▁granted	-6560
▁näkökoh	-6561
▁takaisin	-6562
▁generally	-6563
▁aikaisemmin	-6564
▁vaikutuksia	-6565
▁Maastrichtin	-6566
iency	-6567
oitus	-6568
▁days	-6569
▁dise	-6570
▁luok	-6571
▁Third	-6572
▁joulu	-6573
▁kalta	-6574
▁kirja	-6575
kustann	-6576
tamisen	-6577
▁System	-6578
▁closer	-6579
▁secure	-6580
▁conduct	-6581
▁experts	-6582
▁justice	-6583
▁ratifio	-6584
▁toissij	-6585
▁Albanian	-6586
▁computer	-6587
▁conflict	-6588
▁implementing	-6589
▁puheenvuoron	-6590
nn	-6591
iro	-6592
pää	-6593
urss	-6594
▁Fab	-6595
▁age	-6596
andid	-6597
▁Pyyd	-6598
▁self	-6599
elliset	-6600
sopimus	-6601
▁limits	-6602
▁muista	-6603
European	-6604
▁element	-6605
▁instead	-6606
mahdollis	-6607
▁kaikkiin	-6608
▁providing	-6609
▁koskevassa	-6610
▁tulliviranom	-6611
▁yhtenäismark	-6612
Brit	-6613
ebru	-6614
etyt	-6615
uvot	-6616
▁run	-6617
immat	-6618
itors	-6619
▁alone	-6620
▁multi	-6621
ebruary	-6622
iveness	-6623
ohjelma	-6624
▁affect	-6625
▁jotain	-6626
▁käyttöä	-6627
▁tourism	-6628
▁yhdenty	-6629
formation	-6630
▁Administ	-6631
▁Director	-6632
▁contains	-6633
▁original	-6634
▁viraston	-6635
stitutional	-6636
▁ut	-6637
kinä	-6638
▁lie	-6639
orted	-6640
▁hava	-6641
intone	-6642
stunto	-6643
▁radio	-6644
▁etujen	-6645
▁Nations	-6646
▁instituut	-6647
▁published	-6648
▁sopimusta	-6649
▁structure	-6650
▁yhteistyössä	-6651
ift	-6652
tuja	-6653
▁bla	-6654
isuur	-6655
▁aims	-6656
▁fulf	-6657
▁kulu	-6658
enkiin	-6659
▁calls	-6660
▁event	-6661
▁taxes	-6662
▁Greece	-6663
▁etusij	-6664
▁otettu	-6665
▁unable	-6666
▁antanut	-6667
▁jotakin	-6668
▁kiinnit	-6669
▁building	-6670
▁networks	-6671
▁ydinvoim	-6672
▁committed	-6673
▁precisely	-6674
▁flexibility	-6675
▁unfortunately	-6676
itu	-6677
▁CF	-6678
▁CP	-6679
▁von	-6680
▁taan	-6681
aminen	-6682
ateral	-6683
▁Kypro	-6684
avaltio	-6685
▁candid	-6686
▁linked	-6687
▁police	-6688
▁demands	-6689
▁totally	-6690
▁detailed	-6691
▁equality	-6692
▁kulttuuri	-6693
▁varsinkin	-6694
▁tarvitsemme	-6695
▁tilanteesta	-6696
▁relationship	-6697
▁valiokunnassa	-6698
uge	-6699
atte	-6700
▁Den	-6701
▁East	-6702
▁Tans	-6703
iljely	-6704
oittaa	-6705
▁World	-6706
▁exten	-6707
▁taata	-6708
okraatt	-6709
uudelle	-6710
▁Talous	-6711
▁saatav	-6712
omioistu	-6713
▁practic	-6714
▁toimien	-6715
▁sisällyt	-6716
▁vuodesta	-6717
▁seriously	-6718
▁Eurooppane	-6719
▁toimivalta	-6720
▁tarkistukset	-6721
OK	-6722
hy	-6723
eni	-6724
▁MR	-6725
▁ru	-6726
hemm	-6727
isms	-6728
kans	-6729
uvia	-6730
▁kar	-6731
▁luj	-6732
iasta	-6733
kaupp	-6734
lated	-6735
▁matk	-6736
▁ones	-6737
llisen	-6738
▁recon	-6739
▁vuosi	-6740
hensive	-6741
▁across	-6742
▁around	-6743
▁exclud	-6744
▁niillä	-6745
▁stated	-6746
▁product	-6747
konferens	-6748
▁February	-6749
▁täydentä	-6750
▁Välimeren	-6751
▁epäluottam	-6752
▁solidarity	-6753
▁maatalouden	-6754
▁tehokkaasti	-6755
▁professional	-6756
▁toimenpiteiden	-6757
mia	-6758
▁cut	-6759
itaar	-6760
tamme	-6761
▁tarv	-6762
▁vero	-6763
ikevir	-6764
▁etuja	-6765
▁liber	-6766
▁vehic	-6767
▁exists	-6768
▁komite	-6769
ervation	-6770
▁capital	-6771
▁condemn	-6772
▁peoples	-6773
imerkiksi	-6774
▁American	-6775
▁rekister	-6776
▁Yhdysvall	-6777
▁colleague	-6778
▁obviously	-6779
▁vakavasti	-6780
▁voluntary	-6781
▁structures	-6782
▁voimakkaasti	-6783
pt	-6784
emin	-6785
hers	-6786
ätty	-6787
▁Ver	-6788
valti	-6789
▁Suom	-6790
▁diss	-6791
▁geen	-6792
▁luop	-6793
▁poll	-6794
▁viiv	-6795
▁leave	-6796
▁päivä	-6797
▁alkaen	-6798
▁kirjan	-6799
▁väestö	-6800
▁entistä	-6801
▁varojen	-6802
▁erilaisia	-6803
▁erinomais	-6804
▁sometimes	-6805
▁codecision	-6806
▁directives	-6807
▁suuntaviiv	-6808
▁kysymyksiin	-6809
▁sovelletaan	-6810
IL	-6811
aos	-6812
uth	-6813
ries	-6814
tasa	-6815
truc	-6816
▁ajo	-6817
▁lot	-6818
ighte	-6819
ipaik	-6820
orten	-6821
teitä	-6822
▁Asia	-6823
▁Esit	-6824
▁kaks	-6825
oikeus	-6826
▁asema	-6827
▁maata	-6828
▁uskot	-6829
▁worth	-6830
▁complex	-6831
▁overall	-6832
▁ensuring	-6833
▁probably	-6834
▁voisivat	-6835
▁differences	-6836
▁da	-6837
ruit	-6838
▁Rot	-6839
▁Ser	-6840
oming	-6841
sized	-6842
tintä	-6843
▁gain	-6844
etusti	-6845
General	-6846
▁aheady	-6847
▁herrat	-6848
istetaan	-6849
▁laittom	-6850
▁studies	-6851
▁Jugoslav	-6852
▁aiheesta	-6853
▁enormous	-6854
▁keskisuur	-6855
▁talousarvi	-6856
▁translation	-6857
▁markkinoiden	-6858
▁Tel	-6859
▁Mier	-6860
▁inno	-6861
ellaan	-6862
itämme	-6863
▁Ehdot	-6864
▁equip	-6865
▁tälle	-6866
▁acknow	-6867
▁checks	-6868
▁living	-6869
▁crucial	-6870
▁written	-6871
▁ilmaista	-6872
▁labelling	-6873
▁officials	-6874
▁päättynyt	-6875
▁parlamentaar	-6876
▁välittömästi	-6877
▁Mediterranean	-6878
UT	-6879
kson	-6880
▁bad	-6881
▁emb	-6882
▁seek	-6883
▁stop	-6884
Britann	-6885
▁edellä	-6886
▁aiemmin	-6887
▁citizen	-6888
▁ihmisiä	-6889
▁maximum	-6890
▁parempi	-6891
▁operators	-6892
enge	-6893
ream	-6894
▁Col	-6895
▁Use	-6896
▁Täll	-6897
▁burd	-6898
▁erot	-6899
enkään	-6900
hankke	-6901
okseen	-6902
▁waste	-6903
▁excess	-6904
▁appreci	-6905
▁pitänyt	-6906
▁reforms	-6907
operation	-6908
tructural	-6909
▁remember	-6910
▁soveltaa	-6911
järjestely	-6912
▁annettava	-6913
▁valvonnan	-6914
▁yleisesti	-6915
▁appropriations	-6916
lish	-6917
reja	-6918
tapa	-6919
tock	-6920
vert	-6921
▁Not	-6922
▁adj	-6923
anner	-6924
▁ecun	-6925
▁weak	-6926
aching	-6927
väline	-6928
▁decla	-6929
▁ideas	-6930
▁immig	-6931
▁formal	-6932
imension	-6933
▁vastuun	-6934
▁hyväksytty	-6935
▁menettelyn	-6936
▁transition	-6937
▁kuluttajansu	-6938
ara	-6939
▁Sep	-6940
▁bar	-6941
ataul	-6942
duate	-6943
▁told	-6944
ksessä	-6945
▁tiety	-6946
▁valmi	-6947
▁Bureau	-6948
▁laatia	-6949
▁muissa	-6950
▁unless	-6951
▁Pohjois	-6952
▁mainita	-6953
▁missään	-6954
▁sellais	-6955
▁vastoin	-6956
▁aikaansa	-6957
▁extended	-6958
▁exception	-6959
▁tällainen	-6960
▁päätökseen	-6961
▁Communities	-6962
que	-6963
tap	-6964
▁sw	-6965
body	-6966
▁Nos	-6967
▁Toim	-6968
▁Yksi	-6969
ctober	-6970
▁CHAIR	-6971
▁Other	-6972
▁nähdä	-6973
▁varma	-6974
uksensa	-6975
▁edessä	-6976
▁fronti	-6977
▁General	-6978
▁finance	-6979
▁ristiri	-6980
▁universal	-6981
▁valvontaa	-6982
▁alternative	-6983
▁elintarvikke	-6984
▁eurooppalaisten	-6985
llei	-6986
olid	-6987
▁Kat	-6988
▁täs	-6989
▁came	-6990
▁near	-6991
▁täyt	-6992
kuntaan	-6993
▁johtuu	-6994
▁näihin	-6995
▁summit	-6996
▁vastus	-6997
▁facilit	-6998
▁lähettä	-6999
▁odottaa	-7000
keskuksen	-7001
▁antamaan	-7002
▁biotechn	-7003
▁rejected	-7004
▁ulkopuol	-7005
▁September	-7006
▁tällaista	-7007
▁ehdotukset	-7008
▁represents	-7009
▁lainsäädäntöä	-7010
▁By	-7011
▁fle	-7012
ertom	-7013
▁Anne	-7014
▁apua	-7015
▁jälj	-7016
ecause	-7017
kohdat	-7018
▁Funds	-7019
taisiin	-7020
▁Instit	-7021
▁racism	-7022
▁attempt	-7023
▁outcome	-7024
▁kehittää	-7025
▁sisältyy	-7026
▁influence	-7027
▁kannattaa	-7028
▁liittyvien	-7029
▁näkökulmasta	-7030
ze	-7031
▁EL	-7032
▁Sit	-7033
ryhmä	-7034
▁Itse	-7035
▁Venä	-7036
▁Will	-7037
gramme	-7038
▁Broek	-7039
▁delay	-7040
▁occur	-7041
▁remar	-7042
▁obstac	-7043
▁vuosik	-7044
▁ammatti	-7045
▁rakenne	-7046
▁yleisen	-7047
ikaisesti	-7048
istettava	-7049
▁johdosta	-7050
▁muutamia	-7051
▁perustel	-7052
▁planning	-7053
▁financing	-7054
▁yhdenmuka	-7055
▁Structural	-7056
▁direktiivi	-7057
▁successful	-7058
aU	-7059
ched	-7060
ipal	-7061
mann	-7062
mpaa	-7063
ohlf	-7064
▁Mac	-7065
▁Tar	-7066
▁lih	-7067
jäsen	-7068
rates	-7069
▁inad	-7070
▁joko	-7071
laisia	-7072
▁krite	-7073
▁johdon	-7074
▁placed	-7075
▁speech	-7076
▁teemme	-7077
▁varain	-7078
▁antavat	-7079
▁article	-7080
▁illegal	-7081
▁onnistu	-7082
▁section	-7083
▁suojele	-7084
▁Although	-7085
▁happened	-7086
▁competitive	-7087
▁destination	-7088
▁humanitarian	-7089
▁maanviljelij	-7090
▁työllisyyden	-7091
▁turvallisuuden	-7092
har	-7093
ared	-7094
aton	-7095
ikkö	-7096
▁sai	-7097
lainen	-7098
llisiä	-7099
▁Oomen	-7100
▁Siitä	-7101
▁entit	-7102
▁exemp	-7103
▁korja	-7104
▁toive	-7105
▁announ	-7106
▁likely	-7107
▁marras	-7108
▁satell	-7109
▁October	-7110
▁approval	-7111
▁esittänyt	-7112
▁kokouksen	-7113
▁territory	-7114
VK	-7115
tos	-7116
uod	-7117
liit	-7118
raat	-7119
yhmä	-7120
▁Asi	-7121
▁VAT	-7122
▁env	-7123
ervat	-7124
lease	-7125
öille	-7126
▁sche	-7127
himill	-7128
ulated	-7129
▁häntä	-7130
ollisia	-7131
ukseksi	-7132
▁Näiden	-7133
▁appeal	-7134
▁highly	-7135
▁kohtaa	-7136
▁maihin	-7137
▁mainly	-7138
▁näissä	-7139
▁päivän	-7140
▁anything	-7141
▁työpaikkoja	-7142
DU	-7143
Ru	-7144
tit	-7145
▁Law	-7146
ettes	-7147
▁COMM	-7148
▁From	-7149
▁Gree	-7150
▁helm	-7151
▁horm	-7152
▁ryhd	-7153
iently	-7154
isiksi	-7155
▁minua	-7156
▁packa	-7157
▁tason	-7158
▁Ruotsin	-7159
▁johtaja	-7160
▁opiskel	-7161
▁Yugoslav	-7162
▁ottamaan	-7163
▁sijaitse	-7164
▁tuloksia	-7165
▁dimension	-7166
▁compulsory	-7167
▁mielenkiin	-7168
▁todellinen	-7169
▁strengthening	-7170
ows	-7171
▁ly	-7172
elly	-7173
koul	-7174
time	-7175
▁Sve	-7176
▁Til	-7177
▁tap	-7178
▁Mark	-7179
▁elim	-7180
▁laws	-7181
▁lost	-7182
▁pohd	-7183
ighted	-7184
▁Wohlf	-7185
▁fores	-7186
▁range	-7187
▁aluksi	-7188
▁joskus	-7189
▁liitte	-7190
▁lukien	-7191
▁saamme	-7192
▁tutkia	-7193
allisten	-7194
emminkin	-7195
▁growing	-7196
▁vaikeaa	-7197
isuudesta	-7198
sequently	-7199
▁perustaa	-7200
▁protocol	-7201
▁seuranta	-7202
▁speakers	-7203
aliokunnan	-7204
▁joidenkin	-7205
▁päätöksiä	-7206
▁tarkastel	-7207
▁strengthen	-7208
▁examination	-7209
▁tietoyhteis	-7210
CO	-7211
do	-7212
lag	-7213
Ruij	-7214
ampi	-7215
▁HVK	-7216
▁ine	-7217
▁Donn	-7218
▁Nyky	-7219
▁SMEs	-7220
▁käyd	-7221
▁spir	-7222
estään	-7223
taessa	-7224
▁Total	-7225
ellisia	-7226
▁kyseen	-7227
▁varoja	-7228
▁Firstly	-7229
▁changed	-7230
▁toiseen	-7231
▁Irlannin	-7232
▁Wohlfart	-7233
▁kysymystä	-7234
▁tietoinen	-7235
▁mietintöön	-7236
▁sopimuksia	-7237
▁poliittiset	-7238
▁työllisyyttä	-7239
▁comprehensive	-7240
▁työjärjestyksen	-7241
zen	-7242
▁alu	-7243
▁pah	-7244
▁suo	-7245
loyed	-7246
▁Joka	-7247
▁laiv	-7248
koihin	-7249
▁Human	-7250
▁works	-7251
Ruijten	-7252
▁Barcel	-7253
▁Health	-7254
▁elimin	-7255
▁object	-7256
▁siirtä	-7257
▁sitoum	-7258
▁menesty	-7259
▁Maailman	-7260
▁challenge	-7261
▁neuvostossa	-7262
egu	-7263
▁TO	-7264
▁UC	-7265
▁Rec	-7266
▁Sir	-7267
▁Yle	-7268
▁fif	-7269
▁näky	-7270
kaamme	-7271
▁highl	-7272
▁savuk	-7273
vastoin	-7274
▁looking	-7275
▁läsnäol	-7276
▁minkään	-7277
▁palvelu	-7278
▁kaikilla	-7279
▁concluded	-7280
▁recognize	-7281
▁unionista	-7282
▁discussing	-7283
▁ponnistelu	-7284
▁tilanteessa	-7285
▁Alankomaiden	-7286
▁lainsäädännö	-7287
iot	-7288
alti	-7289
isty	-7290
self	-7291
kinat	-7292
ually	-7293
▁Bank	-7294
▁löyd	-7295
actory	-7296
impien	-7297
▁happy	-7298
▁jotkut	-7299
▁perman	-7300
▁refuge	-7301
▁Because	-7302
▁Minusta	-7303
▁arrange	-7304
▁charact	-7305
▁kirjoit	-7306
▁succeed	-7307
▁tärkein	-7308
itiveness	-7309
▁Kyseessä	-7310
▁nykyisen	-7311
▁unioniin	-7312
▁advantage	-7313
▁equipment	-7314
▁nimenomaan	-7315
▁lähestymista	-7316
▁discrimination	-7317
onz	-7318
ppe	-7319
yer	-7320
▁Kä	-7321
▁OS	-7322
aster	-7323
tömän	-7324
▁Such	-7325
▁Wibe	-7326
▁keks	-7327
▁laun	-7328
▁rise	-7329
▁Seura	-7330
▁Where	-7331
▁hyvän	-7332
▁lives	-7333
▁neljä	-7334
uksemme	-7335
▁supply	-7336
▁Liberal	-7337
▁confirm	-7338
▁Official	-7339
▁conclude	-7340
menettelyn	-7341
▁koskevaan	-7342
▁kuukauden	-7343
▁organized	-7344
▁continuing	-7345
▁ulkopuolelle	-7346
Al	-7347
eja	-7348
ney	-7349
uis	-7350
kinn	-7351
onia	-7352
ytyn	-7353
▁Acc	-7354
menet	-7355
organ	-7356
▁Vall	-7357
▁live	-7358
ticles	-7359
▁kohtu	-7360
▁lines	-7361
▁income	-7362
▁intend	-7363
▁Mietinn	-7364
▁eivätkä	-7365
▁myöntää	-7366
▁päämäär	-7367
▁saatava	-7368
▁expected	-7369
▁muodossa	-7370
▁voimavar	-7371
▁Eurooppaa	-7372
▁ajankohta	-7373
▁extension	-7374
▁ohjelmien	-7375
▁vaaditaan	-7376
▁tyytyväinen	-7377
▁kilpailukyky	-7378
▁sopimuksessa	-7379
▁mahdollisuutta	-7380
hl	-7381
▁sk	-7382
emen	-7383
ired	-7384
puty	-7385
verk	-7386
▁det	-7387
▁ero	-7388
ature	-7389
idaar	-7390
▁easy	-7391
▁harm	-7392
▁vess	-7393
▁judic	-7394
▁safegu	-7395
aisuutta	-7396
▁examine	-7397
▁initial	-7398
▁proport	-7399
▁sanottu	-7400
▁kokonaan	-7401
▁mobility	-7402
▁modified	-7403
▁withdraw	-7404
▁Amendments	-7405
▁humanitaar	-7406
▁kiinnittää	-7407
▁keskusteluun	-7408
▁tuomioistuimen	-7409
ert	-7410
asem	-7411
▁vel	-7412
anada	-7413
enary	-7414
tiven	-7415
▁Gonz	-7416
border	-7417
essani	-7418
▁heitä	-7419
▁joten	-7420
ustrial	-7421
▁facing	-7422
▁maista	-7423
▁repeat	-7424
▁tuotte	-7425
tiveness	-7426
▁Budgets	-7427
▁Collins	-7428
▁exploit	-7429
▁impress	-7430
▁message	-7431
▁aikataul	-7432
▁constant	-7433
▁elements	-7434
▁sääntely	-7435
▁kysymykset	-7436
▁ministerine	-7437
▁applications	-7438
fr	-7439
LAF	-7440
osi	-7441
▁bl	-7442
bers	-7443
ered	-7444
omas	-7445
jalle	-7446
▁calc	-7447
▁sivi	-7448
ongelm	-7449
ustiet	-7450
▁Sopim	-7451
▁South	-7452
ettavan	-7453
ikunnan	-7454
▁welcom	-7455
kinoilla	-7456
▁exactly	-7457
▁revenue	-7458
▁instance	-7459
▁tiettyjä	-7460
▁tulokset	-7461
▁occasions	-7462
▁tiedonann	-7463
▁tiettyjen	-7464
▁henkilöiden	-7465
CE	-7466
VO	-7467
dy	-7468
öl	-7469
jal	-7470
▁Mo	-7471
aine	-7472
fect	-7473
uoto	-7474
▁ved	-7475
▁class	-7476
▁eriko	-7477
▁Energy	-7478
uttamaan	-7479
▁analyys	-7480
▁nimissä	-7481
▁reduced	-7482
▁opinions	-7483
▁tasapain	-7484
▁miljoonan	-7485
▁tutkimusta	-7486
▁traditional	-7487
Os	-7488
▁El	-7489
▁Pää	-7490
▁mot	-7491
ATION	-7492
kansa	-7493
ories	-7494
▁phys	-7495
▁trav	-7496
▁urge	-7497
▁pääos	-7498
▁saatu	-7499
▁alussa	-7500
▁listen	-7501
▁sosial	-7502
▁vapaan	-7503
▁forests	-7504
▁liikenn	-7505
▁solidaar	-7506
▁speaking	-7507
▁naturally	-7508
▁qualified	-7509
▁salakuljet	-7510
▁harmonization	-7511
▁kasvilajikevir	-7512
▁Os	-7513
▁vil	-7514
ellyt	-7515
maksi	-7516
▁spok	-7517
▁syys	-7518
anneet	-7519
issaan	-7520
umatta	-7521
▁Ransk	-7522
▁Today	-7523
▁depar	-7524
▁kovin	-7525
▁media	-7526
▁visit	-7527
▁opetta	-7528
▁absence	-7529
▁aihetta	-7530
▁plenary	-7531
▁Moreover	-7532
▁agencies	-7533
▁peräisin	-7534
▁existence	-7535
▁työpaikkojen	-7536
▁varapuhemies	-7537
▁representative	-7538
hm	-7539
ung	-7540
hees	-7541
ilun	-7542
lies	-7543
perä	-7544
vään	-7545
▁Ann	-7546
▁Käs	-7547
▁kam	-7548
lines	-7549
osoit	-7550
▁bank	-7551
▁mene	-7552
▁tend	-7553
joille	-7554
talous	-7555
▁Greek	-7556
▁learn	-7557
▁tuoda	-7558
▁vaale	-7559
▁kalast	-7560
▁yhtälä	-7561
▁jäsentä	-7562
▁jokainen	-7563
▁sääntöjä	-7564
▁character	-7565
▁described	-7566
▁edustajat	-7567
▁riittävän	-7568
▁temporary	-7569
▁obligations	-7570
az	-7571
jät	-7572
▁Bl	-7573
ilos	-7574
osti	-7575
▁aam	-7576
▁hen	-7577
▁unc	-7578
uteen	-7579
▁Even	-7580
▁Tull	-7581
▁nais	-7582
▁Erity	-7583
▁osuus	-7584
▁texts	-7585
istettu	-7586
ollisen	-7587
▁hyötyä	-7588
▁merenk	-7589
▁opetus	-7590
▁viiden	-7591
neuvosto	-7592
▁amended	-7593
▁grounds	-7594
▁jäsenma	-7595
▁Executive	-7596
▁arviointi	-7597
▁dangerous	-7598
▁harjoitta	-7599
▁koskevista	-7600
▁tammikuuta	-7601
▁kehittäminen	-7602
▁eurooppalaista	-7603
▁competitiveness	-7604
elt	-7605
iop	-7606
luv	-7607
▁Kar	-7608
▁hor	-7609
▁ves	-7610
▁Fern	-7611
▁acqu	-7612
▁kier	-7613
▁invit	-7614
▁totes	-7615
▁EUROPE	-7616
▁choice	-7617
▁compla	-7618
▁explan	-7619
▁incent	-7620
▁vakaus	-7621
▁Brittan	-7622
▁monopol	-7623
▁käytössä	-7624
▁puolusta	-7625
▁Socialist	-7626
▁involving	-7627
▁poliittisia	-7628
▁kansalaisille	-7629
rot	-7630
aset	-7631
▁Can	-7632
▁Rel	-7633
ather	-7634
komis	-7635
terve	-7636
▁Stud	-7637
▁sort	-7638
itable	-7639
kuuluv	-7640
▁Never	-7641
▁huhti	-7642
▁laaja	-7643
▁pakol	-7644
▁damage	-7645
▁kertoa	-7646
ollisuus	-7647
▁entinen	-7648
▁Lindqvist	-7649
▁sanctions	-7650
▁kunnioitta	-7651
▁recognized	-7652
▁declaration	-7653
▁technologies	-7654
amin	-7655
otti	-7656
tedt	-7657
astot	-7658
eness	-7659
intia	-7660
isval	-7661
tuvat	-7662
▁laad	-7663
▁news	-7664
▁shar	-7665
hteeri	-7666
ousand	-7667
▁Helms	-7668
▁Those	-7669
▁board	-7670
▁maita	-7671
▁rural	-7672
ettyjen	-7673
itizens	-7674
▁Azerba	-7675
▁Bosnia	-7676
▁kielte	-7677
▁verrat	-7678
▁annettu	-7679
▁vuoteen	-7680
▁julkisen	-7681
▁kuluessa	-7682
▁julkilaus	-7683
▁kolmannen	-7684
▁Presidents	-7685
▁improvement	-7686
▁puheenjohtajan	-7687
ane	-7688
ery	-7689
jer	-7690
kee	-7691
rok	-7692
▁Ju	-7693
mmat	-7694
mpia	-7695
▁Cam	-7696
hteen	-7697
▁Niin	-7698
▁Otta	-7699
▁appar	-7700
▁categ	-7701
▁epäil	-7702
▁suull	-7703
ijoiden	-7704
viranom	-7705
yksistä	-7706
▁manner	-7707
▁pyrkii	-7708
▁sotila	-7709
istuksia	-7710
▁Bertens	-7711
▁calling	-7712
▁counter	-7713
▁miesten	-7714
▁säännös	-7715
▁becoming	-7716
▁bringing	-7717
▁mainittu	-7718
▁mukaista	-7719
valtioiden	-7720
▁Fisheries	-7721
▁Secretary	-7722
▁condition	-7723
▁immediate	-7724
▁ministeri	-7725
▁Kansainväl	-7726
▁palvelujen	-7727
▁supporting	-7728
▁keskustelussa	-7729
EM	-7730
YS	-7731
ees	-7732
rug	-7733
empi	-7734
flik	-7735
hold	-7736
rete	-7737
uktu	-7738
▁Mer	-7739
▁tuk	-7740
▁usk	-7741
jetta	-7742
tedly	-7743
▁Vuod	-7744
▁eett	-7745
▁sama	-7746
itical	-7747
vaatim	-7748
▁check	-7749
▁ransk	-7750
▁Baltic	-7751
▁caused	-7752
▁neljän	-7753
ulations	-7754
▁menettä	-7755
▁vastaus	-7756
▁hyväksyn	-7757
▁includes	-7758
▁occasion	-7759
▁osittain	-7760
▁puhemieh	-7761
▁sopimukset	-7762
▁neuvottelut	-7763
▁markkinoille	-7764
▁kuningaskunta	-7765
▁YH	-7766
▁Men	-7767
urton	-7768
▁köyh	-7769
▁Prote	-7770
▁arvon	-7771
▁rahaa	-7772
ertific	-7773
▁chance	-7774
▁compar	-7775
▁niissä	-7776
▁selkeä	-7777
ellisten	-7778
▁Chamber	-7779
▁election	-7780
▁Neuvoston	-7781
▁Programme	-7782
▁seuraavat	-7783
▁Yhdistynyt	-7784
▁cigarettes	-7785
▁käsittelee	-7786
▁association	-7787
▁käytettävissä	-7788
idon	-7789
iele	-7790
▁wan	-7791
house	-7792
kettä	-7793
ustan	-7794
▁kuva	-7795
▁loka	-7796
Burton	-7797
elfare	-7798
uroopp	-7799
▁UCLAF	-7800
uksilla	-7801
uksille	-7802
▁Author	-7803
▁advert	-7804
▁defend	-7805
▁samana	-7806
▁contact	-7807
▁ohjelma	-7808
▁suspend	-7809
▁emphasis	-7810
▁followed	-7811
▁regarded	-7812
▁strongly	-7813
▁thinking	-7814
▁tietokone	-7815
▁osoittavat	-7816
▁tasavallan	-7817
▁väärinkäyt	-7818
▁Yhdysvaltojen	-7819
▁neuvottelujen	-7820
."	-7821
tul	-7822
▁IR	-7823
▁PS	-7824
osed	-7825
▁Fre	-7826
▁III	-7827
▁Pap	-7828
▁tyy	-7829
hemes	-7830
oning	-7831
▁Hyvä	-7832
▁Only	-7833
▁Voin	-7834
▁koke	-7835
▁olet	-7836
▁oral	-7837
▁Women	-7838
▁helpp	-7839
▁virtu	-7840
alaisia	-7841
tavasta	-7842
▁kasvat	-7843
▁muistut	-7844
ustieteen	-7845
▁hyväksyy	-7846
▁register	-7847
▁thousand	-7848
▁edellyttä	-7849
▁efficient	-7850
▁emphasize	-7851
▁ensinnäkin	-7852
▁koulutusta	-7853
▁määräyksiä	-7854
▁Ensimmäinen	-7855
▁hyväksyminen	-7856
cr	-7857
hde	-7858
udu	-7859
ijan	-7860
ijää	-7861
inka	-7862
▁sad	-7863
gence	-7864
ialue	-7865
mälle	-7866
ulate	-7867
vasti	-7868
vastu	-7869
▁Does	-7870
▁atta	-7871
▁deep	-7872
ikansa	-7873
intark	-7874
▁types	-7875
▁Madrid	-7876
▁freight	-7877
ettavissa	-7878
▁EUROPEAN	-7879
▁Research	-7880
▁halutaan	-7881
▁palautta	-7882
▁requires	-7883
▁valuutta	-7884
▁huumeiden	-7885
▁intention	-7886
▁sellainen	-7887
järjestöjen	-7888
▁acceptable	-7889
▁associated	-7890
▁heinäkuuta	-7891
▁henkilöstö	-7892
▁epäilemättä	-7893
▁intervention	-7894
▁oikeudenmuka	-7895
Ue	-7896
ss	-7897
ilm	-7898
lant	-7899
onin	-7900
pitä	-7901
uste	-7902
inary	-7903
luonn	-7904
sibly	-7905
▁Gene	-7906
▁tarj	-7907
inding	-7908
lliset	-7909
▁Annex	-7910
▁tapaa	-7911
▁varat	-7912
llisten	-7913
▁Pyydän	-7914
▁Vuonna	-7915
▁spirit	-7916
▁wonder	-7917
▁schemes	-7918
▁suhteita	-7919
▁Kyproksen	-7920
▁kaupungin	-7921
▁yrityksiä	-7922
▁complaints	-7923
▁hyväksyttä	-7924
▁kansalaisia	-7925
▁koulutuksen	-7926
järjestelmien	-7927
▁kansainvälinen	-7928
IM	-7929
oi	-7930
▁NA	-7931
▁tö	-7932
cast	-7933
hoito	-7934
ption	-7935
▁Kans	-7936
allaan	-7937
maissa	-7938
▁balan	-7939
▁break	-7940
▁evalu	-7941
▁pääse	-7942
▁talks	-7943
▁Kiinan	-7944
▁family	-7945
▁fields	-7946
▁forget	-7947
▁loukka	-7948
▁näyttä	-7949
▁farming	-7950
▁tällais	-7951
lementary	-7952
olitiikka	-7953
▁concrete	-7954
▁kiireell	-7955
▁lainkaan	-7956
▁nykyisin	-7957
▁completed	-7958
▁otherwise	-7959
▁painottaa	-7960
▁promoting	-7961
▁rekisterö	-7962
▁definition	-7963
▁efficiency	-7964
▁yhteisestä	-7965
CD	-7966
dle	-7967
onte	-7968
tims	-7969
änne	-7970
▁Any	-7971
▁avun	-7972
▁koti	-7973
▁lupa	-7974
ateful	-7975
▁Miten	-7976
▁Tälla	-7977
▁hyvää	-7978
▁sopiv	-7979
ituksen	-7980
▁EUROOP	-7981
▁Kolmann	-7982
▁council	-7983
▁huomion	-7984
▁Decision	-7985
▁argument	-7986
▁critical	-7987
▁hyödyntä	-7988
▁medicine	-7989
▁payments	-7990
▁toimivat	-7991
▁välisessä	-7992
▁vastauksen	-7993
▁ehdottomasti	-7994
▁yhteiskunnan	-7995
▁Unfortunately	-7996
hib	-7997
ija	-7998
ood	-7999
bles	-8000
tood	-8001
▁pun	-8002
▁vat	-8003
ensus	-8004
isted	-8005
▁lehd	-8006
▁wait	-8007
igible	-8008
▁suoja	-8009
▁surpr	-8010
▁tiedä	-8011
▁Medina	-8012
▁epäonn	-8013
▁fisher	-8014
▁muutos	-8015
▁tutkit	-8016
▁vaatia	-8017
▁amounts	-8018
▁kalasta	-8019
▁tupakan	-8020
▁victims	-8021
tamisesta	-8022
uudessaan	-8023
▁komitean	-8024
ifications	-8025
▁positions	-8026
▁evaluation	-8027
▁liikenteen	-8028
▁prevention	-8029
▁todellista	-8030
▁sosiaalidem	-8031
▁käsittelyssä	-8032
eett	-8033
▁Ins	-8034
▁Red	-8035
▁Sea	-8036
▁sin	-8037
päätö	-8038
timat	-8039
▁koos	-8040
amissa	-8041
käämme	-8042
▁erään	-8043
▁Kuiten	-8044
▁worked	-8045
▁English	-8046
▁Europol	-8047
▁defined	-8048
▁mielell	-8049
▁seeking	-8050
▁negative	-8051
▁tarkasti	-8052
▁kustannusten	-8053
▁understanding	-8054
sh	-8055
tol	-8056
kkää	-8057
▁Fon	-8058
▁rig	-8059
ainen	-8060
udessa	-8061
uratom	-8062
▁floor	-8063
▁kahta	-8064
▁viita	-8065
atively	-8066
orthern	-8067
▁Luulen	-8068
▁burden	-8069
▁tehokk	-8070
▁wanted	-8071
▁konflik	-8072
▁grateful	-8073
▁inhimill	-8074
▁merenkul	-8075
▁repeated	-8076
▁valmista	-8077
▁achieving	-8078
▁investoin	-8079
▁kesäkuuta	-8080
▁maaseudun	-8081
▁sellaisia	-8082
▁säilyttää	-8083
▁Protection	-8084
▁määräysten	-8085
▁sisällyttä	-8086
▁statistics	-8087
▁kansallisia	-8088
▁Nevertheless	-8089
▁poliittisten	-8090
▁taloudelliset	-8091
▁eurooppalainen	-8092
▁käsiteltäväksi	-8093
EA	-8094
auc	-8095
kyv	-8096
▁yd	-8097
ored	-8098
orry	-8099
tark	-8100
▁ans	-8101
▁edun	-8102
▁heav	-8103
▁läpi	-8104
▁seka	-8105
ittävä	-8106
oksiin	-8107
oliitt	-8108
▁Olisi	-8109
▁Order	-8110
▁speed	-8111
▁users	-8112
▁actual	-8113
▁Project	-8114
▁esityks	-8115
▁opening	-8116
▁version	-8117
▁väliaik	-8118
▁pitkälle	-8119
▁jäsenille	-8120
▁kaikkialla	-8121
▁Yhdistyneen	-8122
▁liittyvistä	-8123
SP	-8124
uf	-8125
lin	-8126
▁ve	-8127
oida	-8128
oksi	-8129
stro	-8130
wide	-8131
ältä	-8132
▁Ahl	-8133
▁ign	-8134
cking	-8135
▁Left	-8136
▁lies	-8137
▁Silgu	-8138
▁kysyä	-8139
▁laaju	-8140
▁noted	-8141
▁omaks	-8142
▁rohka	-8143
▁tasks	-8144
▁trend	-8145
▁uudet	-8146
▁wants	-8147
▁yksil	-8148
atetaan	-8149
▁Paljon	-8150
▁muille	-8151
▁hyvinvo	-8152
▁minutes	-8153
▁ulottuv	-8154
▁spending	-8155
▁vähentää	-8156
▁kiitoksia	-8157
▁vastaavat	-8158
▁tavoitteet	-8159
▁Cooperation	-8160
▁esityslista	-8161
▁sosiaalista	-8162
▁kustannuksia	-8163
▁recommendation	-8164
ero	-8165
ses	-8166
amaa	-8167
utua	-8168
▁Act	-8169
ensen	-8170
▁glad	-8171
▁mass	-8172
▁comply	-8173
▁implic	-8174
▁joukko	-8175
▁päätty	-8176
▁ethical	-8177
▁kollega	-8178
▁välttää	-8179
▁EUROOPAN	-8180
▁affected	-8181
▁merkitse	-8182
▁convinced	-8183
▁permanent	-8184
▁prosentin	-8185
▁suhteiden	-8186
▁hyväksynyt	-8187
▁industries	-8188
▁joulukuuta	-8189
EY	-8190
za	-8191
ECD	-8192
kor	-8193
▁PO	-8194
aria	-8195
reen	-8196
▁Pas	-8197
▁SPD	-8198
missä	-8199
▁Tind	-8200
▁kapp	-8201
▁pact	-8202
▁ystä	-8203
▁eilen	-8204
▁millä	-8205
▁quota	-8206
▁Ranska	-8207
▁offers	-8208
▁series	-8209
▁vähemm	-8210
▁Puhetta	-8211
▁suhteet	-8212
▁säännöt	-8213
▁welfare	-8214
▁Relations	-8215
▁edistystä	-8216
▁kollegani	-8217
▁muodostaa	-8218
▁seuraavan	-8219
▁substance	-8220
▁edustajien	-8221
▁liikkuvuus	-8222
▁työmarkkin	-8223
▁compensation	-8224
▁constitution	-8225
aak	-8226
etu	-8227
ssa	-8228
tiö	-8229
▁Jac	-8230
▁Why	-8231
▁tus	-8232
▁vie	-8233
itime	-8234
▁vien	-8235
ifying	-8236
omaatt	-8237
▁Trade	-8238
▁riitä	-8239
▁saira	-8240
diction	-8241
▁merely	-8242
▁normal	-8243
▁Federal	-8244
▁ryhmien	-8245
▁Ahlqvist	-8246
▁challeng	-8247
▁pursuant	-8248
▁Institute	-8249
▁johtamaan	-8250
▁promotion	-8251
▁esittämään	-8252
▁konferenss	-8253
▁pöytäkirja	-8254
▁parhaillaan	-8255
▁tilanteeseen	-8256
▁technological	-8257
▁turvallisuutta	-8258
fy	-8259
ähte	-8260
▁Emp	-8261
▁Mana	-8262
▁code	-8263
▁huge	-8264
▁uhka	-8265
joista	-8266
ournal	-8267
▁Miksi	-8268
tensive	-8269
▁mutual	-8270
▁consult	-8271
▁debates	-8272
▁ihmisen	-8273
▁leaders	-8274
▁medical	-8275
▁species	-8276
▁reducing	-8277
▁subjects	-8278
▁tehtävän	-8279
▁varmista	-8280
▁contained	-8281
▁erityistä	-8282
▁subsidies	-8283
▁hankkeiden	-8284
▁membership	-8285
▁menettelyä	-8286
▁proceedings	-8287
▁vuoropuhelun	-8288
ado	-8289
ölj	-8290
otes	-8291
uild	-8292
aries	-8293
▁Many	-8294
▁mieh	-8295
▁muot	-8296
enaihe	-8297
iselta	-8298
▁Techn	-8299
▁frequ	-8300
enjohta	-8301
osehdot	-8302
rations	-8303
▁Africa	-8304
▁Indeed	-8305
▁anyone	-8306
▁Kreikan	-8307
▁approve	-8308
▁nuorten	-8309
▁poistaa	-8310
▁tarjoaa	-8311
▁experien	-8312
▁lyhyesti	-8313
▁toimitta	-8314
▁vakuutus	-8315
▁contracts	-8316
▁miljardia	-8317
▁noudattaa	-8318
▁vaikeuksia	-8319
▁kertomuksen	-8320
▁mahdollistaa	-8321
RA	-8322
uos	-8323
yle	-8324
alin	-8325
iota	-8326
otan	-8327
▁McM	-8328
▁Rad	-8329
▁kut	-8330
▁laj	-8331
ikaal	-8332
innon	-8333
isiko	-8334
▁Ever	-8335
▁Four	-8336
▁Here	-8337
▁sair	-8338
▁situ	-8339
▁sääs	-8340
etusta	-8341
ureauc	-8342
▁added	-8343
▁credit	-8344
▁disapp	-8345
entially	-8346
standing	-8347
▁Denmark	-8348
▁Senegal	-8349
▁ottanut	-8350
▁perfect	-8351
▁välittä	-8352
▁Citizens	-8353
▁asioissa	-8354
▁restrict	-8355
▁indicated	-8356
▁työttömyys	-8357
▁Information	-8358
▁participate	-8359
▁ulkopuolella	-8360
▁erinomaisesta	-8361
▁ä	-8362
kop	-8363
ains	-8364
elmä	-8365
kkaa	-8366
mmin	-8367
oitu	-8368
▁Slo	-8369
▁ran	-8370
▁raja	-8371
▁unoh	-8372
▁wide	-8373
liitty	-8374
yhdist	-8375
▁advis	-8376
▁byrok	-8377
▁kiele	-8378
▁knows	-8379
▁react	-8380
▁sulke	-8381
▁water	-8382
estämme	-8383
▁Silguy	-8384
▁korost	-8385
▁suuret	-8386
▁Perhaps	-8387
▁automat	-8388
▁enforce	-8389
▁imposed	-8390
▁arvioida	-8391
▁liittyen	-8392
▁selvittä	-8393
tuomioistu	-8394
▁carefully	-8395
▁sääntöjen	-8396
▁tehtävänä	-8397
▁reasonable	-8398
▁encouraging	-8399
▁interesting	-8400
▁yrityksille	-8401
▁arrangements	-8402
▁tuomioistuim	-8403
AP	-8404
UL	-8405
lta	-8406
pur	-8407
▁Be	-8408
isch	-8409
▁leh	-8410
▁unf	-8411
emans	-8412
iljat	-8413
odaan	-8414
ymmär	-8415
▁chem	-8416
▁fish	-8417
altaan	-8418
uresti	-8419
▁keski	-8420
▁oikea	-8421
▁Niiden	-8422
▁Single	-8423
▁epävar	-8424
▁factor	-8425
▁impose	-8426
▁issued	-8427
isuuteen	-8428
▁Security	-8429
▁entitled	-8430
▁judicial	-8431
▁liittyvä	-8432
▁oikeassa	-8433
▁perustan	-8434
▁päätöstä	-8435
▁Tindemans	-8436
▁practices	-8437
▁Yugoslavia	-8438
▁interested	-8439
▁genetically	-8440
▁associations	-8441
▁construction	-8442
▁yhteenkuuluv	-8443
▁parlamenttien	-8444
CH	-8445
TY	-8446
▁Cl	-8447
ipää	-8448
what	-8449
yksi	-8450
ylum	-8451
ästy	-8452
▁Hab	-8453
▁Pos	-8454
onnel	-8455
▁enjo	-8456
▁huum	-8457
▁nelj	-8458
▁pure	-8459
▁rahap	-8460
▁toist	-8461
▁tuken	-8462
▁Titley	-8463
▁assure	-8464
▁ryhtyi	-8465
▁saatta	-8466
▁sektor	-8467
istusten	-8468
▁laajenn	-8469
▁saamaan	-8470
▁consensus	-8471
▁proposing	-8472
▁undertaken	-8473
▁convergence	-8474
▁konferenssi	-8475
▁infrastruktu	-8476
▁myönteisesti	-8477
▁sosiaaliturva	-8478
cer	-8479
aard	-8480
akis	-8481
▁CDU	-8482
▁red	-8483
iment	-8484
meren	-8485
▁Ensi	-8486
▁Rome	-8487
▁YHTE	-8488
▁omin	-8489
assaan	-8490
eminen	-8491
illeen	-8492
kunnat	-8493
▁Juuri	-8494
▁spent	-8495
ustavat	-8496
▁Deputy	-8497
▁Macart	-8498
▁claims	-8499
▁fulfil	-8500
▁hylkää	-8501
▁kiinni	-8502
▁korvaa	-8503
▁laimin	-8504
▁maksaa	-8505
▁explain	-8506
▁korkean	-8507
▁offered	-8508
▁putting	-8509
▁vähimmä	-8510
▁matkusta	-8511
▁supports	-8512
▁suuresti	-8513
▁toisessa	-8514
▁accidents	-8515
▁kilpailun	-8516
▁Industrial	-8517
▁integrated	-8518
järjestelmään	-8519
▁oikeudellinen	-8520
▁toissijaisuus	-8521
▁jäsenvaltiossa	-8522
▁kuningaskunnan	-8523
▁jäsenvaltioille	-8524
hil	-8525
umi	-8526
read	-8527
tari	-8528
antoa	-8529
astaa	-8530
iform	-8531
ikaan	-8532
riers	-8533
▁Muut	-8534
▁Papa	-8535
▁omaa	-8536
▁Under	-8537
▁aband	-8538
▁antoi	-8539
▁gradu	-8540
▁noise	-8541
▁petty	-8542
▁haaste	-8543
▁passed	-8544
mpäristö	-8545
▁Belgium	-8546
▁valtiot	-8547
▁virasto	-8548
▁markkina	-8549
▁safeguard	-8550
▁tällaisen	-8551
▁Democratic	-8552
▁Schengenin	-8553
▁mahdotonta	-8554
▁preparation	-8555
▁yhteistyöstä	-8556
▁infrastructure	-8557
▁kansainvälisten	-8558
▁todennäköisesti	-8559
ash	-8560
ats	-8561
che	-8562
kär	-8563
rin	-8564
uel	-8565
▁Od	-8566
CDDA	-8567
aire	-8568
vaan	-8569
vere	-8570
▁Des	-8571
ioita	-8572
▁base	-8573
▁ohja	-8574
▁sope	-8575
▁sugg	-8576
asiall	-8577
joilla	-8578
▁expla	-8579
▁foods	-8580
▁johto	-8581
▁raise	-8582
etuista	-8583
▁danger	-8584
▁desire	-8585
▁kohees	-8586
▁luomis	-8587
▁löytää	-8588
▁olevaa	-8589
▁source	-8590
▁factors	-8591
▁planned	-8592
▁puuttuu	-8593
▁sosiaali	-8594
▁ylimäärä	-8595
▁criticism	-8596
▁sellaista	-8597
▁tavaramer	-8598
▁työsuojel	-8599
▁yliopisto	-8600
periaatteen	-8601
▁functioning	-8602
▁pikemminkin	-8603
▁represented	-8604
▁tavoitteiden	-8605
▁jäsenvaltioita	-8606
UK	-8607
tai	-8608
▁-,	-8609
tied	-8610
▁Vel	-8611
▁uno	-8612
bling	-8613
oneuv	-8614
sburg	-8615
▁OECD	-8616
▁brit	-8617
▁copy	-8618
▁late	-8619
▁Voiko	-8620
▁espan	-8621
▁hyöty	-8622
▁manuf	-8623
iikenne	-8624
uneiden	-8625
▁asylum	-8626
▁banana	-8627
▁teksti	-8628
irektiiv	-8629
▁Armenia	-8630
▁Rotterd	-8631
▁bureauc	-8632
▁tilasto	-8633
▁willing	-8634
▁ammatill	-8635
▁consolid	-8636
▁contract	-8637
▁interpre	-8638
▁refugees	-8639
▁voisimme	-8640
▁Kuitenkin	-8641
▁departure	-8642
▁joissakin	-8643
▁tuotteita	-8644
▁puolestaan	-8645
▁rahoitusta	-8646
▁mielipiteen	-8647
▁tarvittavat	-8648
zz	-8649
▁%.	-8650
▁DG	-8651
ales	-8652
elpo	-8653
outs	-8654
puhe	-8655
rats	-8656
tana	-8657
▁säh	-8658
▁tor	-8659
aamme	-8660
▁felt	-8661
▁hinn	-8662
▁tuli	-8663
ieties	-8664
isillä	-8665
paikka	-8666
▁Valit	-8667
▁erill	-8668
▁valko	-8669
essions	-8670
oksesta	-8671
▁Accord	-8672
▁elämän	-8673
▁promis	-8674
▁vaaran	-8675
urvallis	-8676
vuodesta	-8677
▁Fontain	-8678
▁Journal	-8679
▁advance	-8680
▁equally	-8681
▁genetic	-8682
▁neither	-8683
▁remarks	-8684
▁unohtaa	-8685
▁vessels	-8686
ervations	-8687
▁indicate	-8688
▁määrätään	-8689
▁huolenaihe	-8690
▁pääasiassa	-8691
▁seurauksia	-8692
▁declarations	-8693
RAT	-8694
etin	-8695
htää	-8696
ikko	-8697
onto	-8698
▁Aud	-8699
▁Hon	-8700
▁Sum	-8701
enemm	-8702
▁send	-8703
▁tion	-8704
ienten	-8705
▁hinta	-8706
▁kerta	-8707
▁kyken	-8708
▁mitkä	-8709
▁failed	-8710
▁kasvin	-8711
▁suojaa	-8712
▁tehdyn	-8713
tamiseen	-8714
tructive	-8715
▁Thirdly	-8716
▁details	-8717
▁somewhat	-8718
▁demokratia	-8719
▁historiall	-8720
▁legitimate	-8721
▁suunnitelm	-8722
▁consumption	-8723
▁ensimmäistä	-8724
▁järjestöjen	-8725
▁operational	-8726
▁ihmisoikeuksia	-8727
oy	-8728
ali	-8729
yön	-8730
▁NG	-8731
band	-8732
raft	-8733
tual	-8734
▁Wat	-8735
▁pky	-8736
▁sex	-8737
erved	-8738
▁CPVO	-8739
▁join	-8740
▁saks	-8741
▁frien	-8742
▁hyviä	-8743
▁panel	-8744
▁pääsy	-8745
▁round	-8746
▁avusta	-8747
▁emmekä	-8748
▁kukaan	-8749
▁kuuluv	-8750
▁maille	-8751
▁samaan	-8752
ettaessa	-8753
▁hänelle	-8754
▁painost	-8755
▁restric	-8756
▁tullaan	-8757
▁adequate	-8758
▁examples	-8759
▁nykyinen	-8760
▁proposes	-8761
▁ongelmista	-8762
▁verrattuna	-8763
▁hyväksyttävä	-8764
▁Amsterdamissa	-8765
▁decisionmaking	-8766
arr	-8767
big	-8768
kua	-8769
tän	-8770
öin	-8771
▁IV	-8772
elin	-8773
oppa	-8774
uton	-8775
anges	-8776
▁Till	-8777
▁gave	-8778
rakenn	-8779
▁rooli	-8780
▁selvä	-8781
▁kiinte	-8782
▁prohib	-8783
▁sanoin	-8784
▁Tanskan	-8785
▁Theorin	-8786
▁Tillich	-8787
▁chapter	-8788
▁kunnian	-8789
▁yleinen	-8790
ederation	-8791
iljattain	-8792
▁Graduate	-8793
▁kansojen	-8794
▁periaate	-8795
▁students	-8796
▁ongelmien	-8797
▁Kolmanneksi	-8798
▁conciliation	-8799
▁oikeutetusti	-8800
app	-8801
ders	-8802
usal	-8803
▁Obj	-8804
▁Sou	-8805
▁tro	-8806
iddle	-8807
ivuot	-8808
kolog	-8809
since	-8810
ussia	-8811
utena	-8812
▁Main	-8813
▁Pack	-8814
▁amer	-8815
▁esim	-8816
▁kata	-8817
▁myöh	-8818
▁teac	-8819
▁väit	-8820
▁North	-8821
▁Siten	-8822
▁lähte	-8823
alliset	-8824
teeseen	-8825
▁Gradin	-8826
▁Tarvit	-8827
▁easier	-8828
▁engine	-8829
▁kokous	-8830
▁monien	-8831
▁päätti	-8832
▁annetun	-8833
▁ennalta	-8834
▁lähenty	-8835
▁managed	-8836
▁contacts	-8837
▁laiminly	-8838
▁järjestely	-8839
▁Jugoslavian	-8840
▁muutosehdot	-8841
▁nevertheless	-8842
Car	-8843
▁Op	-8844
▁mm	-8845
enin	-8846
▁Lam	-8847
▁Ter	-8848
▁Yks	-8849
▁apu	-8850
▁ken	-8851
▁lob	-8852
advan	-8853
laatu	-8854
teena	-8855
tered	-8856
usion	-8857
▁arms	-8858
▁imag	-8859
atible	-8860
lusion	-8861
▁Board	-8862
▁sound	-8863
▁adjust	-8864
▁hoitaa	-8865
▁tekijä	-8866
▁tähtää	-8867
ilateral	-8868
▁Georgia	-8869
▁binding	-8870
▁follows	-8871
▁keinoja	-8872
▁organic	-8873
▁toteutu	-8874
▁Donnelly	-8875
▁chemical	-8876
▁istunnon	-8877
▁kymmenen	-8878
▁ongelmaa	-8879
▁organisa	-8880
▁Yhdistyne	-8881
▁hallinnon	-8882
▁selvittää	-8883
▁suunnitel	-8884
▁substances	-8885
▁jäsenmaiden	-8886
▁työskentele	-8887
In	-8888
öö	-8889
▁:	-8890
eth	-8891
ias	-8892
ora	-8893
▁Hu	-8894
ighb	-8895
ming	-8896
▁Are	-8897
▁Kor	-8898
▁Kuu	-8899
irect	-8900
▁Koko	-8901
▁avaa	-8902
▁pank	-8903
ottava	-8904
stream	-8905
▁compa	-8906
▁lento	-8907
▁Sveits	-8908
▁edisty	-8909
▁insist	-8910
▁kasvaa	-8911
▁pitkän	-8912
▁Indones	-8913
▁appears	-8914
▁entisen	-8915
▁kuukaus	-8916
▁leading	-8917
▁politic	-8918
▁urgency	-8919
▁välille	-8920
oimenpite	-8921
▁alueelle	-8922
▁numerous	-8923
▁separate	-8924
▁vallitse	-8925
▁Ranskassa	-8926
▁respected	-8927
teknologian	-8928
▁aloitteita	-8929
▁hallintone	-8930
SIT	-8931
kiä	-8932
mar	-8933
ulg	-8934
ietn	-8935
orma	-8936
▁Bla	-8937
▁Tac	-8938
▁Vis	-8939
erves	-8940
estin	-8941
▁edut	-8942
▁kärs	-8943
▁sole	-8944
▁weap	-8945
atever	-8946
isteri	-8947
▁Oreja	-8948
▁Paris	-8949
session	-8950
ukuussa	-8951
▁Vuoden	-8952
▁heille	-8953
▁intell	-8954
▁omista	-8955
▁scheme	-8956
▁entered	-8957
▁kannata	-8958
▁keskeyt	-8959
▁puuttua	-8960
▁recover	-8961
▁täyttää	-8962
▁witness	-8963
kokouksen	-8964
▁Fontaine	-8965
▁Habsburg	-8966
▁accompan	-8967
▁involves	-8968
▁liberaal	-8969
▁obligation	-8970
▁saavutettu	-8971
▁statements	-8972
politiikasta	-8973
▁Esimerkiksi	-8974
▁hyväksymään	-8975
▁vaatimuksia	-8976
▁yhteispäätös	-8977
▁effectiveness	-8978
TS	-8979
kol	-8980
▁Fl	-8981
adem	-8982
ittu	-8983
▁AND	-8984
iikka	-8985
joita	-8986
omite	-8987
▁Sind	-8988
▁jään	-8989
▁rein	-8990
▁vaad	-8991
ettuna	-8992
▁incom	-8993
▁massa	-8994
advanta	-8995
▁Päätös	-8996
▁kolmas	-8997
▁näillä	-8998
▁uusiut	-8999
▁voinut	-9000
▁geneett	-9001
▁meaning	-9002
▁package	-9003
▁started	-9004
▁äskettä	-9005
▁äärimmä	-9006
▁kuluttua	-9007
▁secondly	-9008
▁viikolla	-9009
▁edustajan	-9010
▁employees	-9011
▁itsestään	-9012
▁vakuuttaa	-9013
▁advantages	-9014
▁huomattava	-9015
▁puhemiehen	-9016
▁järjestelmää	-9017
no	-9018
bor	-9019
free	-9020
osio	-9021
umen	-9022
▁cro	-9023
▁puo	-9024
▁Holm	-9025
isempi	-9026
▁Chile	-9027
▁Fabre	-9028
▁Kanad	-9029
▁ahead	-9030
▁innov	-9031
▁laati	-9032
ecution	-9033
▁Common	-9034
▁drafts	-9035
▁kiitän	-9036
▁vaihte	-9037
▁valvoa	-9038
▁amongst	-9039
▁appoint	-9040
▁evening	-9041
▁istunto	-9042
▁monissa	-9043
▁nykyään	-9044
▁pienten	-9045
esityksen	-9046
▁amending	-9047
▁balanced	-9048
▁kertomus	-9049
▁käytetty	-9050
▁physical	-9051
▁Europeans	-9052
▁obstacles	-9053
▁pidettävä	-9054
▁johdonmuka	-9055
▁Brysselissä	-9056
▁Translation	-9057
▁mielenkiinto	-9058
▁eurooppalaiset	-9059
IV	-9060
gy	-9061
jös	-9062
pon	-9063
ris	-9064
tum	-9065
yed	-9066
kais	-9067
mper	-9068
▁Edu	-9069
▁Eri	-9070
▁Fra	-9071
▁Bjer	-9072
▁Nord	-9073
▁krit	-9074
teeksi	-9075
teluun	-9076
ykseen	-9077
▁Treat	-9078
▁coher	-9079
▁monta	-9080
▁omien	-9081
▁pieni	-9082
▁rikos	-9083
▁serve	-9084
olution	-9085
uslause	-9086
▁Canada	-9087
▁Velzen	-9088
▁accoun	-9089
▁askele	-9090
▁hallin	-9091
▁mikään	-9092
▁muilla	-9093
▁turvaa	-9094
▁undoub	-9095
▁benefic	-9096
▁federal	-9097
▁uniform	-9098
neuvoston	-9099
▁Amerikan	-9100
▁onnettom	-9101
oikeuksien	-9102
▁keskeinen	-9103
▁tuotannon	-9104
▁yrityksen	-9105
▁maailmassa	-9106
▁vakuuttunut	-9107
▁merkittävästi	-9108
▁konferenssissa	-9109
▁yksinkertaista	-9110
bo	-9111
ppa	-9112
TION	-9113
chet	-9114
ilst	-9115
ixed	-9116
kaus	-9117
lynn	-9118
onsa	-9119
telä	-9120
vest	-9121
▁Gar	-9122
▁dyn	-9123
▁tim	-9124
ances	-9125
attle	-9126
▁Time	-9127
▁haas	-9128
▁pyys	-9129
▁sydä	-9130
▁Flynn	-9131
▁minim	-9132
▁plans	-9133
▁torju	-9134
uilding	-9135
▁envisa	-9136
▁lasten	-9137
▁Bjerreg	-9138
▁Papouts	-9139
▁amerikk	-9140
▁eastern	-9141
▁nojalla	-9142
▁tulemme	-9143
▁alueille	-9144
▁purposes	-9145
▁työskenn	-9146
▁pollution	-9147
▁päätökset	-9148
▁hyväksytään	-9149
▁involvement	-9150
▁improvements	-9151
▁rakennerahasto	-9152
we	-9153
dor	-9154
see	-9155
▁EN	-9156
iers	-9157
isat	-9158
pass	-9159
rier	-9160
ytty	-9161
▁Vil	-9162
ampia	-9163
▁Novo	-9164
▁muuk	-9165
estern	-9166
kuutta	-9167
▁Ennen	-9168
▁Etelä	-9169
▁Jotta	-9170
▁osana	-9171
▁puute	-9172
▁viisi	-9173
vereign	-9174
▁Jensen	-9175
▁Market	-9176
▁Russia	-9177
▁Sindal	-9178
▁forced	-9179
▁neighb	-9180
uvottelu	-9181
▁Turkish	-9182
▁certific	-9183
▁mainitsem	-9184
▁primarily	-9185
▁renewable	-9186
▁tarvitsee	-9187
▁unionille	-9188
▁väkivalta	-9189
▁challenges	-9190
▁osoittanut	-9191
▁distribution	-9192
PO	-9193
Aub	-9194
umb	-9195
▁Ab	-9196
▁Yh	-9197
orse	-9198
▁Lan	-9199
▁Pin	-9200
elled	-9201
hdoin	-9202
illed	-9203
imaks	-9204
▁Last	-9205
▁Pass	-9206
▁myyn	-9207
▁pane	-9208
▁vied	-9209
äännös	-9210
▁Pasty	-9211
▁Tacis	-9212
▁belie	-9213
▁bound	-9214
▁aseman	-9215
▁havait	-9216
▁latter	-9217
▁lentok	-9218
▁option	-9219
▁osaksi	-9220
▁recall	-9221
▁refers	-9222
▁tarjoa	-9223
aosapuol	-9224
▁Freight	-9225
▁Souchet	-9226
▁resolve	-9227
▁vihdoin	-9228
▁paikalla	-9229
▁According	-9230
▁addressed	-9231
▁allocated	-9232
▁sovereign	-9233
▁disadvanta	-9234
▁etusijalle	-9235
▁huomauttaa	-9236
▁impression	-9237
▁toukokuuta	-9238
▁satisfactory	-9239
▁undertakings	-9240
.,	-9241
Us	-9242
fe	-9243
bon	-9244
fin	-9245
uor	-9246
voc	-9247
▁Eh	-9248
▁Tl	-9249
iber	-9250
vyys	-9251
▁oil	-9252
▁tos	-9253
ampaa	-9254
ynnin	-9255
▁Bald	-9256
▁Head	-9257
▁Puol	-9258
▁kons	-9259
▁perc	-9260
coming	-9261
▁Colom	-9262
▁Cress	-9263
▁Given	-9264
▁etukä	-9265
▁tulos	-9266
ellistä	-9267
omaisen	-9268
▁distin	-9269
▁raport	-9270
▁values	-9271
ettavien	-9272
missions	-9273
timately	-9274
▁Fernand	-9275
▁charges	-9276
▁complic	-9277
▁opposed	-9278
keskustel	-9279
▁Consumer	-9280
▁rahaliit	-9281
▁rasismin	-9282
▁resolved	-9283
▁siirtymä	-9284
▁starting	-9285
▁teaching	-9286
▁Esittelij	-9287
▁muukalais	-9288
▁suorittaa	-9289
▁Management	-9290
▁Bjerregaard	-9291
▁sosiaalinen	-9292
▁tarkastella	-9293
▁vaatimukset	-9294
▁hyväksyttiin	-9295
▁valtuuskunta	-9296
ya	-9297
osa	-9298
xen	-9299
äiv	-9300
▁Ac	-9301
alia	-9302
pret	-9303
ract	-9304
roat	-9305
▁IRU	-9306
▁Rep	-9307
▁uns	-9308
miehe	-9309
mäksi	-9310
▁aver	-9311
▁pyrk	-9312
attava	-9313
vaikut	-9314
▁Vietn	-9315
▁facts	-9316
▁jokin	-9317
▁koord	-9318
Aubresp	-9319
aisimme	-9320
areness	-9321
ittelee	-9322
valtion	-9323
▁Labour	-9324
▁except	-9325
▁kasvun	-9326
▁Euroopp	-9327
▁alueita	-9328
▁deliver	-9329
▁puhumme	-9330
istration	-9331
▁accounts	-9332
▁forestry	-9333
▁käytöstä	-9334
▁Macartney	-9335
▁frontiers	-9336
▁ottamatta	-9337
▁vähemmistö	-9338
▁requirement	-9339
▁undoubtedly	-9340
▁contributions	-9341
▁yleissopimuksen	-9342
mun	-9343
nic	-9344
▁ks	-9345
ches	-9346
htia	-9347
▁Uke	-9348
emaan	-9349
tamat	-9350
▁Then	-9351
issään	-9352
kämper	-9353
▁eläim	-9354
▁forth	-9355
▁hours	-9356
▁huomi	-9357
▁valid	-9358
▁verta	-9359
▁wider	-9360
istusta	-9361
uutemme	-9362
▁attend	-9363
▁meistä	-9364
▁vallan	-9365
unicipal	-9366
▁Another	-9367
▁numbers	-9368
▁tehtiin	-9369
▁yhdistä	-9370
tamiseksi	-9371
▁Auditors	-9372
▁maritime	-9373
▁tapahtui	-9374
▁televies	-9375
▁justified	-9376
▁mediumsized	-9377
▁äänestyksen	-9378
▁kansakuntien	-9379
▁demokraattisen	-9380
ehd	-9381
lli	-9382
lää	-9383
tte	-9384
ugh	-9385
▁Ul	-9386
▁ce	-9387
anti	-9388
▁kem	-9389
innut	-9390
keino	-9391
point	-9392
posti	-9393
▁Kann	-9394
▁laki	-9395
▁rehe	-9396
▁disch	-9397
▁muunn	-9398
▁ready	-9399
jöstedt	-9400
▁kriitt	-9401
▁liikaa	-9402
▁ollaan	-9403
▁partly	-9404
▁spoken	-9405
▁uuteen	-9406
uuksista	-9407
▁edustaa	-9408
▁vakavia	-9409
▁huolitsi	-9410
▁istuntos	-9411
▁kuoleman	-9412
▁obtained	-9413
aisuudessa	-9414
▁esityksen	-9415
▁kompromis	-9416
▁marketing	-9417
▁ristiriid	-9418
▁relatively	-9419
▁yleissopim	-9420
▁occupational	-9421
▁periaatteessa	-9422
▁possibilities	-9423
Qu	-9424
ots	-9425
▁JA	-9426
▁Sh	-9427
mpää	-9428
muut	-9429
tuus	-9430
utuu	-9431
▁sym	-9432
▁tho	-9433
itiiv	-9434
lause	-9435
▁Eikö	-9436
▁Tour	-9437
▁mult	-9438
▁noon	-9439
▁remo	-9440
▁sopi	-9441
▁stim	-9442
▁symp	-9443
keskus	-9444
trateg	-9445
udelle	-9446
▁links	-9447
▁mitta	-9448
illemme	-9449
äänesty	-9450
▁During	-9451
▁Kuinka	-9452
▁ajatus	-9453
▁island	-9454
▁katsoo	-9455
▁moraal	-9456
▁moving	-9457
ventions	-9458
▁courage	-9459
▁deficit	-9460
▁erinoma	-9461
▁nations	-9462
▁siirtää	-9463
▁taistel	-9464
ainsäädän	-9465
▁Treaties	-9466
▁examined	-9467
▁lukuisia	-9468
▁puolueen	-9469
▁Telkämper	-9470
▁cooperate	-9471
▁ratkaisun	-9472
▁tarpeeksi	-9473
▁yhteiseen	-9474
▁hiljattain	-9475
▁inadequate	-9476
▁kulttuurin	-9477
▁muukalaisv	-9478
▁tervetulle	-9479
▁päinvastoin	-9480
▁toiminnasta	-9481
▁oikeusasioita	-9482
▁Administrative	-9483
HO	-9484
akti	-9485
lisä	-9486
opho	-9487
rict	-9488
▁FOR	-9489
▁hed	-9490
▁ELDR	-9491
▁jääd	-9492
▁kant	-9493
▁lask	-9494
▁pred	-9495
toihin	-9496
▁Burma	-9497
▁Every	-9498
▁Liber	-9499
▁scale	-9500
▁täsmä	-9501
▁kuulla	-9502
▁meidät	-9503
▁proved	-9504
▁ulkoma	-9505
▁vihreä	-9506
asioiden	-9507
▁Martens	-9508
▁century	-9509
▁intends	-9510
▁operate	-9511
▁replace	-9512
enemmistö	-9513
ohjelmien	-9514
▁carrying	-9515
▁energian	-9516
▁kestävän	-9517
▁puhutaan	-9518
▁thorough	-9519
▁tosiasia	-9520
▁undermin	-9521
▁tekemistä	-9522
▁tietoisia	-9523
intarkastus	-9524
▁completion	-9525
▁expression	-9526
▁Luxemburgin	-9527
▁yhteisymmär	-9528
▁oikeudellista	-9529
▁valtuuskunnan	-9530
enz	-9531
keä	-9532
▁rä	-9533
izes	-9534
llis	-9535
uses	-9536
with	-9537
▁Mal	-9538
maatt	-9539
uston	-9540
ventä	-9541
▁enkä	-9542
▁gone	-9543
▁insp	-9544
kaupan	-9545
oinnin	-9546
udella	-9547
ukseni	-9548
▁autta	-9549
▁laske	-9550
▁ryhty	-9551
▁smugg	-9552
aisista	-9553
yrityks	-9554
▁Ladies	-9555
▁clause	-9556
▁helpot	-9557
▁preced	-9558
▁abandon	-9559
▁distort	-9560
▁getting	-9561
▁julkais	-9562
▁rapidly	-9563
▁riippuv	-9564
▁thereby	-9565
▁unionia	-9566
▁väestön	-9567
▁adopting	-9568
▁lausunto	-9569
▁vuositta	-9570
▁acknowled	-9571
▁confident	-9572
▁järjestää	-9573
▁mielipite	-9574
▁situations	-9575
▁joulukuussa	-9576
▁käsittelyyn	-9577
▁tarkoitettu	-9578
▁vaikutukset	-9579
▁markkinoilla	-9580
▁Oikeustieteen	-9581
▁konkreettisia	-9582
▁considerations	-9583
▁Gr	-9584
▁Ri	-9585
anas	-9586
gely	-9587
gues	-9588
obyl	-9589
uron	-9590
▁ikä	-9591
▁kap	-9592
▁lic	-9593
▁naa	-9594
iling	-9595
immät	-9596
▁asuk	-9597
▁rann	-9598
alalla	-9599
henkil	-9600
miehet	-9601
▁edust	-9602
▁faced	-9603
▁kutsu	-9604
▁puoli	-9605
▁purka	-9606
▁stamp	-9607
▁välin	-9608
ialähte	-9609
olliset	-9610
related	-9611
▁joille	-9612
▁kohtia	-9613
▁solmit	-9614
▁tapahd	-9615
▁tapaus	-9616
▁airport	-9617
▁edistys	-9618
▁kahteen	-9619
▁passeng	-9620
▁speaker	-9621
▁greatest	-9622
▁presence	-9623
▁revision	-9624
▁todetaan	-9625
▁vaikutta	-9626
▁vehicles	-9627
▁vuodessa	-9628
▁Objective	-9629
▁fishermen	-9630
▁liability	-9631
▁operating	-9632
▁favourable	-9633
▁käytettävä	-9634
▁mielelläni	-9635
▁proportion	-9636
▁advertising	-9637
▁implications	-9638
▁yhteistyöhön	-9639
▁parlamentilla	-9640
▁tulevaisuutta	-9641
▁kuluttajansuoj	-9642
▁säännöllisesti	-9643
IA	-9644
yy	-9645
bol	-9646
iff	-9647
elvo	-9648
omak	-9649
riit	-9650
▁Kok	-9651
▁WEU	-9652
▁lyh	-9653
ijsen	-9654
▁Lang	-9655
▁bann	-9656
▁kuun	-9657
okraat	-9658
▁Orteg	-9659
▁alleg	-9660
▁ellei	-9661
▁norma	-9662
▁aamuna	-9663
▁tietyn	-9664
▁toivoa	-9665
asioissa	-9666
▁Euratom	-9667
▁Samalla	-9668
▁prepare	-9669
opimuksen	-9670
uotteiden	-9671
▁Pöytäkir	-9672
▁asemassa	-9673
▁constitu	-9674
▁declared	-9675
▁discover	-9676
▁indirect	-9677
▁uudistus	-9678
▁vastuull	-9679
olitiikkaa	-9680
▁asetetaan	-9681
▁awareness	-9682
▁merkityks	-9683
▁toimielin	-9684
▁tällaisia	-9685
▁mechanisms	-9686
▁unemployed	-9687
▁individuals	-9688
▁Organization	-9689
▁sopimuksesta	-9690
▁tarkistusten	-9691
▁kansainvälistä	-9692
kse	-9693
olf	-9694
ikaa	-9695
ware	-9696
▁Ehkä	-9697
▁Iran	-9698
▁Pari	-9699
▁Talo	-9700
ground	-9701
iminen	-9702
▁avust	-9703
▁todis	-9704
▁toivo	-9705
▁Suomen	-9706
▁Wijsen	-9707
▁places	-9708
▁retain	-9709
▁endorse	-9710
▁huumaus	-9711
▁mandate	-9712
▁velvoit	-9713
▁tarvetta	-9714
osuhteiden	-9715
▁aikaansaa	-9716
▁university	-9717
▁direktiiviä	-9718
▁investigation	-9719
ilt	-9720
ima	-9721
tei	-9722
xim	-9723
haan	-9724
head	-9725
vent	-9726
▁Jot	-9727
▁yll	-9728
aneet	-9729
arter	-9730
arvon	-9731
suhte	-9732
ville	-9733
▁Bulg	-9734
▁CFSP	-9735
irable	-9736
onomic	-9737
puolue	-9738
teihin	-9739
▁Aelvo	-9740
▁paino	-9741
▁phase	-9742
▁tried	-9743
ettavia	-9744
▁Kiitän	-9745
▁length	-9746
▁olenna	-9747
▁pursue	-9748
▁seikka	-9749
▁vakava	-9750
isyyteen	-9751
▁ability	-9752
▁rajojen	-9753
▁suurten	-9754
▁käytännö	-9755
▁menetelm	-9756
▁possibly	-9757
▁artiklaan	-9758
▁consulted	-9759
▁requested	-9760
▁huhtikuuta	-9761
▁rahaliiton	-9762
▁television	-9763
▁Commissioners	-9764
▁Valitettavasti	-9765
▁interpretation	-9766
▁toimintasuunnit	-9767
DP	-9768
amm	-9769
anda	-9770
itty	-9771
liik	-9772
osan	-9773
uaal	-9774
▁Ban	-9775
▁aio	-9776
▁erä	-9777
▁ila	-9778
ching	-9779
iinin	-9780
ioike	-9781
ronic	-9782
▁Once	-9783
▁Spec	-9784
▁omia	-9785
▁slow	-9786
▁työj	-9787
ettyjä	-9788
▁Hyvät	-9789
▁rohke	-9790
▁uskom	-9791
▁vahin	-9792
tavissa	-9793
▁EMCDDA	-9794
▁Possel	-9795
▁asemaa	-9796
▁asetta	-9797
▁edeltä	-9798
▁korkea	-9799
▁minuut	-9800
Aubrespy	-9801
komitean	-9802
▁Venäjän	-9803
eterinary	-9804
ittäminen	-9805
▁External	-9806
▁Sjöstedt	-9807
▁suurempi	-9808
lainsäädän	-9809
▁considers	-9810
▁continued	-9811
▁determine	-9812
▁draftsman	-9813
▁elsewhere	-9814
▁interpret	-9815
▁liittyvän	-9816
▁neuvostoa	-9817
▁timetable	-9818
▁välineitä	-9819
▁identified	-9820
▁käsittelyn	-9821
▁määräykset	-9822
▁osallistuu	-9823
▁toteutettu	-9824
▁introducing	-9825
▁kehitykseen	-9826
▁komissiolta	-9827
▁merkittäviä	-9828
▁yhtenäisval	-9829
▁organisation	-9830
▁strengthened	-9831
▁administrations	-9832
.'	-9833
ST	-9834
uke	-9835
▁Po	-9836
anal	-9837
olds	-9838
▁Lom	-9839
▁Läh	-9840
▁Mul	-9841
▁sup	-9842
aches	-9843
igned	-9844
vaihe	-9845
yyttä	-9846
▁Bern	-9847
▁kept	-9848
▁piti	-9849
iltaan	-9850
telija	-9851
udumme	-9852
▁alkaa	-9853
▁entry	-9854
▁quant	-9855
emmälle	-9856
▁keinot	-9857
▁opened	-9858
▁tackle	-9859
▁tarkka	-9860
ohjelmaa	-9861
▁Tourism	-9862
▁average	-9863
▁elinten	-9864
▁pension	-9865
▁precise	-9866
inational	-9867
▁Haluamme	-9868
▁kalatalo	-9869
▁petoksia	-9870
▁suojelun	-9871
▁tulosten	-9872
▁vaihtoeh	-9873
▁vetoomus	-9874
▁Papoutsis	-9875
▁Political	-9876
▁confirmed	-9877
▁economies	-9878
▁excessive	-9879
▁governing	-9880
▁hankkeita	-9881
▁kasvinjal	-9882
▁kuukautta	-9883
▁constantly	-9884
▁difference	-9885
▁facilitate	-9886
▁kompromiss	-9887
▁violations	-9888
▁liikkuvuuden	-9889
▁työttömyyden	-9890
▁kansallisella	-9891
Ch	-9892
ux	-9893
Bow	-9894
ijk	-9895
oko	-9896
rew	-9897
tti	-9898
▁Tw	-9899
▁pk	-9900
ihto	-9901
rees	-9902
seet	-9903
▁Mat	-9904
▁Tun	-9905
▁Vol	-9906
▁aud	-9907
▁tyh	-9908
etoim	-9909
htori	-9910
▁Kell	-9911
▁Tule	-9912
▁viis	-9913
aiseen	-9914
ikassa	-9915
laisen	-9916
▁pakot	-9917
▁poist	-9918
▁purch	-9919
▁saisi	-9920
▁sales	-9921
esityks	-9922
istinen	-9923
lisäver	-9924
yksissä	-9925
▁eniten	-9926
▁expand	-9927
▁urheil	-9928
▁vasemm	-9929
▁waters	-9930
economic	-9931
▁Forward	-9932
▁firstly	-9933
▁puolust	-9934
▁sijasta	-9935
▁tehokas	-9936
▁tärkeän	-9937
▁vihreän	-9938
▁property	-9939
▁Petitions	-9940
▁hyödyntää	-9941
▁inclusion	-9942
▁kyseisten	-9943
▁käyttävät	-9944
▁thousands	-9945
▁virkamies	-9946
▁vaikuttavat	-9947
valiokunnassa	-9948
▁constitutional	-9949
▁ensisijaisesti	-9950
▁täysistunnossa	-9951
▁samanaikaisesti	-9952
An	-9953
chi	-9954
lez	-9955
rez	-9956
tra	-9957
▁FI	-9958
alli	-9959
hetk	-9960
änsä	-9961
▁MED	-9962
▁Yet	-9963
innot	-9964
ittel	-9965
lanti	-9966
uttom	-9967
yleis	-9968
▁Finn	-9969
▁Vain	-9970
▁fyys	-9971
▁intr	-9972
▁omat	-9973
▁tapp	-9974
▁town	-9975
istian	-9976
istään	-9977
▁Appro	-9978
▁Berth	-9979
▁expos	-9980
▁uhkaa	-9981
istanut	-9982
▁Ruotsi	-9983
▁causes	-9984
▁halunn	-9985
▁latest	-9986
▁neuvon	-9987
▁settle	-9988
ionosoit	-9989
ärjestys	-9990
▁Culture	-9991
▁bananas	-9992
▁careful	-9993
▁disappe	-9994
▁herättä	-9995
▁Mietintö	-9996
▁applying	-9997
▁toivomme	-9998
▁aloitteen	-9999
▁muutokset	-10000
▁unanimity	-10001
▁Valiokunta	-10002
▁asiakirjat	-10003
▁competence	-10004
▁determined	-10005
▁tietenkään	-10006
▁aikavälillä	-10007
▁naudanlihan	-10008
institutional	-10009
▁aktiivisesti	-10010
▁sufficiently	-10011
▁ensimmäisessä	-10012
▁oikeudellisen	-10013
▁communications	-10014
▁saavuttamiseksi	-10015
UR	-10016
COD	-10017
ako	-10018
beek	-10019
keja	-10020
kejä	-10021
▁Cor	-10022
▁Del	-10023
▁GUE	-10024
▁Ong	-10025
kkejä	-10026
posal	-10027
taina	-10028
▁Mikä	-10029
▁NATO	-10030
▁erää	-10031
▁toki	-10032
Bowman	-10033
valtaa	-10034
▁arise	-10035
▁fruit	-10036
▁korot	-10037
▁pidän	-10038
▁trust	-10039
respond	-10040
▁Tiedän	-10041
▁losses	-10042
▁lukuun	-10043
▁painot	-10044
▁pyrkiä	-10045
▁Control	-10046
▁Poliitt	-10047
▁Sosiaal	-10048
▁reflect	-10049
▁aiheista	-10050
▁deadline	-10051
▁ryhmämme	-10052
▁whatever	-10053
▁competent	-10054
▁happening	-10055
▁julkisten	-10056
▁järjestön	-10057
▁käsitelty	-10058
▁menestyks	-10059
▁perfectly	-10060
▁rajoittaa	-10061
▁ristiriit	-10062
▁Employment	-10063
▁constitute	-10064
▁understood	-10065
▁väkivallan	-10066
▁immigration	-10067
▁komissiossa	-10068
▁mahdollinen	-10069
▁tavoitteita	-10070
▁toimielimet	-10071
▁vuoropuhelu	-10072
▁asiakirjojen	-10073
▁energialähte	-10074
▁liberalization	-10075
▁asianmukaisesti	-10076
py	-10077
avio	-10078
▁Tär	-10079
▁raj	-10080
▁ton	-10081
annoy	-10082
ongol	-10083
perus	-10084
tömät	-10085
▁Ford	-10086
▁häir	-10087
▁test	-10088
▁expec	-10089
▁ikään	-10090
▁prove	-10091
▁sydäm	-10092
▁tekst	-10093
televat	-10094
uutensa	-10095
▁Anders	-10096
▁Lannoy	-10097
▁Oikeus	-10098
▁custom	-10099
▁heikko	-10100
▁margin	-10101
▁painop	-10102
▁please	-10103
▁toisia	-10104
▁travel	-10105
▁confron	-10106
▁esiinty	-10107
▁imports	-10108
▁infring	-10109
▁motions	-10110
▁penalty	-10111
▁pitkään	-10112
▁tavarat	-10113
▁vaalien	-10114
▁yleistä	-10115
▁geograph	-10116
▁joutuvat	-10117
▁responsi	-10118
▁socalled	-10119
▁uskottav	-10120
▁Education	-10121
▁markkinat	-10122
▁osoittaut	-10123
▁äskettäin	-10124
▁Eurooppaan	-10125
▁asiakirjan	-10126
▁saataisiin	-10127
▁considering	-10128
▁constructive	-10129
▁independence	-10130
▁multinational	-10131
▁taloudellisesti	-10132
LE	-10133
bled	-10134
kiin	-10135
yann	-10136
▁OSH	-10137
istry	-10138
▁clim	-10139
illing	-10140
imeksi	-10141
taansa	-10142
▁Found	-10143
▁Phare	-10144
▁While	-10145
▁ankar	-10146
▁apart	-10147
Istunto	-10148
ikainen	-10149
utuksen	-10150
▁aloite	-10151
▁alusta	-10152
▁asetus	-10153
▁depart	-10154
▁Cresson	-10155
▁Japanin	-10156
▁Posselt	-10157
▁himself	-10158
uttaminen	-10159
▁laatinut	-10160
▁päättävä	-10161
▁sensible	-10162
▁työnanta	-10163
▁tärkeänä	-10164
Britannian	-10165
▁Itävallan	-10166
▁etukäteen	-10167
▁kansallis	-10168
▁kuluttaja	-10169
▁emphasized	-10170
▁todellisen	-10171
▁toimeenpan	-10172
▁Erityisesti	-10173
▁hallitukset	-10174
▁poliittisesti	-10175
AG	-10176
hin	-10177
lim	-10178
mid	-10179
uma	-10180
arma	-10181
cked	-10182
tium	-10183
▁Tor	-10184
▁dic	-10185
aikaa	-10186
ellis	-10187
ihall	-10188
jaksi	-10189
uissa	-10190
▁Lomé	-10191
▁NGOs	-10192
▁eikö	-10193
▁juur	-10194
▁reag	-10195
action	-10196
aisena	-10197
▁McMah	-10198
▁error	-10199
▁heart	-10200
▁sähkö	-10201
▁toler	-10202
▁veron	-10203
▁voice	-10204
regular	-10205
▁Christ	-10206
▁Ortega	-10207
▁commun	-10208
▁consor	-10209
▁fourth	-10210
▁kunkin	-10211
▁manage	-10212
▁purely	-10213
▁työhön	-10214
▁tähden	-10215
▁Kanadan	-10216
▁ajoneuv	-10217
▁ennakko	-10218
▁keeping	-10219
▁käydään	-10220
▁largely	-10221
▁pitävät	-10222
▁science	-10223
käsittely	-10224
▁controll	-10225
▁eligible	-10226
▁järjesty	-10227
▁vapaasti	-10228
▁Hollannin	-10229
▁naudanlih	-10230
▁regularly	-10231
▁toimimaan	-10232
▁vastaanot	-10233
▁helmikuuta	-10234
▁myönteinen	-10235
▁oikeutettu	-10236
▁olemassaol	-10237
▁aiheuttavat	-10238
▁suosituksia	-10239
▁mietinnöstään	-10240
En	-10241
Pl	-10242
ria	-10243
zio	-10244
elyt	-10245
hest	-10246
sume	-10247
▁Onn	-10248
▁ena	-10249
▁lup	-10250
kkeen	-10251
▁Rand	-10252
▁aste	-10253
▁eräs	-10254
▁rinn	-10255
▁tuho	-10256
▁unit	-10257
alueen	-10258
dinary	-10259
▁Prime	-10260
▁Ymmär	-10261
▁liike	-10262
▁lower	-10263
ulating	-10264
▁Follow	-10265
▁Italia	-10266
▁arvost	-10267
▁assume	-10268
▁cunent	-10269
▁tullin	-10270
▁voitte	-10271
▁yhteys	-10272
▁asemaan	-10273
▁assosio	-10274
▁disease	-10275
▁drawing	-10276
▁itsensä	-10277
▁korvaus	-10278
▁kriteer	-10279
▁laajent	-10280
▁millään	-10281
▁valinta	-10282
▁allowing	-10283
▁artiklaa	-10284
▁combined	-10285
▁identity	-10286
▁kahdesta	-10287
▁Andersson	-10288
▁arguments	-10289
▁exclusion	-10290
▁liittyvää	-10291
▁protected	-10292
▁Wijsenbeek	-10293
▁maintained	-10294
▁verotuksen	-10295
▁crossborder	-10296
▁delegations	-10297
▁kansanterve	-10298
▁parantamiseksi	-10299
gue	-10300
otu	-10301
zqu	-10302
ario	-10303
onan	-10304
umed	-10305
▁mus	-10306
▁Conf	-10307
▁Wolf	-10308
▁taku	-10309
iikkaa	-10310
zquier	-10311
▁PARLA	-10312
▁hopes	-10313
▁jolle	-10314
▁kuusi	-10315
▁puite	-10316
▁sides	-10317
▁tosin	-10318
ophobia	-10319
▁Commit	-10320
▁enimmä	-10321
▁kasvua	-10322
▁maasta	-10323
▁omasta	-10324
▁syntyy	-10325
▁teiltä	-10326
▁teleph	-10327
▁tietyt	-10328
▁vakiin	-10329
▁Randzio	-10330
▁sanonut	-10331
▁whereas	-10332
▁yrittää	-10333
streaming	-10334
▁debating	-10335
▁tapahtua	-10336
▁tarkista	-10337
▁appointed	-10338
▁diversity	-10339
▁kilpailua	-10340
▁referring	-10341
▁background	-10342
▁correspond	-10343
▁lääketiete	-10344
▁vaikutusta	-10345
▁vuosittain	-10346
▁concentrate	-10347
▁demonstrate	-10348
▁kansallinen	-10349
▁merkityksen	-10350
▁pöytäkirjan	-10351
▁välttämättä	-10352
▁kysymyksessä	-10353
▁yksimielisesti	-10354
las	-10355
▁Cu	-10356
▁Dy	-10357
▁Fa	-10358
ingu	-10359
odan	-10360
▁Ant	-10361
▁Keh	-10362
▁Mor	-10363
▁VAL	-10364
▁ark	-10365
▁sid	-10366
guese	-10367
limin	-10368
▁Ukra	-10369
▁sata	-10370
ademic	-10371
eltiin	-10372
estiin	-10373
irkail	-10374
▁McCar	-10375
▁Tansk	-10376
▁pract	-10377
▁sanoo	-10378
▁skill	-10379
▁varov	-10380
yksestä	-10381
▁beings	-10382
▁laitte	-10383
▁slight	-10384
▁sought	-10385
▁symbol	-10386
▁totesi	-10387
▁tuntuu	-10388
▁vaalit	-10389
▁vakuus	-10390
▁vuosia	-10391
▁ylipää	-10392
enjohtaj	-10393
istukset	-10394
▁Kellett	-10395
▁happens	-10396
▁innovat	-10397
▁milloin	-10398
▁suojelu	-10399
▁Israelin	-10400
▁julkista	-10401
▁kuulemis	-10402
▁politics	-10403
▁tarkkaan	-10404
ärjestystä	-10405
▁complaint	-10406
▁uudestaan	-10407
▁valtuudet	-10408
▁vastausta	-10409
▁Portuguese	-10410
▁difficulty	-10411
▁ultimately	-10412
▁educational	-10413
▁arvonlisäver	-10414
▁neuvotteluja	-10415
▁soveltamista	-10416
▁tarkoituksen	-10417
▁velvollisuus	-10418
▁edistämiseksi	-10419
▁rikollisuuden	-10420
RAN	-10421
▁ey	-10422
aken	-10423
koht	-10424
urer	-10425
▁Sal	-10426
▁Ste	-10427
▁dev	-10428
▁häv	-10429
▁jen	-10430
Plath	-10431
atiiv	-10432
immin	-10433
mpien	-10434
▁Aino	-10435
▁koit	-10436
▁pati	-10437
eltaan	-10438
joissa	-10439
▁deals	-10440
▁omaan	-10441
▁paras	-10442
▁tarve	-10443
asiteet	-10444
▁Berthu	-10445
▁agents	-10446
▁figure	-10447
▁laadun	-10448
▁syrjin	-10449
▁vähenn	-10450
liminary	-10451
▁deliber	-10452
▁epävarm	-10453
▁kauppaa	-10454
▁lopussa	-10455
▁äänesti	-10456
▁changing	-10457
▁esiintyy	-10458
▁pyytänyt	-10459
▁toiseksi	-10460
▁valmiste	-10461
▁estimates	-10462
▁irregular	-10463
▁käynnistä	-10464
▁tarkastus	-10465
▁vallitsee	-10466
▁Foundation	-10467
▁applicable	-10468
▁appreciate	-10469
▁innovation	-10470
▁kuluttajan	-10471
▁käsittelyä	-10472
▁lähestymis	-10473
▁personally	-10474
▁yhteisössä	-10475
politiikkaan	-10476
▁Mietinnössä	-10477
▁Yhdysvaltain	-10478
▁järjestäytyn	-10479
▁määrärahojen	-10480
▁Parliamentary	-10481
▁todellisuudessa	-10482
far	-10483
met	-10484
unk	-10485
ages	-10486
arch	-10487
lags	-10488
mith	-10489
pank	-10490
ster	-10491
teta	-10492
öntä	-10493
▁Afr	-10494
▁Kul	-10495
▁Nel	-10496
▁Rus	-10497
▁Yes	-10498
▁rav	-10499
avoit	-10500
ipher	-10501
vassa	-10502
ynnän	-10503
▁Alue	-10504
▁kuka	-10505
▁olin	-10506
▁palj	-10507
▁pann	-10508
▁tool	-10509
▁viid	-10510
ointia	-10511
▁Finan	-10512
▁court	-10513
▁decis	-10514
▁kysyn	-10515
▁käydä	-10516
▁samat	-10517
▁shipp	-10518
▁solve	-10519
aisesta	-10520
▁Having	-10521
▁alijää	-10522
▁belong	-10523
▁courts	-10524
▁luonte	-10525
▁poliit	-10526
ittämään	-10527
▁Aelvoet	-10528
▁Ensiksi	-10529
▁McMahon	-10530
▁Tarkoit	-10531
▁Unionin	-10532
▁aikoina	-10533
▁ensiksi	-10534
▁piiriin	-10535
▁valvonn	-10536
▁voineet	-10537
▁Tiedämme	-10538
▁huolehti	-10539
▁jatkossa	-10540
▁merkille	-10541
▁suojelua	-10542
itoimipaik	-10543
menettelyä	-10544
▁arvioidaan	-10545
▁perustusla	-10546
▁commitments	-10547
▁merkittävää	-10548
▁politicians	-10549
▁Conciliation	-10550
▁vuoropuhelua	-10551
▁määräenemmistö	-10552
ITTE	-10553
utan	-10554
▁Kon	-10555
▁est	-10556
▁län	-10557
▁psy	-10558
aista	-10559
äännö	-10560
▁Ison	-10561
▁Serb	-10562
▁disp	-10563
▁hoid	-10564
etyssä	-10565
idemme	-10566
tially	-10567
▁nimit	-10568
▁Summit	-10569
▁ekolog	-10570
▁expert	-10571
▁explic	-10572
▁luulen	-10573
▁played	-10574
▁Rothley	-10575
▁briefly	-10576
▁valmist	-10577
emination	-10578
uvostossa	-10579
▁Papayann	-10580
▁attached	-10581
▁jokaisen	-10582
▁kannatan	-10583
▁ordinary	-10584
▁radikaal	-10585
▁uncertain	-10586
▁velvoitte	-10587
▁compliance	-10588
▁previously	-10589
▁ehdotukseen	-10590
▁komissiolla	-10591
▁muodostavat	-10592
▁suhteellisen	-10593
▁yhteenliitty	-10594
▁varmistamiseksi	-10595
RI	-10596
hon	-10597
andb	-10598
ensa	-10599
holm	-10600
ilpa	-10601
siiv	-10602
ölle	-10603
▁huo	-10604
▁rul	-10605
arvoa	-10606
tilas	-10607
▁John	-10608
▁Serv	-10609
▁dign	-10610
▁isol	-10611
▁synn	-10612
anging	-10613
gested	-10614
itella	-10615
▁Pinhe	-10616
▁pääsi	-10617
▁tiivi	-10618
▁tältä	-10619
immistä	-10620
▁Alavan	-10621
▁tunnus	-10622
▁verran	-10623
▁väitte	-10624
utumista	-10625
▁Minulla	-10626
▁cloning	-10627
▁consign	-10628
▁obliged	-10629
▁tasolle	-10630
▁viljely	-10631
▁väliset	-10632
▁weapons	-10633
▁Socrates	-10634
▁henkilöt	-10635
▁positiiv	-10636
▁tarkoita	-10637
▁tarpeell	-10638
▁tyydyttä	-10639
▁vuodelle	-10640
päätöslaus	-10641
▁laajentaa	-10642
▁ongelmiin	-10643
▁päättänyt	-10644
▁realistic	-10645
▁todettava	-10646
▁undertake	-10647
▁incentives	-10648
▁käsityksen	-10649
▁presidentti	-10650
▁transparent	-10651
▁varainhoito	-10652
▁äärimmäisen	-10653
▁toteuttamaan	-10654
▁transitional	-10655
▁biotechnology	-10656
▁kertomuksessa	-10657
bk	-10658
aUy	-10659
acc	-10660
esk	-10661
net	-10662
zan	-10663
änn	-10664
▁Da	-10665
▁IM	-10666
ajat	-10667
atti	-10668
▁Its	-10669
▁Non	-10670
▁Rah	-10671
▁TAC	-10672
▁ren	-10673
itage	-10674
mming	-10675
▁Dybk	-10676
▁Sisä	-10677
▁haki	-10678
▁leim	-10679
▁nous	-10680
▁trib	-10681
▁tutk	-10682
elleet	-10683
joihin	-10684
komite	-10685
tivity	-10686
▁Näitä	-10687
▁annex	-10688
▁award	-10689
▁daily	-10690
▁fleet	-10691
▁green	-10692
▁juris	-10693
▁mines	-10694
▁monen	-10695
▁Martin	-10696
▁exceed	-10697
▁saakka	-10698
▁todenn	-10699
▁tuhans	-10700
▁tullit	-10701
zquierdo	-10702
▁holding	-10703
▁relates	-10704
▁seitsem	-10705
▁tarjota	-10706
▁tulevan	-10707
▁Alavanos	-10708
▁approxim	-10709
▁explicit	-10710
▁järkevää	-10711
▁käsittää	-10712
▁menettel	-10713
▁oikeudet	-10714
▁vakautta	-10715
▁vapauden	-10716
▁yhteisiä	-10717
▁yhteyttä	-10718
▁PARLAMENT	-10719
▁announced	-10720
▁bilateral	-10721
▁explained	-10722
▁huolehtia	-10723
▁sosiaalip	-10724
▁Honourable	-10725
▁harjoittaa	-10726
▁myönteistä	-10727
▁näkökohtia	-10728
▁Pöytäkirjan	-10729
▁periaatetta	-10730
▁teknologian	-10731
▁toimivaltaa	-10732
▁incorporated	-10733
▁tiedotusväline	-10734
ls	-10735
oke	-10736
tas	-10737
▁Ih	-10738
aman	-10739
lied	-10740
▁näh	-10741
empää	-10742
isyyd	-10743
kyvyn	-10744
ouses	-10745
tocks	-10746
▁Blak	-10747
▁fell	-10748
▁luul	-10749
▁sinc	-10750
▁warm	-10751
pankin	-10752
▁Civil	-10753
▁Vilvo	-10754
▁etene	-10755
▁euron	-10756
▁kirje	-10757
▁lakka	-10758
▁lause	-10759
▁maksu	-10760
▁nähtä	-10761
▁relia	-10762
▁silti	-10763
analyys	-10764
▁Näistä	-10765
▁Ukrain	-10766
▁brings	-10767
▁kunnes	-10768
▁kunnia	-10769
▁naisia	-10770
▁stable	-10771
▁transl	-10772
▁keskinä	-10773
▁koordin	-10774
▁largest	-10775
▁pilarin	-10776
▁tekstin	-10777
istuminen	-10778
▁asioihin	-10779
▁excluded	-10780
▁haluaisi	-10781
▁helposti	-10782
▁identify	-10783
▁kyseinen	-10784
▁percenta	-10785
▁requests	-10786
▁abolition	-10787
▁koskeviin	-10788
▁mechanism	-10789
▁preparing	-10790
▁consortium	-10791
▁guaranteed	-10792
▁koskevissa	-10793
▁käyttämään	-10794
▁määritellä	-10795
▁seuraukset	-10796
▁Mielestämme	-10797
▁maaliskuuta	-10798
▁vuosikertom	-10799
▁kehityksestä	-10800
▁registration	-10801
▁kasvinjalosta	-10802
▁toteuttamista	-10803
▁ulkosuhteiden	-10804
asu	-10805
ksy	-10806
lam	-10807
tui	-10808
▁ca	-10809
▁mi	-10810
avia	-10811
cont	-10812
inin	-10813
▁Ilm	-10814
▁Kol	-10815
▁dia	-10816
ettyä	-10817
impiä	-10818
ismia	-10819
itoum	-10820
uable	-10821
verty	-10822
▁rail	-10823
▁surv	-10824
▁valm	-10825
▁vank	-10826
isitte	-10827
unning	-10828
▁Palac	-10829
▁Rouva	-10830
▁admit	-10831
▁käyty	-10832
iikanen	-10833
immista	-10834
▁Voimme	-10835
▁define	-10836
▁kattaa	-10837
▁liiall	-10838
▁näille	-10839
▁valtaa	-10840
▁Finnish	-10841
▁exports	-10842
▁kilomet	-10843
▁lisättä	-10844
▁materia	-10845
▁oikeaan	-10846
▁poverty	-10847
▁seuraam	-10848
▁toisiin	-10849
▁treated	-10850
▁usually	-10851
▁verotus	-10852
ityksellä	-10853
▁Liikanen	-10854
▁Saksassa	-10855
▁financed	-10856
▁kantansa	-10857
▁katastro	-10858
▁keskitty	-10859
▁lopettaa	-10860
▁suuntaut	-10861
▁tuloksen	-10862
▁Following	-10863
▁aikavälin	-10864
▁candidate	-10865
▁continues	-10866
▁kustannus	-10867
▁materials	-10868
▁esittäneet	-10869
▁processing	-10870
▁soveltamis	-10871
▁enforcement	-10872
▁maataloutta	-10873
▁conservation	-10874
▁demonstrated	-10875
▁ratification	-10876
apä	-10877
erd	-10878
mod	-10879
siä	-10880
erse	-10881
leyn	-10882
▁don	-10883
empaa	-10884
jista	-10885
ondon	-10886
puole	-10887
ursse	-10888
▁Read	-10889
▁Spen	-10890
▁mach	-10891
▁prot	-10892
▁size	-10893
▁tien	-10894
tajien	-10895
vision	-10896
▁Monet	-10897
▁huono	-10898
▁jatko	-10899
▁proof	-10900
▁sorry	-10901
▁worse	-10902
itellen	-10903
kumppan	-10904
ongress	-10905
▁Middle	-10906
▁charge	-10907
▁forest	-10908
▁spread	-10909
▁stocks	-10910
▁viikon	-10911
▁Kirjoit	-10912
▁courses	-10913
▁elector	-10914
▁kieltää	-10915
▁lausunn	-10916
▁covering	-10917
▁diseases	-10918
▁heritage	-10919
▁nykyistä	-10920
▁vastuuta	-10921
▁Direktiiv	-10922
▁Taloudell	-10923
▁asiakirja	-10924
▁suffering	-10925
▁ehdotetaan	-10926
▁electronic	-10927
▁määrittele	-10928
▁tiedonanto	-10929
▁Yhdysvallat	-10930
▁complicated	-10931
▁credibility	-10932
▁huomattavia	-10933
▁kyseenalais	-10934
▁preliminary	-10935
▁sovereignty	-10936
▁toteutetaan	-10937
ionosoituksia	-10938
▁tarkistuksista	-10939
▁välttämättömiä	-10940
ATT	-10941
dly	-10942
eta	-10943
ode	-10944
oij	-10945
tun	-10946
ulz	-10947
gent	-10948
oted	-10949
sian	-10950
year	-10951
▁CAP	-10952
▁Län	-10953
▁Mos	-10954
▁UPE	-10955
▁raa	-10956
▁xen	-10957
itzer	-10958
lying	-10959
tured	-10960
▁Waal	-10961
▁fine	-10962
▁holl	-10963
▁naut	-10964
▁subs	-10965
kemmin	-10966
ksestä	-10967
paikan	-10968
▁Rural	-10969
▁lujit	-10970
▁pohjo	-10971
▁secre	-10972
▁struc	-10973
▁useat	-10974
kkeiden	-10975
omitean	-10976
▁Mongol	-10977
▁Schulz	-10978
▁Toisin	-10979
▁became	-10980
▁palaut	-10981
▁siviil	-10982
ityksiin	-10983
▁capable	-10984
▁climate	-10985
▁greatly	-10986
▁pyynnön	-10987
▁schools	-10988
▁compared	-10989
▁huolinta	-10990
▁interven	-10991
▁joukossa	-10992
▁muutaman	-10993
▁suojella	-10994
asiakirjan	-10995
tructuring	-10996
▁Tällainen	-10997
▁käynnissä	-10998
▁maantiete	-10999
▁pyydetään	-11000
▁suggested	-11001
▁suspended	-11002
▁viestintä	-11003
itarikunnan	-11004
okraattisen	-11005
▁hallitusta	-11006
▁preventing	-11007
▁periaatteen	-11008
▁rapporteurs	-11009
▁puhemiehistö	-11010
▁Yhdistyneessä	-11011
▁keskustellaan	-11012
▁passituksesta	-11013
SI	-11014
cia	-11015
jek	-11016
osh	-11017
aged	-11018
ikon	-11019
uhun	-11020
utul	-11021
väen	-11022
wers	-11023
▁Kaz	-11024
▁hoc	-11025
▁hou	-11026
▁kre	-11027
▁kyl	-11028
▁vig	-11029
▁ölj	-11030
aking	-11031
anska	-11032
lined	-11033
urers	-11034
uutan	-11035
▁Ajat	-11036
▁Bart	-11037
▁Both	-11038
▁Part	-11039
▁devo	-11040
▁ende	-11041
▁moni	-11042
▁näyt	-11043
▁sets	-11044
▁stra	-11045
▁went	-11046
active	-11047
eltävä	-11048
enness	-11049
igence	-11050
▁hands	-11051
▁joutu	-11052
▁julki	-11053
▁säily	-11054
ettavat	-11055
▁Angers	-11056
▁Virgin	-11057
▁käsite	-11058
▁laatua	-11059
▁säilyt	-11060
▁vaalip	-11061
▁yksilö	-11062
▁autonom	-11063
▁ehkäise	-11064
▁pidämme	-11065
▁riippuu	-11066
▁työvoim	-11067
▁vapaata	-11068
▁absolute	-11069
▁aineiden	-11070
▁pitkällä	-11071
▁stressed	-11072
▁ministers	-11073
▁tullimaks	-11074
▁työllistä	-11075
▁pkyritysten	-11076
▁kehittämiseen	-11077
én	-11078
▁PP	-11079
ites	-11080
koin	-11081
saan	-11082
tiön	-11083
wing	-11084
▁etn	-11085
▁käd	-11086
▁unn	-11087
▁voc	-11088
allis	-11089
neitä	-11090
pects	-11091
utala	-11092
▁paho	-11093
intosh	-11094
irsten	-11095
kohtia	-11096
tavana	-11097
uvasti	-11098
▁Youth	-11099
▁below	-11100
▁kehot	-11101
▁poUcy	-11102
aisessa	-11103
▁excise	-11104
▁secret	-11105
▁shared	-11106
▁signal	-11107
▁tariff	-11108
▁volume	-11109
▁Kirsten	-11110
▁Western	-11111
▁budgets	-11112
▁englann	-11113
▁huolehd	-11114
▁periods	-11115
▁turvall	-11116
järjestöt	-11117
yritysten	-11118
▁Pinheiro	-11119
▁diplomat	-11120
▁muutosta	-11121
▁peaceful	-11122
▁suoritta	-11123
▁tehtävät	-11124
▁tuettava	-11125
▁vaativat	-11126
▁valmiita	-11127
▁välisten	-11128
▁Barcelona	-11129
▁monikansa	-11130
▁penalties	-11131
▁resulting	-11132
▁tilaisuus	-11133
▁vastustaa	-11134
▁viimeisen	-11135
▁ilmeisesti	-11136
▁ratkaisuja	-11137
▁saatavilla	-11138
▁consequence	-11139
▁demokratiaa	-11140
▁riippumatta	-11141
▁yhteiskunta	-11142
▁expectations	-11143
▁periaatteita	-11144
▁universities	-11145
järjestelmässä	-11146
▁restructuring	-11147
nin	-11148
kate	-11149
▁Sov	-11150
▁cle	-11151
▁hom	-11152
▁kai	-11153
based	-11154
isinä	-11155
ogerd	-11156
▁Neuv	-11157
▁fees	-11158
elämän	-11159
tariat	-11160
▁black	-11161
▁hanke	-11162
▁sanan	-11163
▁ships	-11164
omestic	-11165
tamassa	-11166
tamasta	-11167
▁helppo	-11168
▁katson	-11169
▁kommun	-11170
▁lyhyen	-11171
▁pieniä	-11172
▁vapaut	-11173
alueiden	-11174
kohdista	-11175
▁Boogerd	-11176
▁Finance	-11177
▁Hautala	-11178
▁lopetta	-11179
istaminen	-11180
▁Cohesion	-11181
▁Itävalta	-11182
▁flexible	-11183
▁keksintö	-11184
▁riittävä	-11185
välineiden	-11186
▁combating	-11187
▁ongelmaan	-11188
▁organised	-11189
▁syyskuuta	-11190
▁Euroopasta	-11191
▁Federation	-11192
▁Socialists	-11193
▁consistent	-11194
▁kalatalous	-11195
▁lopultakin	-11196
▁presenting	-11197
▁marraskuuta	-11198
▁negotiation	-11199
▁outstanding	-11200
▁rahoituksen	-11201
▁tarvitsevat	-11202
▁Consequently	-11203
▁valmistelija	-11204
▁Jäsenvaltioiden	-11205
TU	-11206
LIA	-11207
työ	-11208
alaa	-11209
crip	-11210
ismi	-11211
ktor	-11212
reas	-11213
tilä	-11214
▁Has	-11215
▁Plo	-11216
▁got	-11217
▁myy	-11218
▁syö	-11219
itekn	-11220
luvun	-11221
▁Flor	-11222
▁Sant	-11223
▁alus	-11224
▁reve	-11225
atures	-11226
itsisi	-11227
▁Lanck	-11228
▁advoc	-11229
▁kanss	-11230
▁menne	-11231
▁rahan	-11232
▁sanom	-11233
▁seven	-11234
▁surve	-11235
▁truth	-11236
ruption	-11237
▁Kolmas	-11238
▁Tutkim	-11239
▁hardly	-11240
▁kampan	-11241
▁korjaa	-11242
▁päätel	-11243
aineiden	-11244
etheless	-11245
komissio	-11246
▁Despite	-11247
▁Silloin	-11248
▁metsien	-11249
▁sukupol	-11250
▁tavanom	-11251
▁vastust	-11252
▁attempts	-11253
▁domestic	-11254
▁erikseen	-11255
▁infringe	-11256
▁stations	-11257
▁vuodelta	-11258
▁economics	-11259
▁jäsenistä	-11260
▁keskeyttä	-11261
▁virtually	-11262
▁ehdottoman	-11263
▁tuloksista	-11264
▁yksinomaan	-11265
▁henkilöstön	-11266
▁publication	-11267
▁unanimously	-11268
▁Puheenjohtaj	-11269
▁toteutettava	-11270
▁tuomioistuin	-11271
▁kalastussopim	-11272
▁qualifications	-11273
ahr	-11274
jud	-11275
atur	-11276
maat	-11277
sing	-11278
valv	-11279
▁ARE	-11280
▁Bre	-11281
▁Ros	-11282
▁alh	-11283
ingap	-11284
kinta	-11285
udron	-11286
▁Cohn	-11287
▁Hory	-11288
▁Work	-11289
▁heng	-11290
▁syyn	-11291
▁tart	-11292
ivalta	-11293
ydelle	-11294
▁Lomen	-11295
▁imper	-11296
▁rauta	-11297
▁rikka	-11298
oksissa	-11299
palvelu	-11300
valtiot	-11301
▁Plooij	-11302
▁Singap	-11303
▁displa	-11304
▁liikku	-11305
▁quotas	-11306
▁stands	-11307
▁takana	-11308
▁tuemme	-11309
▁Caudron	-11310
▁aluetta	-11311
▁arising	-11312
▁esteitä	-11313
▁highest	-11314
▁inspect	-11315
▁leaving	-11316
▁Itämeren	-11317
▁incident	-11318
▁kohtuull	-11319
▁laadittu	-11320
▁minority	-11321
▁ohjelmia	-11322
▁tiedotta	-11323
▁toimista	-11324
▁Izquierdo	-11325
▁erityinen	-11326
▁laatimaan	-11327
▁mainitaan	-11328
▁puolustaa	-11329
▁Portugalin	-11330
▁myönteisiä	-11331
▁perustuvat	-11332
▁preference	-11333
▁sovitteluk	-11334
▁kansallista	-11335
▁necessarily	-11336
▁restrictions	-11337
▁direktiivissä	-11338
▁noudattamista	-11339
▁toteuttaminen	-11340
▁eurooppalaisia	-11341
DS	-11342
ELM	-11343
nes	-11344
top	-11345
▁ES	-11346
mium	-11347
pill	-11348
raid	-11349
▁Fle	-11350
▁dep	-11351
▁ohe	-11352
iorah	-11353
istel	-11354
orous	-11355
ticip	-11356
▁GATT	-11357
▁Soul	-11358
▁pysä	-11359
▁saap	-11360
▁teen	-11361
Bendit	-11362
kuljet	-11363
käytän	-11364
vyyden	-11365
▁Muist	-11366
▁Votes	-11367
▁hakij	-11368
▁neuvo	-11369
aisivat	-11370
attoman	-11371
etyistä	-11372
ipheral	-11373
kohtana	-11374
oksessa	-11375
▁Delors	-11376
▁Henkil	-11377
▁afraid	-11378
▁allows	-11379
▁conect	-11380
▁elintä	-11381
▁espanj	-11382
▁honour	-11383
▁hyökkä	-11384
▁neuvoa	-11385
▁postal	-11386
▁shares	-11387
missible	-11388
▁Switzer	-11389
▁direkti	-11390
▁komment	-11391
▁puoleen	-11392
▁vakuutt	-11393
▁Approval	-11394
▁decisive	-11395
▁disagree	-11396
▁fighting	-11397
▁johtavat	-11398
▁osaltaan	-11399
▁väliseen	-11400
▁Ruotsissa	-11401
▁edistysas	-11402
▁itselleen	-11403
▁rahoittaa	-11404
▁strategia	-11405
▁syrjinnän	-11406
▁laiminlyön	-11407
▁legitimacy	-11408
▁vähitellen	-11409
▁Switzerland	-11410
▁distributed	-11411
▁toiminnassa	-11412
▁Kirjoittanut	-11413
▁edellytykset	-11414
▁kysymyksissä	-11415
▁liikkuvuutta	-11416
▁osallistuvat	-11417
▁tullivirkail	-11418
▁keskustelemme	-11419
▁parlamenttiin	-11420
▁periaatteiden	-11421
▁käsittelevässä	-11422
IK	-11423
euv	-11424
lee	-11425
ONAL	-11426
pace	-11427
reme	-11428
trib	-11429
velv	-11430
▁Dup	-11431
▁Pel	-11432
▁cat	-11433
RATES	-11434
gress	-11435
ients	-11436
okrat	-11437
▁Dayt	-11438
illani	-11439
tinnän	-11440
▁Sudan	-11441
▁Valko	-11442
▁ansio	-11443
▁enhan	-11444
harjoit	-11445
iikente	-11446
ikoista	-11447
istance	-11448
ologian	-11449
▁Berish	-11450
▁Yhtenä	-11451
▁ethnic	-11452
▁iltana	-11453
▁kärsim	-11454
▁palata	-11455
▁tilapä	-11456
▁twenty	-11457
mination	-11458
▁Istunto	-11459
▁Soulier	-11460
▁answers	-11461
▁becomes	-11462
▁johtuen	-11463
▁pidättä	-11464
▁välisiä	-11465
▁Austrian	-11466
▁Mcintosh	-11467
▁apparent	-11468
▁normally	-11469
▁openness	-11470
▁sukupuol	-11471
valtuuston	-11472
▁executive	-11473
▁lokakuuta	-11474
▁pyynnöstä	-11475
▁ratkaisua	-11476
▁valmistel	-11477
▁avoimuutta	-11478
▁percentage	-11479
▁sisältävät	-11480
▁toimittava	-11481
▁vastaamaan	-11482
▁perspective	-11483
▁politically	-11484
▁terrorismin	-11485
▁preparations	-11486
▁reservations	-11487
▁välityksellä	-11488
▁käsiteltävänä	-11489
▁tullilaitosten	-11490
ato	-11491
raf	-11492
▁Wa	-11493
Suos	-11494
arin	-11495
etus	-11496
hard	-11497
kann	-11498
käyn	-11499
meja	-11500
udes	-11501
yers	-11502
▁Osa	-11503
▁dig	-11504
▁dou	-11505
▁dur	-11506
▁fer	-11507
▁lak	-11508
▁pic	-11509
kaisu	-11510
retta	-11511
▁heij	-11512
▁hien	-11513
esitys	-11514
intiin	-11515
neiden	-11516
ousing	-11517
ustaja	-11518
▁Dybkj	-11519
▁GONAL	-11520
▁Miert	-11521
▁began	-11522
pension	-11523
▁Rooman	-11524
▁aiheen	-11525
▁covers	-11526
▁easily	-11527
▁nähden	-11528
▁rajoja	-11529
▁ryhmät	-11530
▁totean	-11531
▁traged	-11532
▁whilst	-11533
lannissa	-11534
tability	-11535
▁debated	-11536
▁depends	-11537
▁install	-11538
▁kritiik	-11539
▁parissa	-11540
▁premium	-11541
▁pursued	-11542
▁Alliance	-11543
▁COMMITTE	-11544
▁hintojen	-11545
▁mukainen	-11546
▁määrätty	-11547
▁ratified	-11548
▁tehtäviä	-11549
tuotteiden	-11550
▁Christian	-11551
▁Recommend	-11552
▁erilaiset	-11553
▁gradually	-11554
▁matkailuv	-11555
▁nykyisten	-11556
▁strategic	-11557
▁tarkemmin	-11558
▁tämänhetk	-11559
▁applicants	-11560
▁frequently	-11561
▁onnistunut	-11562
▁ylipäätään	-11563
▁äänestystä	-11564
markkinoiden	-11565
▁asetukseksi	-11566
▁communities	-11567
▁distinction	-11568
▁noudatettava	-11569
▁significance	-11570
▁valitettavaa	-11571
▁Yhdistyneiden	-11572
▁neuvotteluissa	-11573
▁oikeusasiamies	-11574
ops	-11575
kell	-11576
onne	-11577
orde	-11578
pito	-11579
▁cul	-11580
▁itä	-11581
ading	-11582
ctors	-11583
ellut	-11584
paino	-11585
timme	-11586
vista	-11587
▁Huol	-11588
▁West	-11589
▁haja	-11590
▁hylä	-11591
▁hätä	-11592
▁sana	-11593
▁tulk	-11594
undred	-11595
▁Suomi	-11596
▁Vielä	-11597
▁accur	-11598
▁adapt	-11599
▁built	-11600
▁meant	-11601
▁riski	-11602
▁route	-11603
▁viedä	-11604
▁voitu	-11605
keakoul	-11606
▁Mulder	-11607
▁Thomas	-11608
▁Tutkin	-11609
▁YHTEIS	-11610
▁aftern	-11611
▁liiton	-11612
▁merkki	-11613
▁relate	-11614
▁syyttä	-11615
uduttava	-11616
▁Radical	-11617
▁equival	-11618
▁lähellä	-11619
▁perform	-11620
▁puoluer	-11621
▁seurata	-11622
▁tuetaan	-11623
direktiiv	-11624
isyydestä	-11625
ututkinto	-11626
▁etteivät	-11627
▁johtanut	-11628
▁lähettää	-11629
▁overcome	-11630
▁selvitys	-11631
▁tehtävää	-11632
▁tulevien	-11633
▁vaatimus	-11634
palvelujen	-11635
▁Democrats	-11636
▁Ympäristö	-11637
▁ajatellen	-11638
▁discharge	-11639
▁endeavour	-11640
▁sanottuna	-11641
▁sellaiset	-11642
▁vastainen	-11643
▁Espanjassa	-11644
▁avoimuuden	-11645
▁candidates	-11646
▁compatible	-11647
▁forwarders	-11648
▁äänestämme	-11649
▁essentially	-11650
▁käsiteltävä	-11651
▁mahdollisia	-11652
▁ehdotuksessa	-11653
▁epäluottamus	-11654
▁olosuhteissa	-11655
▁dissemination	-11656
▁minkäänlaista	-11657
iki	-11658
sit	-11659
hilä	-11660
isan	-11661
nets	-11662
ores	-11663
road	-11664
tate	-11665
▁Kas	-11666
▁She	-11667
▁Tul	-11668
▁saw	-11669
kkien	-11670
▁Land	-11671
▁coup	-11672
▁doll	-11673
▁safe	-11674
▁taso	-11675
▁vaiv	-11676
ijoita	-11677
yksien	-11678
▁drift	-11679
▁pages	-11680
itsevat	-11681
mätöntä	-11682
uuksiin	-11683
▁London	-11684
▁Sitten	-11685
▁afford	-11686
▁delays	-11687
▁kuuden	-11688
▁määrät	-11689
▁unfair	-11690
okraatit	-11691
▁Ukraine	-11692
▁bearing	-11693
▁clarify	-11694
▁hankkim	-11695
▁islands	-11696
▁release	-11697
▁viittaa	-11698
▁Palestin	-11699
▁actively	-11700
▁antaneet	-11701
▁coherent	-11702
▁julkisia	-11703
▁kannanot	-11704
▁otettiin	-11705
▁poUtical	-11706
▁rational	-11707
▁shipping	-11708
▁standing	-11709
▁tietävät	-11710
▁valuable	-11711
Commission	-11712
umenettely	-11713
▁Rotterdam	-11714
▁erityisiä	-11715
▁helpottaa	-11716
▁jäseneksi	-11717
▁luottamus	-11718
▁riittämät	-11719
▁seuraavaa	-11720
▁tehtävien	-11721
▁säännösten	-11722
▁virallisen	-11723
▁ympäristöä	-11724
▁edistäminen	-11725
▁negotiating	-11726
▁soveltaminen	-11727
▁toistaiseksi	-11728
▁laajentumisen	-11729
▁ristiriidassa	-11730
▁talousarvioon	-11731
▁identification	-11732
BL	-11733
OT	-11734
PA	-11735
ey	-11736
ré	-11737
hat	-11738
jiä	-11739
kri	-11740
oli	-11741
▁Ur	-11742
aked	-11743
atan	-11744
fers	-11745
ihre	-11746
onas	-11747
vens	-11748
▁Cur	-11749
▁Ohj	-11750
▁Yor	-11751
▁nen	-11752
arian	-11753
bUity	-11754
emään	-11755
fence	-11756
kasta	-11757
ksson	-11758
paket	-11759
▁Jean	-11760
▁TRAN	-11761
▁alun	-11762
▁cast	-11763
▁coin	-11764
▁etua	-11765
utusta	-11766
▁ambit	-11767
▁ehdok	-11768
▁etelä	-11769
▁heavy	-11770
▁ilahd	-11771
▁labor	-11772
▁relig	-11773
▁syyll	-11774
ability	-11775
lantila	-11776
▁perpet	-11777
▁pienet	-11778
▁tonnes	-11779
▁widely	-11780
oikeutta	-11781
▁Without	-11782
▁behavio	-11783
▁esimerk	-11784
▁finding	-11785
▁helping	-11786
▁integro	-11787
▁mainits	-11788
▁pidettä	-11789
▁reserve	-11790
toimipaik	-11791
▁Eriksson	-11792
▁Ministry	-11793
▁articles	-11794
▁lopputul	-11795
▁luominen	-11796
▁millions	-11797
▁muodosta	-11798
▁olevista	-11799
▁afternoon	-11800
▁applicant	-11801
▁highlight	-11802
▁keskenään	-11803
▁smuggling	-11804
▁Esittelijä	-11805
▁collective	-11806
▁kunnianhim	-11807
▁myönnetään	-11808
▁määritelty	-11809
▁näkökohdat	-11810
▁registered	-11811
▁tällaisten	-11812
▁vocational	-11813
▁korostetaan	-11814
▁maintaining	-11815
▁ympäristöön	-11816
▁Latinalaisen	-11817
▁noudattamaan	-11818
▁vahvistetaan	-11819
▁bioteknologian	-11820
▁kansanpuolueen	-11821
▁toimenpiteistä	-11822
OF	-11823
ai	-11824
wa	-11825
és	-11826
arz	-11827
▁Lo	-11828
bert	-11829
dorf	-11830
ield	-11831
keet	-11832
tejä	-11833
udin	-11834
ytyä	-11835
▁Lis	-11836
▁ali	-11837
▁doc	-11838
▁hid	-11839
amman	-11840
avien	-11841
empia	-11842
ensio	-11843
entää	-11844
ialan	-11845
ilies	-11846
rants	-11847
ualue	-11848
▁Crow	-11849
▁Jarz	-11850
▁aids	-11851
▁forg	-11852
▁inev	-11853
▁neut	-11854
▁otti	-11855
▁säte	-11856
ksistä	-11857
uksell	-11858
▁Arias	-11859
▁Colle	-11860
▁Ihmis	-11861
▁lukum	-11862
▁moral	-11863
LIAMENT	-11864
attomia	-11865
ikuussa	-11866
istojen	-11867
ittävät	-11868
ortugal	-11869
urssien	-11870
usitoum	-11871
▁Kiitos	-11872
▁Siihen	-11873
▁alueet	-11874
▁compon	-11875
▁kohtel	-11876
▁kolmea	-11877
▁tuskin	-11878
▁uusiin	-11879
▁Jarzemb	-11880
▁kirjeen	-11881
▁logical	-11882
▁muutama	-11883
▁tavaran	-11884
▁useiden	-11885
ohjelmaan	-11886
unication	-11887
▁distance	-11888
▁ensisija	-11889
▁kuljetta	-11890
▁sisältöä	-11891
▁tukemaan	-11892
▁unnecess	-11893
▁yhdistää	-11894
▁ansaitsee	-11895
▁automaatt	-11896
▁emissions	-11897
▁koskemaan	-11898
▁lentoyhti	-11899
▁neuvottel	-11900
▁puutteita	-11901
▁vastaisen	-11902
▁vähimmäis	-11903
▁Alankomaat	-11904
▁Azerbaijan	-11905
▁PARLIAMENT	-11906
▁osapuolten	-11907
▁xenophobia	-11908
▁forthcoming	-11909
▁investments	-11910
▁keskuudessa	-11911
▁lääketieteen	-11912
▁yksittäisten	-11913
▁determination	-11914
▁jäsenvaltiota	-11915
▁työjärjestystä	-11916
▁demokraattisten	-11917
bra	-11918
ils	-11919
itt	-11920
nne	-11921
vai	-11922
Alba	-11923
Comm	-11924
ense	-11925
imet	-11926
pute	-11927
▁Cra	-11928
▁Dav	-11929
▁Ecu	-11930
▁etä	-11931
impia	-11932
using	-11933
uting	-11934
▁Dell	-11935
▁Siir	-11936
▁Suos	-11937
▁alar	-11938
▁lose	-11939
ahrton	-11940
ilosof	-11941
kuutus	-11942
unders	-11943
uvaihe	-11944
vaatio	-11945
varain	-11946
▁Sandb	-11947
▁harvo	-11948
▁house	-11949
▁marks	-11950
▁pakko	-11951
▁piden	-11952
▁ports	-11953
▁spend	-11954
▁tukia	-11955
▁uskoa	-11956
lauseen	-11957
tenance	-11958
▁Action	-11959
▁Annual	-11960
▁Ottaen	-11961
▁asiana	-11962
▁centre	-11963
▁marked	-11964
▁mietin	-11965
▁muuttu	-11966
itsemaan	-11967
▁Asensio	-11968
▁dignity	-11969
▁kappale	-11970
▁pysyvän	-11971
▁todista	-11972
▁viitata	-11973
▁ajatella	-11974
▁families	-11975
▁forecast	-11976
▁historic	-11977
▁mainitun	-11978
▁manufact	-11979
▁treaties	-11980
▁urgently	-11981
▁viittasi	-11982
▁viljelij	-11983
keskustelu	-11984
▁Italiassa	-11985
▁disappear	-11986
▁producing	-11987
▁prospects	-11988
▁pyrittävä	-11989
▁tällaiset	-11990
▁välisestä	-11991
▁Jarzembows	-11992
▁protecting	-11993
▁respective	-11994
▁explanation	-11995
▁kiitollinen	-11996
▁considerably	-11997
▁korostettava	-11998
▁teknologista	-11999
järjestelmästä	-12000
▁muuttamisesta	-12001
iqu	-12002
▁Sp	-12003
ague	-12004
husi	-12005
inks	-12006
rend	-12007
tull	-12008
uvaa	-12009
▁Die	-12010
▁Kom	-12011
▁MAR	-12012
▁amb	-12013
▁kad	-12014
ipuol	-12015
orial	-12016
orien	-12017
orsel	-12018
pping	-12019
ranga	-12020
▁Blad	-12021
▁Neil	-12022
▁Suur	-12023
▁alaa	-12024
▁joku	-12025
▁phen	-12026
arning	-12027
ursday	-12028
versen	-12029
▁Deleg	-12030
▁Guine	-12031
▁south	-12032
▁Reform	-12033
▁Torres	-12034
▁ehtoja	-12035
▁naapur	-12036
▁notice	-12037
▁profit	-12038
▁tiellä	-12039
▁asianom	-12040
▁fifteen	-12041
▁hearing	-12042
▁hundred	-12043
▁kahdeks	-12044
▁kuullut	-12045
▁legally	-12046
▁neuvote	-12047
▁tarpeet	-12048
▁whereby	-12049
▁Projects	-12050
▁arvoisan	-12051
▁cunently	-12052
▁employed	-12053
▁kohteena	-12054
▁maksujen	-12055
▁opposite	-12056
▁replaced	-12057
▁reported	-12058
▁suffered	-12059
▁supposed	-12060
▁toisista	-12061
▁valiokun	-12062
▁viivästy	-12063
▁ympärist	-12064
▁ambitious	-12065
▁eliminate	-12066
▁katastrof	-12067
▁laitosten	-12068
▁monimuoto	-12069
▁satellite	-12070
▁terrorist	-12071
▁regulatory	-12072
kustannukset	-12073
▁julkaistaan	-12074
▁läsnäolijat	-12075
▁tyytyväisenä	-12076
▁Luxemburgissa	-12077
▁valiokunnalle	-12078
▁soveltamisesta	-12079
▁tervetulleeksi	-12080
ei	-12081
na	-12082
ITY	-12083
POV	-12084
uir	-12085
Math	-12086
ehkä	-12087
eita	-12088
ikta	-12089
reet	-12090
▁Jul	-12091
▁dom	-12092
entaa	-12093
mises	-12094
osing	-12095
▁Aiko	-12096
▁Scot	-12097
▁Wulf	-12098
▁pyst	-12099
▁sulj	-12100
▁tech	-12101
amalla	-12102
asters	-12103
husias	-12104
ilosop	-12105
istoim	-12106
kanaan	-12107
olloin	-12108
outeen	-12109
taviin	-12110
uutena	-12111
▁Amade	-12112
▁Luonn	-12113
▁Slova	-12114
▁front	-12115
▁jurid	-12116
▁persu	-12117
▁postp	-12118
misella	-12119
tieteen	-12120
umption	-12121
▁acting	-12122
▁contro	-12123
▁kiista	-12124
▁kirjat	-12125
▁puolet	-12126
▁turvat	-12127
▁valita	-12128
utumisen	-12129
▁Aikooko	-12130
▁Gahrton	-12131
▁Palacio	-12132
▁helpful	-12133
▁luomaan	-12134
▁restore	-12135
▁savings	-12136
▁tilalle	-12137
▁väittää	-12138
▁Kestelij	-12139
▁Thursday	-12140
▁anteeksi	-12141
▁suositus	-12142
toimenpite	-12143
▁annettiin	-12144
▁behaviour	-12145
▁edustajia	-12146
▁examining	-12147
▁extending	-12148
▁kokoonpan	-12149
▁pääosasto	-12150
▁yhteisten	-12151
▁esitettävä	-12152
▁pidemmälle	-12153
▁procedural	-12154
▁coordinated	-12155
▁exclusively	-12156
▁sisällyttää	-12157
▁Papayannakis	-12158
▁edustajakoko	-12159
▁soveltamisen	-12160
ui	-12161
IOK	-12162
Van	-12163
ape	-12164
eli	-12165
ihu	-12166
mma	-12167
rop	-12168
Sier	-12169
ique	-12170
kiel	-12171
mans	-12172
muot	-12173
olon	-12174
otus	-12175
▁Alb	-12176
▁kaa	-12177
▁lay	-12178
edera	-12179
iivat	-12180
oking	-12181
▁Drug	-12182
▁Weil	-12183
▁cult	-12184
▁kyky	-12185
▁polt	-12186
▁site	-12187
▁vers	-12188
uttiin	-12189
visory	-12190
▁Cramp	-12191
▁abuse	-12192
▁blame	-12193
▁jakaa	-12194
▁koski	-12195
▁lobby	-12196
▁luvut	-12197
▁lähen	-12198
Mathies	-12199
comings	-12200
inenerg	-12201
lagship	-12202
▁Hallam	-12203
▁Niinpä	-12204
▁Soviet	-12205
▁Tänään	-12206
▁acquis	-12207
▁destro	-12208
▁doubts	-12209
▁helpom	-12210
▁kirjaa	-12211
▁leikka	-12212
▁otamme	-12213
▁tukien	-12214
▁valinn	-12215
▁Defence	-12216
▁Lannoye	-12217
▁Russian	-12218
▁attacks	-12219
▁contrad	-12220
▁epätasa	-12221
▁ettemme	-12222
▁harmful	-12223
▁nuoriso	-12224
▁sihteer	-12225
▁siirtol	-12226
▁sotilas	-12227
▁tohtori	-12228
▁tuottaa	-12229
▁Sveitsin	-12230
▁Toivomme	-12231
▁koordino	-12232
▁launched	-12233
▁northern	-12234
▁strictly	-12235
▁tekninen	-12236
▁Budgetary	-12237
▁Kestelijn	-12238
▁Whitehead	-12239
▁correctly	-12240
▁esittämän	-12241
▁exchanges	-12242
▁istuntoja	-12243
▁mielipide	-12244
▁misunders	-12245
▁päätösten	-12246
▁toimittaa	-12247
▁virkamieh	-12248
▁worldwide	-12249
▁keskustell	-12250
▁neuvonanta	-12251
▁veterinary	-12252
▁noudatetaan	-12253
▁jurisdiction	-12254
▁automatically	-12255
▁huolellisesti	-12256
▁tiedonannossa	-12257
AM	-12258
)).	-12259
DER	-12260
jää	-12261
lly	-12262
tod	-12263
ush	-12264
ietä	-12265
jaks	-12266
resh	-12267
öllä	-12268
▁Mag	-12269
▁bit	-12270
▁läp	-12271
▁neu	-12272
erted	-12273
idzan	-12274
ikkaa	-12275
tehtä	-12276
tivät	-12277
▁Sall	-12278
▁ball	-12279
▁cere	-12280
ATIONS	-12281
andida	-12282
ighten	-12283
iments	-12284
kohdan	-12285
rating	-12286
tified	-12287
yhmäni	-12288
▁Point	-12289
▁Watts	-12290
▁dynam	-12291
▁edetä	-12292
▁judge	-12293
▁leviä	-12294
▁orien	-12295
▁pyysi	-12296
▁tulle	-12297
▁vaara	-12298
sequent	-12299
▁Bladel	-12300
▁Geneva	-12301
▁Herman	-12302
▁Mierlo	-12303
▁pettym	-12304
▁provid	-12305
▁tausta	-12306
▁tehdyt	-12307
▁Iversen	-12308
▁Vietnam	-12309
▁discipl	-12310
▁ihmistä	-12311
▁jointly	-12312
▁komitea	-12313
▁luotava	-12314
▁picture	-12315
▁recruit	-12316
▁revised	-12317
▁smaller	-12318
▁tuottav	-12319
▁vähiten	-12320
▁Crampton	-12321
▁director	-12322
▁korostan	-12323
▁peruutta	-12324
▁phenomen	-12325
▁pyrkivät	-12326
▁respects	-12327
▁teknisen	-12328
▁teknisiä	-12329
▁tiukasti	-12330
▁welcomed	-12331
▁affecting	-12332
▁ajatuksia	-12333
▁conducted	-12334
▁conflicts	-12335
▁continent	-12336
▁käyttäyty	-12337
▁perustana	-12338
▁processes	-12339
▁toisiinsa	-12340
▁toisinaan	-12341
▁aiheutuvat	-12342
▁kannatamme	-12343
▁kuluttajat	-12344
▁painopiste	-12345
▁komissaarin	-12346
▁seuraavista	-12347
▁sosiaalisia	-12348
▁shortcomings	-12349
▁geneettisesti	-12350
▁mietinnössään	-12351
▁yksimielisyys	-12352
▁puheenjohtajana	-12353
▁toteuttamiseksi	-12354
AD	-12355
Ar	-12356
IE	-12357
▁,	-12358
Afr	-12359
hyö	-12360
iat	-12361
▁Vä	-12362
▁fu	-12363
antu	-12364
cott	-12365
isad	-12366
rite	-12367
▁Cox	-12368
▁Imp	-12369
▁Pre	-12370
▁aro	-12371
▁kyv	-12372
▁mal	-12373
▁mid	-12374
▁mää	-12375
icate	-12376
itely	-12377
uksin	-12378
▁Thus	-12379
▁UPOV	-12380
▁Well	-12381
▁cuts	-12382
▁ilta	-12383
▁kont	-12384
▁soft	-12385
aktiiv	-12386
etussa	-12387
lantic	-12388
opimus	-12389
teista	-12390
▁Clear	-12391
▁Saksa	-12392
▁chair	-12393
▁kuunn	-12394
▁logic	-12395
▁manip	-12396
▁varaa	-12397
Sierens	-12398
elmissa	-12399
euroopp	-12400
▁COMMUN	-12401
▁Dupuis	-12402
▁Unioni	-12403
▁advice	-12404
▁biolog	-12405
▁epäily	-12406
▁huolta	-12407
▁kunnan	-12408
▁larger	-12409
▁mehilä	-12410
▁prison	-12411
▁skills	-12412
▁tuonti	-12413
▁weight	-12414
ettäessä	-12415
▁Instead	-12416
▁Special	-12417
▁Spencer	-12418
▁feeling	-12419
▁luodaan	-12420
▁options	-12421
▁realize	-12422
▁sisälty	-12423
▁valittu	-12424
▁voitava	-12425
▁yhdellä	-12426
iseuroopp	-12427
ventional	-12428
▁eläinlää	-12429
▁hyväksym	-12430
▁kyseiset	-12431
▁käynnist	-12432
▁selittää	-12433
University	-12434
ollisuutta	-12435
▁Fernandes	-12436
▁enthusias	-12437
▁extensive	-12438
▁movements	-12439
▁tervetull	-12440
hallituksen	-12441
▁disappoint	-12442
▁lopullinen	-12443
▁investigate	-12444
▁maintenance	-12445
▁vaikutusten	-12446
▁valmistever	-12447
▁vastaanotta	-12448
tavaliokunnan	-12449
▁consequently	-12450
▁organisaatio	-12451
▁tavallisesti	-12452
▁mainstreaming	-12453
akh	-12454
äst	-12455
▁Ti	-12456
fess	-12457
osen	-12458
▁Eis	-12459
▁GIL	-12460
▁Teh	-12461
▁arm	-12462
▁bor	-12463
▁kur	-12464
asiat	-12465
innön	-12466
olini	-12467
onian	-12468
tamaa	-12469
tavar	-12470
▁Dist	-12471
▁Edin	-12472
▁Mart	-12473
▁näke	-12474
▁syvä	-12475
illään	-12476
toista	-12477
ulling	-12478
ventää	-12479
▁Brink	-12480
▁asenn	-12481
▁boost	-12482
▁chann	-12483
▁erila	-12484
▁kerto	-12485
▁lesta	-12486
▁pilot	-12487
▁pleas	-12488
▁preva	-12489
▁puhta	-12490
▁rikko	-12491
ellisiä	-12492
itoista	-12493
usehdot	-12494
utonium	-12495
▁Gorsel	-12496
▁School	-12497
▁affair	-12498
▁agrees	-12499
▁arkalu	-12500
▁firmly	-12501
▁fleets	-12502
▁ruling	-12503
▁sphere	-12504
▁taakse	-12505
▁tiedän	-12506
fficient	-12507
▁College	-12508
▁closure	-12509
▁järkevä	-12510
▁kandida	-12511
▁korvata	-12512
▁mistake	-12513
▁toistaa	-12514
▁vehicle	-12515
▁warning	-12516
▁yksikkö	-12517
▁kirjassa	-12518
▁kohdista	-12519
▁olisimme	-12520
▁tarkasta	-12521
▁toiminut	-12522
▁toisiaan	-12523
▁elintärke	-12524
▁neighbour	-12525
▁remaining	-12526
▁selection	-12527
▁tietotekn	-12528
▁tullihall	-12529
valtuutettu	-12530
▁Forwarders	-12531
▁contraband	-12532
▁direktiive	-12533
▁suspension	-12534
▁toimenpide	-12535
▁valtioissa	-12536
conventional	-12537
▁alueellisen	-12538
▁julkilausum	-12539
▁exploitation	-12540
▁subsequently	-12541
▁kansainvälisiä	-12542
IC	-12543
ga	-12544
fal	-12545
hol	-12546
ibr	-12547
joh	-12548
nsä	-12549
▁IT	-12550
cure	-12551
ibet	-12552
itel	-12553
jouk	-12554
keep	-12555
▁Har	-12556
▁JEP	-12557
▁Nat	-12558
▁sim	-12559
▁upd	-12560
IOKUN	-12561
Quaak	-12562
enses	-12563
oured	-12564
tieto	-12565
▁Lenz	-12566
▁Year	-12567
▁daan	-12568
▁hämm	-12569
▁invo	-12570
▁kiih	-12571
▁rich	-12572
▁sion	-12573
▁sout	-12574
▁suva	-12575
utumis	-12576
▁Schör	-12577
▁Sturd	-12578
▁Swiss	-12579
▁Vihre	-12580
▁Would	-12581
▁aikom	-12582
▁breed	-12583
▁crops	-12584
▁eroja	-12585
▁jatku	-12586
▁journ	-12587
▁lihan	-12588
▁menee	-12589
▁optim	-12590
▁oteta	-12591
essamme	-12592
uttavaa	-12593
▁Amadeo	-12594
▁Käytän	-12595
▁Repres	-12596
▁Ymmärr	-12597
▁hylkäs	-12598
▁maksut	-12599
▁nation	-12600
▁palkka	-12601
▁teillä	-12602
▁transa	-12603
▁työssä	-12604
▁Britann	-12605
▁affects	-12606
▁centres	-12607
▁intress	-12608
▁kolmeen	-12609
▁kriisin	-12610
▁lähinnä	-12611
▁määrätä	-12612
▁tekemis	-12613
▁varasto	-12614
▁wording	-12615
roduction	-12616
▁Edinburg	-12617
▁Training	-12618
▁disaster	-12619
▁esitystä	-12620
▁granting	-12621
▁kaikesta	-12622
▁petition	-12623
▁rakentaa	-12624
▁todistaa	-12625
▁Järjestel	-12626
▁Maatalous	-12627
▁employers	-12628
▁estimated	-12629
▁equivalent	-12630
▁kollegamme	-12631
▁toisistaan	-12632
▁vihdoinkin	-12633
politiikassa	-12634
▁Directorate	-12635
▁savukkeiden	-12636
▁toistuvasti	-12637
▁perustamista	-12638
▁valiokuntien	-12639
▁järjestelmien	-12640
▁käsittelemään	-12641
▁yhteisymmärry	-12642
▁Recommendation	-12643
rt	-12644
bin	-12645
eds	-12646
eri	-12647
hun	-12648
▁%:	-12649
▁di	-12650
Amer	-12651
ater	-12652
kijä	-12653
rity	-12654
tute	-12655
urah	-12656
▁Est	-12657
▁Yli	-12658
ammat	-12659
mämme	-12660
▁Fran	-12661
▁José	-12662
▁Moor	-12663
▁Moro	-12664
▁Vuos	-12665
▁kaan	-12666
▁kauk	-12667
▁kaun	-12668
▁lykä	-12669
atonta	-12670
ehrend	-12671
vyyttä	-12672
▁Again	-12673
▁Great	-12674
▁Roman	-12675
▁aside	-12676
▁conce	-12677
▁numer	-12678
▁recip	-12679
▁stake	-12680
▁syitä	-12681
▁trial	-12682
aloitte	-12683
imintaa	-12684
immissa	-12685
isemmin	-12686
istynyt	-12687
▁Depart	-12688
▁Rosado	-12689
▁agency	-12690
▁ohella	-12691
▁solely	-12692
▁suffer	-12693
▁surely	-12694
▁tahtoa	-12695
▁toivoo	-12696
▁vaatin	-12697
▁Espanja	-12698
▁Similar	-12699
▁commend	-12700
▁housing	-12701
▁ilmenee	-12702
▁kovasti	-12703
▁muualla	-12704
▁nimittä	-12705
▁offence	-12706
▁säännön	-12707
▁tekijät	-12708
▁tällöin	-12709
▁Articles	-12710
▁Protocol	-12711
▁carriers	-12712
▁deserves	-12713
▁jätetään	-12714
▁monivuot	-12715
▁parempaa	-12716
▁petoksen	-12717
▁seuraava	-12718
▁vaadimme	-12719
▁decentral	-12720
▁dependent	-12721
▁envisaged	-12722
▁reflected	-12723
▁vastaista	-12724
▁ydinenerg	-12725
kunnallisen	-12726
▁ehdotusten	-12727
▁exemptions	-12728
▁intentions	-12729
▁asiakirjoja	-12730
▁englanniksi	-12731
▁erinomainen	-12732
▁estämiseksi	-12733
▁kaksinkerta	-12734
▁luonnonmuka	-12735
▁menestyksek	-12736
▁suggestions	-12737
▁suunniteltu	-12738
▁virallisten	-12739
▁kehittämisen	-12740
▁käsittelemme	-12741
▁tarpeellista	-12742
▁vastauksesta	-12743
▁toteuttamisen	-12744
▁työllisyyteen	-12745
▁tilintarkastus	-12746
TT	-12747
▁/	-12748
IES	-12749
May	-12750
SET	-12751
UTP	-12752
ars	-12753
ham	-12754
off	-12755
peä	-12756
▁ah	-12757
akka	-12758
iary	-12759
iper	-12760
okan	-12761
seen	-12762
tuff	-12763
▁CFC	-12764
▁GDP	-12765
▁Inc	-12766
▁Lin	-12767
▁ded	-12768
▁dos	-12769
▁ets	-12770
appro	-12771
eches	-12772
ikäyt	-12773
isina	-12774
itava	-12775
kelpo	-12776
taisi	-12777
tansa	-12778
villä	-12779
yistä	-12780
yneet	-12781
▁Blok	-12782
▁Hank	-12783
▁Meet	-12784
▁avat	-12785
▁jaks	-12786
▁luke	-12787
▁stip	-12788
▁util	-12789
▁ware	-12790
elance	-12791
iehdot	-12792
iikenn	-12793
▁Camis	-12794
▁Cross	-12795
▁borne	-12796
▁edull	-12797
▁fixed	-12798
▁items	-12799
▁oppim	-12800
▁pohja	-12801
▁spoke	-12802
Behrend	-12803
viljely	-12804
▁Antwer	-12805
▁fellow	-12806
▁helped	-12807
▁joukon	-12808
▁jäävät	-12809
▁kasvan	-12810
▁prejud	-12811
▁summer	-12812
▁termin	-12813
▁tuesta	-12814
▁useaan	-12815
▁väliin	-12816
Burtonin	-12817
asioista	-12818
building	-12819
isestään	-12820
▁Kulutta	-12821
▁Valtuus	-12822
▁justify	-12823
▁koskien	-12824
▁prosper	-12825
▁sisältö	-12826
▁viikkoa	-12827
▁Armenian	-12828
▁Internal	-12829
▁announce	-12830
▁commerce	-12831
▁deficits	-12832
▁directed	-12833
▁edellyty	-12834
▁hankkeet	-12835
▁mukanaan	-12836
▁philosop	-12837
▁todistus	-12838
ohjelmasta	-12839
▁Financial	-12840
▁connected	-12841
▁epäonnist	-12842
▁kahdenväl	-12843
▁parhaiten	-12844
▁personnel	-12845
▁saattavat	-12846
▁satelliit	-12847
▁tavaroita	-12848
▁vaalipiir	-12849
▁valiokunn	-12850
▁viimeinen	-12851
▁Delegation	-12852
▁edistämään	-12853
▁environmen	-12854
▁identiteet	-12855
▁perustavan	-12856
▁sellaisena	-12857
▁säännöksiä	-12858
▁toimivaltu	-12859
▁valmistelu	-12860
▁vastaavien	-12861
▁accordingly	-12862
▁koheesiorah	-12863
▁myönnettävä	-12864
▁todellakaan	-12865
▁kuluttajille	-12866
▁parantaminen	-12867
▁varmistettava	-12868
▁irregularities	-12869
▁keskusteluissa	-12870
▁kustannuksella	-12871
▁osallistumista	-12872
▁parlamenttimme	-12873
▁päätöslauselmaa	-12874
DF	-12875
ask	-12876
disc	-12877
kulk	-12878
ller	-12879
▁Arv	-12880
▁Azz	-12881
▁PAS	-12882
▁Pan	-12883
▁Rac	-12884
▁Rov	-12885
▁Uus	-12886
▁sem	-12887
▁tin	-12888
▁uut	-12889
atisf	-12890
egrad	-12891
elmät	-12892
kkaan	-12893
▁Arvo	-12894
▁Julk	-12895
▁Pers	-12896
▁frag	-12897
▁lämp	-12898
▁nets	-12899
▁oles	-12900
assani	-12901
idettä	-12902
tuneet	-12903
tömien	-12904
umista	-12905
▁Asian	-12906
▁Staff	-12907
▁colla	-12908
▁enjoy	-12909
▁nouse	-12910
▁novel	-12911
▁quote	-12912
▁runsa	-12913
▁tilaa	-12914
▁truly	-12915
aisilla	-12916
tanding	-12917
uudella	-12918
▁Morocc	-12919
▁cattle	-12920
▁confer	-12921
▁conven	-12922
▁heillä	-12923
▁houkut	-12924
▁katsot	-12925
▁kerrot	-12926
▁laivan	-12927
▁plants	-12928
▁pyyntö	-12929
▁sexual	-12930
▁uskonn	-12931
▁väistä	-12932
▁wealth	-12933
▁ystävä	-12934
▁Theonas	-12935
▁heading	-12936
▁interim	-12937
▁lasting	-12938
▁minäkin	-12939
▁muistaa	-12940
▁patents	-12941
▁running	-12942
▁trading	-12943
▁Flagship	-12944
▁collabor	-12945
▁molemmat	-12946
▁ohjelmaa	-12947
▁tarkkail	-12948
▁tasapuol	-12949
▁Schörling	-12950
▁criminals	-12951
▁edellytys	-12952
▁huomiotta	-12953
▁ihmisille	-12954
▁unionilla	-12955
▁esittämiin	-12956
▁seuraavien	-12957
järjestelmiä	-12958
▁entisestään	-12959
▁epäoikeuden	-12960
▁komissaaria	-12961
▁mahdollisen	-12962
▁menettelyjä	-12963
▁rahapoliitt	-12964
▁tilaisuuden	-12965
▁toimielimen	-12966
▁guaranteeing	-12967
▁hyväksymistä	-12968
▁lopullisesti	-12969
▁politiikkojen	-12970
▁congratulating	-12971
▁ratkaisemiseksi	-12972
▁täytäntöönpanon	-12973
VL	-12974
hr	-12975
IST	-12976
cle	-12977
osp	-12978
sch	-12979
ames	-12980
roed	-12981
ront	-12982
▁Mig	-12983
▁Sar	-12984
▁hyp	-12985
▁inh	-12986
horst	-12987
istoa	-12988
keita	-12989
oulos	-12990
which	-12991
▁Cuba	-12992
▁Hard	-12993
▁Over	-12994
▁lahj	-12995
▁page	-12996
▁reak	-12997
▁sold	-12998
▁zone	-12999
istien	-13000
tavoit	-13001
tikoul	-13002
äännöt	-13003
▁Kenya	-13004
▁dereg	-13005
▁overs	-13006
▁taxpa	-13007
▁traps	-13008
▁tutus	-13009
osition	-13010
ymmentä	-13011
▁Please	-13012
▁käynyt	-13013
▁nearly	-13014
▁omassa	-13015
▁osassa	-13016
▁poliis	-13017
oikeudet	-13018
▁Jackson	-13019
▁Santini	-13020
▁Studies	-13021
▁alleged	-13022
▁enempää	-13023
▁primary	-13024
▁someone	-13025
▁todettu	-13026
▁tribute	-13027
▁yhdestä	-13028
prosessin	-13029
▁Dublinin	-13030
▁Visegrad	-13031
▁eurooppa	-13032
▁huonosti	-13033
▁johdanto	-13034
▁learning	-13035
▁reaching	-13036
▁reaction	-13037
▁tutkinto	-13038
▁exclusive	-13039
▁integrity	-13040
▁containing	-13041
▁merkitsisi	-13042
▁ryhdyttävä	-13043
▁yhtenäistä	-13044
▁acknowledge	-13045
▁johtokunnan	-13046
▁kunnianhimo	-13047
▁tiedonannon	-13048
▁uudistuksia	-13049
▁äänestetään	-13050
▁huolintaalan	-13051
▁kysymyksistä	-13052
▁maaliskuussa	-13053
▁menettelytap	-13054
▁poliittiseen	-13055
▁sosiaalisten	-13056
▁työttömyyttä	-13057
▁valiokuntaan	-13058
▁poliittisesta	-13059
▁supplementary	-13060
▁tarkastellaan	-13061
▁toteuttamiseen	-13062
NP	-13063
Dör	-13064
mäs	-13065
äin	-13066
▁Av	-13067
▁Lä	-13068
▁zu	-13069
Dörf	-13070
TIEN	-13071
asin	-13072
isio	-13073
kier	-13074
lass	-13075
oing	-13076
oler	-13077
ower	-13078
▁ETY	-13079
▁INT	-13080
▁Jer	-13081
▁Kam	-13082
▁rit	-13083
▁ruo	-13084
altaa	-13085
eliss	-13086
iller	-13087
neksi	-13088
yyden	-13089
▁Veto	-13090
▁debt	-13091
▁repa	-13092
▁ruot	-13093
▁wine	-13094
hoidon	-13095
ksuaal	-13096
orship	-13097
rosess	-13098
▁Ahern	-13099
▁Eisma	-13100
▁Merit	-13101
▁Svens	-13102
▁attra	-13103
▁domin	-13104
▁faith	-13105
▁kinds	-13106
▁label	-13107
▁palve	-13108
▁seeks	-13109
▁stock	-13110
▁äsken	-13111
isempaa	-13112
ittelen	-13113
kinoita	-13114
▁Baring	-13115
▁Reding	-13116
▁honest	-13117
▁kestää	-13118
▁kosket	-13119
▁liikke	-13120
▁paying	-13121
▁riskit	-13122
▁tahdon	-13123
▁ASEANin	-13124
▁dispute	-13125
▁invited	-13126
▁kiinnos	-13127
▁lopulla	-13128
▁pyrimme	-13129
▁shortly	-13130
▁subsidy	-13131
▁tieteen	-13132
▁toisten	-13133
▁ylittää	-13134
asetuksen	-13135
▁believes	-13136
▁disposal	-13137
▁matkailu	-13138
▁poliitik	-13139
▁regretta	-13140
▁reliable	-13141
▁southern	-13142
▁speeches	-13143
▁tunnista	-13144
▁tutkinta	-13145
▁vuosisad	-13146
▁yhteiset	-13147
ohjelmassa	-13148
▁electoral	-13149
▁kuvitella	-13150
▁palauttaa	-13151
▁plutonium	-13152
▁suhtautuu	-13153
▁tarkistaa	-13154
▁unanimous	-13155
▁Euroopalle	-13156
▁huolestune	-13157
▁pahoillani	-13158
▁subsequent	-13159
▁käyttämällä	-13160
▁turvapaikka	-13161
▁työskentely	-13162
▁Agricultural	-13163
▁koulutukseen	-13164
▁äänestykseen	-13165
▁Technological	-13166
▁vahvistettava	-13167
▁taloudellisesta	-13168
CC	-13169
NT	-13170
OH	-13171
mu	-13172
EST	-13173
TOM	-13174
efe	-13175
pat	-13176
uul	-13177
▁%,	-13178
▁pö	-13179
aves	-13180
ilua	-13181
issl	-13182
kapp	-13183
kkiä	-13184
okon	-13185
pohj	-13186
tavu	-13187
thly	-13188
utto	-13189
▁Kal	-13190
▁UNI	-13191
▁buy	-13192
▁spl	-13193
elmaa	-13194
elmän	-13195
iable	-13196
itain	-13197
tably	-13198
▁Alan	-13199
▁Like	-13200
▁Maur	-13201
▁Pact	-13202
▁foor	-13203
▁hita	-13204
▁järk	-13205
▁opti	-13206
▁path	-13207
▁room	-13208
▁ties	-13209
▁vier	-13210
called	-13211
ictory	-13212
kertom	-13213
▁Maked	-13214
▁Raken	-13215
▁books	-13216
▁docum	-13217
▁eight	-13218
▁forum	-13219
▁herät	-13220
▁köyhy	-13221
▁roopp	-13222
▁sodan	-13223
Dörfler	-13224
issaari	-13225
▁Agency	-13226
▁Before	-13227
▁Graefe	-13228
▁Langen	-13229
▁asukka	-13230
▁esillä	-13231
▁hormon	-13232
▁outset	-13233
▁säästä	-13234
▁techni	-13235
▁vasten	-13236
miehelle	-13237
tömyyden	-13238
▁Barthet	-13239
▁Schroed	-13240
▁declare	-13241
▁promise	-13242
▁taholta	-13243
▁tukevat	-13244
▁varattu	-13245
▁vertail	-13246
▁waiting	-13247
entyminen	-13248
umattomat	-13249
▁byrokrat	-13250
▁category	-13251
▁features	-13252
▁findings	-13253
▁informal	-13254
▁jossakin	-13255
▁kolmesta	-13256
▁moreover	-13257
▁muitakin	-13258
▁odotamme	-13259
▁pyydämme	-13260
▁teachers	-13261
▁toisella	-13262
▁toisesta	-13263
▁varoista	-13264
▁vastakka	-13265
▁maksetaan	-13266
▁paikkansa	-13267
▁seitsemän	-13268
▁tekemästä	-13269
▁tunnustaa	-13270
▁inventions	-13271
▁kehittämis	-13272
▁lopullisen	-13273
▁systematic	-13274
▁todellisia	-13275
▁tämänpäivä	-13276
▁accompanied	-13277
▁tulevaisuus	-13278
▁perustaminen	-13279
▁politiikasta	-13280
▁presentation	-13281
▁ensimmäiseksi	-13282
▁lähestymistapa	-13283
▁simplification	-13284
▁huippukokouksen	-13285
▁yhteenliittymän	-13286
EG	-13287
oU	-13288
ivä	-13289
kym	-13290
lis	-13291
tot	-13292
uin	-13293
urb	-13294
ätä	-13295
▁Sö	-13296
avaa	-13297
cale	-13298
itas	-13299
jiin	-13300
rown	-13301
ymme	-13302
▁Cas	-13303
▁Elä	-13304
▁Gen	-13305
▁hum	-13306
▁män	-13307
aseen	-13308
eksän	-13309
lähet	-13310
place	-13311
uilla	-13312
▁Corn	-13313
▁Diez	-13314
▁Dijk	-13315
▁depl	-13316
▁ital	-13317
▁suom	-13318
▁user	-13319
iseltä	-13320
▁Fabra	-13321
▁hoita	-13322
▁laadu	-13323
▁posts	-13324
▁remed	-13325
▁syynä	-13326
▁tunne	-13327
▁tyypp	-13328
▁valin	-13329
▁yhtyä	-13330
itation	-13331
itusten	-13332
ulttuur	-13333
▁Cambod	-13334
▁Sakell	-13335
▁Yhteen	-13336
▁reveal	-13337
▁thinks	-13338
▁toteaa	-13339
avaltion	-13340
elliseen	-13341
▁Britain	-13342
▁Chapter	-13343
▁Neuvost	-13344
▁itseään	-13345
▁jossain	-13346
▁korkein	-13347
▁letters	-13348
▁monista	-13349
▁neutral	-13350
▁puhujan	-13351
▁realist	-13352
▁valossa	-13353
▁yleisiä	-13354
Community	-13355
▁Yhteinen	-13356
▁democrat	-13357
▁katsomme	-13358
▁kriteere	-13359
▁preserve	-13360
▁reflects	-13361
▁syntynyt	-13362
ijärjestel	-13363
▁avoimesti	-13364
▁muutoksen	-13365
▁pidettiin	-13366
▁puheenvuo	-13367
▁suurimman	-13368
▁Brinkhorst	-13369
▁Sakellario	-13370
▁minorities	-13371
▁sosialisti	-13372
▁tavoitetta	-13373
avaliokunnan	-13374
▁engineering	-13375
▁maksusitoum	-13376
▁tilaisuutta	-13377
▁toimijoiden	-13378
▁geographical	-13379
▁Yhdysvalloissa	-13380
▁täytäntöönpano	-13381
▁congratulations	-13382
▁kyseenalaiseksi	-13383
AV	-13384
bUc	-13385
coh	-13386
ife	-13387
rik	-13388
sut	-13389
ROBL	-13390
euro	-13391
iese	-13392
rant	-13393
umin	-13394
▁Lal	-13395
▁Mir	-13396
▁Tam	-13397
▁mob	-13398
▁pas	-13399
aleen	-13400
cohol	-13401
ikuun	-13402
inese	-13403
iviik	-13404
usted	-13405
▁Hein	-13406
▁Maan	-13407
▁Päin	-13408
▁Skot	-13409
▁Viit	-13410
▁YUTP	-13411
▁etel	-13412
▁hahm	-13413
▁stay	-13414
▁vetä	-13415
forman	-13416
opping	-13417
teistä	-13418
umping	-13419
vented	-13420
▁Aguir	-13421
▁Alber	-13422
▁David	-13423
▁Gians	-13424
▁TACIS	-13425
▁leads	-13426
▁promp	-13427
▁ranka	-13428
▁tahto	-13429
▁verop	-13430
▁yhdyn	-13431
▁yksik	-13432
▁youth	-13433
annosta	-13434
issamme	-13435
▁Applic	-13436
▁Burman	-13437
▁Joissa	-13438
▁chosen	-13439
▁dictat	-13440
▁encoun	-13441
▁looked	-13442
▁nuoris	-13443
▁pohtia	-13444
▁sallia	-13445
▁yhtään	-13446
administ	-13447
oituksen	-13448
▁Clearly	-13449
▁Kreissl	-13450
▁Working	-13451
▁erottaa	-13452
▁intoler	-13453
▁oleviin	-13454
▁urheilu	-13455
taloudell	-13456
▁expenses	-13457
▁helpotta	-13458
▁loppujen	-13459
▁occurred	-13460
▁ottaneet	-13461
▁postpone	-13462
▁presents	-13463
▁rauhanom	-13464
▁transpor	-13465
▁tuotteet	-13466
▁työstään	-13467
▁välineet	-13468
▁basically	-13469
▁intervene	-13470
▁telephone	-13471
▁acceptance	-13472
▁approaches	-13473
▁negotiated	-13474
▁olennainen	-13475
▁repeatedly	-13476
▁aloitteesta	-13477
▁constitutes	-13478
▁luultavasti	-13479
▁prosenttiin	-13480
▁radioaktiiv	-13481
▁sosiaaliset	-13482
▁supervision	-13483
▁tyytyväisiä	-13484
▁enemmistöllä	-13485
▁ensimmäiseen	-13486
▁käyttöönotto	-13487
▁suuntaviivat	-13488
▁kiinnitettävä	-13489
▁tarkasteltava	-13490
▁Kansainvälisen	-13491
▁sosiaaliturvan	-13492
.-	-13493
atz	-13494
pic	-13495
tus	-13496
vuo	-13497
älä	-13498
mail	-13499
miel	-13500
tics	-13501
uume	-13502
▁Pom	-13503
▁anx	-13504
▁juh	-13505
▁mun	-13506
▁por	-13507
▁tit	-13508
▁uhr	-13509
emman	-13510
iliar	-13511
odoul	-13512
▁Code	-13513
▁Just	-13514
▁Lähi	-13515
▁Phil	-13516
▁Uusi	-13517
▁hull	-13518
▁judg	-13519
▁jänn	-13520
▁prag	-13521
ectual	-13522
ostaan	-13523
tamien	-13524
▁Smith	-13525
▁Stock	-13526
▁alkoh	-13527
▁begun	-13528
▁consc	-13529
▁monin	-13530
▁musta	-13531
▁opera	-13532
estystä	-13533
istossa	-13534
tavuoro	-13535
tiöiden	-13536
▁Doctor	-13537
▁Europa	-13538
▁Greens	-13539
▁Miguel	-13540
▁Pettin	-13541
▁Should	-13542
▁arvioi	-13543
▁jaettu	-13544
▁kaikin	-13545
▁kehity	-13546
▁multil	-13547
▁paikan	-13548
▁puolen	-13549
▁selviä	-13550
▁sincer	-13551
itiative	-13552
menettel	-13553
okkaasti	-13554
suojelun	-13555
▁Afrikan	-13556
▁Aguirre	-13557
▁Chinese	-13558
▁Crowley	-13559
▁Hardsta	-13560
▁Lancker	-13561
▁Lulling	-13562
▁Section	-13563
▁Tilanne	-13564
▁asianos	-13565
▁menojen	-13566
▁ominais	-13567
▁osaston	-13568
▁topical	-13569
▁tosiaan	-13570
▁tulojen	-13571
▁ymmärrä	-13572
▁enhanced	-13573
▁enintään	-13574
▁kannatta	-13575
▁laajasti	-13576
▁mainitsi	-13577
▁merkintä	-13578
▁sessions	-13579
▁stronger	-13580
▁targeted	-13581
▁assisting	-13582
▁delighted	-13583
▁katsotaan	-13584
▁tutkimaan	-13585
▁viitataan	-13586
▁Barcelonan	-13587
▁Hallintone	-13588
▁Schroedter	-13589
▁ehdottanut	-13590
▁extraordin	-13591
▁kesäkuussa	-13592
▁komissioon	-13593
▁löydettävä	-13594
▁ratkaiseva	-13595
▁voimaantul	-13596
............	-13597
järjestelmät	-13598
▁Christodoul	-13599
▁aluepoliitt	-13600
▁ennaltaehkä	-13601
▁ilmoittanut	-13602
▁vaatimusten	-13603
▁yhteisvastu	-13604
viranomaisten	-13605
▁ehdotuksista	-13606
▁hyväksymisen	-13607
▁ponnisteluja	-13608
▁satisfaction	-13609
▁Administration	-13610
▁tulevaisuuteen	-13611
▁yhteistyösopim	-13612
▁kauppajärjestön	-13613
▁puheenjohtajaka	-13614
YN	-13615
eu	-13616
Med	-13617
sti	-13618
▁je	-13619
OFIN	-13620
oris	-13621
quis	-13622
vain	-13623
▁nos	-13624
▁ota	-13625
▁sar	-13626
allel	-13627
elmia	-13628
erate	-13629
halti	-13630
istor	-13631
levat	-13632
mpaan	-13633
nöstä	-13634
tuffs	-13635
varez	-13636
▁Hatz	-13637
▁Koso	-13638
▁Most	-13639
▁airc	-13640
▁hake	-13641
▁jous	-13642
▁tait	-13643
▁ylit	-13644
luding	-13645
roatia	-13646
▁André	-13647
▁Garos	-13648
▁diagn	-13649
▁fifth	-13650
▁meets	-13651
▁palkk	-13652
▁pätee	-13653
▁rapor	-13654
▁Albani	-13655
▁Lalumi	-13656
▁attack	-13657
▁esitän	-13658
▁fairly	-13659
▁lakeja	-13660
▁mittee	-13661
▁murder	-13662
▁oppose	-13663
▁potila	-13664
▁retail	-13665
▁weaken	-13666
▁yksikö	-13667
laration	-13668
ographic	-13669
periaate	-13670
▁asiakka	-13671
▁epäsuor	-13672
▁existed	-13673
▁informa	-13674
▁journal	-13675
▁kestävä	-13676
▁ollessa	-13677
▁privile	-13678
▁refened	-13679
▁tekemän	-13680
▁työväen	-13681
▁academic	-13682
▁luettelo	-13683
▁palvelut	-13684
▁promised	-13685
▁suuressa	-13686
▁viimeksi	-13687
▁vuodeksi	-13688
▁weakness	-13689
▁desirable	-13690
▁juurikaan	-13691
▁järjestöt	-13692
▁kutsutaan	-13693
▁myönnetty	-13694
▁osoitettu	-13695
▁pääasiall	-13696
▁succeeded	-13697
▁tehokasta	-13698
periaatetta	-13699
▁Baringdorf	-13700
▁categories	-13701
▁tasapainon	-13702
▁tutkittava	-13703
▁Azerbaidzan	-13704
▁contributed	-13705
▁toivottavaa	-13706
▁tutkimuksia	-13707
▁unnecessary	-13708
▁pöytäkirjaan	-13709
▁representing	-13710
▁tarvittaessa	-13711
▁investointien	-13712
▁osallistuminen	-13713
▁environmentally	-13714
▁taloudellisista	-13715
▁toteuttamisesta	-13716
Väl	-13717
kos	-13718
maz	-13719
ocu	-13720
▁Bö	-13721
▁ST	-13722
▁eu	-13723
ilee	-13724
jään	-13725
olin	-13726
teko	-13727
utel	-13728
zech	-13729
▁Air	-13730
▁Kan	-13731
▁Kum	-13732
▁Laa	-13733
▁Nic	-13734
▁Rio	-13735
▁Two	-13736
▁gap	-13737
▁hir	-13738
mansa	-13739
tonsa	-13740
tumis	-13741
▁Funk	-13742
▁Kuka	-13743
▁arch	-13744
▁goal	-13745
▁kävi	-13746
▁miin	-13747
▁rare	-13748
▁riko	-13749
asteen	-13750
iences	-13751
maihin	-13752
utuvat	-13753
▁Niitä	-13754
▁Suhte	-13755
▁hence	-13756
▁mennä	-13757
▁moved	-13758
▁raska	-13759
intansa	-13760
▁Chilen	-13761
▁Kambod	-13762
▁Provan	-13763
▁bureau	-13764
▁esteet	-13765
▁freely	-13766
▁joutuu	-13767
▁paikka	-13768
▁pystyy	-13769
▁tonnia	-13770
▁tutkii	-13771
aikaista	-13772
hensible	-13773
inations	-13774
standard	-13775
▁Meeting	-13776
▁Ryhmäni	-13777
▁Service	-13778
▁creates	-13779
▁driving	-13780
▁fraudul	-13781
▁hyvästä	-13782
▁katsoen	-13783
▁kulutus	-13784
▁liittyä	-13785
▁neuvost	-13786
▁osoitus	-13787
▁pohjois	-13788
▁saatiin	-13789
▁taataan	-13790
▁tiettyä	-13791
oikeuksia	-13792
▁Blokland	-13793
▁Passitus	-13794
▁aliarvio	-13795
▁arvioinn	-13796
▁enabling	-13797
▁johtuvat	-13798
▁julkaisu	-13799
▁powerful	-13800
▁puitteet	-13801
▁regulate	-13802
▁sisäisen	-13803
▁taistelu	-13804
▁welcomes	-13805
▁Corneliss	-13806
▁Hardstaff	-13807
▁Muistutan	-13808
▁confusion	-13809
▁ehdotettu	-13810
▁epäilystä	-13811
▁expensive	-13812
▁jätteiden	-13813
▁liittymis	-13814
▁religious	-13815
▁secretary	-13816
▁suunnattu	-13817
▁byrokraatt	-13818
▁collection	-13819
▁conversion	-13820
▁coordinate	-13821
▁facilities	-13822
▁liittotasa	-13823
▁saadakseen	-13824
▁bureaucracy	-13825
▁circulation	-13826
▁citizenship	-13827
▁investointi	-13828
▁keskusteltu	-13829
▁kuljetuksen	-13830
▁pakolaisten	-13831
▁luottamuksen	-13832
▁määritellään	-13833
▁perustettiin	-13834
▁politiikkaan	-13835
▁ammattiyhdist	-13836
▁suuntaviivoja	-13837
mahdollisuuksia	-13838
▁suojelemiseksi	-13839
▁taloudelliseen	-13840
▁jäsenvaltioista	-13841
▁lähestymistapaa	-13842
▁täytäntöönpanoa	-13843
rk	-13844
ony	-13845
yrk	-13846
athy	-13847
berg	-13848
gher	-13849
rior	-13850
tina	-13851
utin	-13852
view	-13853
ällä	-13854
änen	-13855
▁...	-13856
▁Eph	-13857
▁Riv	-13858
▁alt	-13859
▁mah	-13860
▁mig	-13861
▁tiu	-13862
▁unl	-13863
aging	-13864
eista	-13865
illor	-13866
kenut	-13867
mille	-13868
oilta	-13869
remid	-13870
tamia	-13871
ultra	-13872
äärän	-13873
▁Conc	-13874
▁none	-13875
ikkaan	-13876
itably	-13877
raints	-13878
teille	-13879
utunut	-13880
ystävä	-13881
▁Tältä	-13882
▁ainut	-13883
▁datab	-13884
▁häviä	-13885
▁kerro	-13886
▁kärsi	-13887
▁semin	-13888
▁socio	-13889
pansion	-13890
yhteisö	-13891
▁Hatzid	-13892
▁Kosovo	-13893
▁banned	-13894
▁jatkuu	-13895
▁laista	-13896
▁nuoria	-13897
▁pyrkin	-13898
▁seeing	-13899
▁sulkea	-13900
▁vision	-13901
anskaksi	-13902
▁broader	-13903
▁extreme	-13904
▁harkita	-13905
▁jätetty	-13906
▁kaupall	-13907
▁naisiin	-13908
▁yhteens	-13909
oikeudell	-13910
▁Independ	-13911
▁Lindholm	-13912
▁Northern	-13913
▁drafting	-13914
▁kannasta	-13915
▁luonteen	-13916
▁meantime	-13917
▁sanoneet	-13918
▁vakauden	-13919
▁vakuutta	-13920
▁yleisten	-13921
▁Similarly	-13922
▁Stability	-13923
▁geenitekn	-13924
▁ollenkaan	-13925
▁otteeseen	-13926
▁palveluja	-13927
▁satisfied	-13928
▁veronmaks	-13929
▁asetettava	-13930
▁demokratis	-13931
▁esitettiin	-13932
▁istuntosal	-13933
▁kauttakulk	-13934
▁nykyisessä	-13935
▁ymmärrettä	-13936
▁ammattikoul	-13937
▁incorporate	-13938
▁kandidaatti	-13939
▁osoittaneet	-13940
▁täysistunto	-13941
▁keskisuurten	-13942
▁luonteeltaan	-13943
▁participating	-13944
▁substantially	-13945
▁tunnustettava	-13946
▁demokraattinen	-13947
▁infrastruktuur	-13948
▁lainsäädäntöön	-13949
▁puheenjohtajaa	-13950
▁tarkistuksessa	-13951
▁ulkopolitiikan	-13952
FE	-13953
La	-13954
yk	-13955
Weg	-13956
ail	-13957
bro	-13958
jär	-13959
non	-13960
▁VI	-13961
Venä	-13962
alon	-13963
ancy	-13964
huol	-13965
icro	-13966
ityö	-13967
kauk	-13968
venn	-13969
▁Mil	-13970
▁amp	-13971
▁kop	-13972
andal	-13973
hardt	-13974
iting	-13975
oring	-13976
toman	-13977
ääntö	-13978
▁Cass	-13979
▁Kenn	-13980
▁seta	-13981
▁solm	-13982
▁tahd	-13983
▁teur	-13984
▁vamm	-13985
▁yhty	-13986
Weggen	-13987
arding	-13988
ikelpo	-13989
vaihto	-13990
▁Länsi	-13991
▁Tavar	-13992
▁acted	-13993
▁compr	-13994
▁dikta	-13995
▁jakel	-13996
▁kalli	-13997
▁lista	-13998
▁maksa	-13999
▁param	-14000
▁saapu	-14001
▁worry	-14002
itative	-14003
oliiton	-14004
tömäksi	-14005
virasto	-14006
▁ECOFIN	-14007
▁Marset	-14008
▁Norway	-14009
▁Rivera	-14010
▁asteen	-14011
▁elimen	-14012
▁heidät	-14013
▁kykene	-14014
▁kääntä	-14015
▁metsän	-14016
▁myynti	-14017
hallinto	-14018
koulutus	-14019
lamentin	-14020
national	-14021
▁Alvarez	-14022
▁Charter	-14023
▁awarded	-14024
▁clarity	-14025
▁dangers	-14026
▁käsittä	-14027
▁liittää	-14028
▁ottavat	-14029
▁pidetty	-14030
▁suostum	-14031
▁täydenn	-14032
▁uusista	-14033
ittämistä	-14034
▁Ephremid	-14035
▁Svensson	-14036
▁advanced	-14037
▁cultures	-14038
▁emerging	-14039
▁freedoms	-14040
▁kehottaa	-14041
▁mukaisia	-14042
▁pystyvät	-14043
▁setaside	-14044
▁toimivan	-14045
▁ymmärrän	-14046
▁Joissakin	-14047
▁Moorhouse	-14048
▁Transkauk	-14049
▁expansion	-14050
▁incentive	-14051
▁intensive	-14052
▁kannustaa	-14053
▁seuraavia	-14054
▁surprised	-14055
▁tehokkaan	-14056
▁valtioita	-14057
▁vieläkään	-14058
▁arvioinnin	-14059
▁expressing	-14060
▁luomiseksi	-14061
▁preventive	-14062
▁ristiriita	-14063
▁settlement	-14064
▁strategian	-14065
▁translated	-14066
▁vapaakaupp	-14067
tuomioistuin	-14068
▁PARLAMENTTI	-14069
▁erinomaisen	-14070
▁esimerkkejä	-14071
▁kompromissi	-14072
▁luottamusta	-14073
▁muistettava	-14074
▁parantamaan	-14075
▁direktiiviin	-14076
▁seurauksista	-14077
▁authorization	-14078
▁laajentumista	-14079
▁tavoitteeseen	-14080
▁tavoitteisiin	-14081
▁työntekijöitä	-14082
▁demokraattista	-14083
▁huumausaineiden	-14084
ww	-14085
Ver	-14086
aff	-14087
eme	-14088
iku	-14089
law	-14090
len	-14091
urt	-14092
etti	-14093
iger	-14094
ioon	-14095
lock	-14096
mman	-14097
rage	-14098
real	-14099
rupt	-14100
rust	-14101
taja	-14102
utui	-14103
▁Equ	-14104
▁asb	-14105
▁cow	-14106
▁inj	-14107
andin	-14108
enous	-14109
ikais	-14110
produ	-14111
sinki	-14112
tyypp	-14113
öihin	-14114
▁Tunn	-14115
▁city	-14116
▁elää	-14117
▁loog	-14118
▁maak	-14119
▁mere	-14120
▁suhd	-14121
ROBLES	-14122
annual	-14123
laiset	-14124
▁Galla	-14125
▁Kabil	-14126
▁Ryhmä	-14127
▁Tärke	-14128
▁count	-14129
▁earth	-14130
▁kloon	-14131
▁minut	-14132
▁panna	-14133
▁posti	-14134
▁suver	-14135
▁ultra	-14136
alueita	-14137
ocratic	-14138
oitteet	-14139
tavista	-14140
▁Pompid	-14141
▁crimes	-14142
▁ennako	-14143
▁permit	-14144
▁sallit	-14145
▁strugg	-14146
▁toiset	-14147
▁vastat	-14148
▁warmly	-14149
Behrendt	-14150
formance	-14151
istaneet	-14152
unctions	-14153
▁Irlanti	-14154
▁Samland	-14155
▁ehtojen	-14156
▁hylkäsi	-14157
▁oloissa	-14158
▁osoitti	-14159
▁radical	-14160
▁sairaus	-14161
▁tapahdu	-14162
▁tekniik	-14163
▁uudessa	-14164
▁ylläpit	-14165
aliokunta	-14166
yritykset	-14167
▁Giansily	-14168
▁Heinisch	-14169
▁Kannatan	-14170
▁aircraft	-14171
▁estimate	-14172
▁frontier	-14173
▁kielellä	-14174
▁offences	-14175
▁offering	-14176
▁paljasta	-14177
▁patients	-14178
▁päätetty	-14179
▁rohkaise	-14180
▁software	-14181
neuvottelu	-14182
▁Municipal	-14183
▁ilmaissut	-14184
▁initiated	-14185
▁lausuntoa	-14186
▁lentokent	-14187
▁lisättävä	-14188
▁odotetaan	-14189
▁rangaista	-14190
▁sincerely	-14191
▁tradition	-14192
▁täydentää	-14193
▁assosioint	-14194
▁controvers	-14195
▁enemmistön	-14196
▁käyttäjien	-14197
▁myönteisen	-14198
▁määrärahat	-14199
▁scientists	-14200
▁composition	-14201
▁foundations	-14202
▁käsiteltiin	-14203
▁passituksen	-14204
▁passituspet	-14205
▁päätökseksi	-14206
▁työjärjesty	-14207
▁publications	-14208
▁toimivaltaan	-14209
▁tärkeimmistä	-14210
▁vaihtoehtoja	-14211
▁kehitysmaiden	-14212
▁tarkistukseen	-14213
KA	-14214
Uow	-14215
aag	-14216
ryt	-14217
uch	-14218
ued	-14219
yrj	-14220
äkö	-14221
▁Ec	-14222
▁wa	-14223
INTA	-14224
ardo	-14225
iles	-14226
islu	-14227
jina	-14228
ongo	-14229
tere	-14230
▁CON	-14231
▁nom	-14232
▁suj	-14233
ivoim	-14234
uteta	-14235
▁Bell	-14236
▁Cacc	-14237
▁Peij	-14238
▁Rojo	-14239
▁epär	-14240
▁hiil	-14241
▁kone	-14242
▁save	-14243
▁thir	-14244
antuzz	-14245
unutta	-14246
utamme	-14247
▁Hänen	-14248
▁Liese	-14249
▁Prior	-14250
▁Schle	-14251
▁fines	-14252
▁fresh	-14253
▁huoli	-14254
▁ideal	-14255
▁johti	-14256
▁kerää	-14257
▁mekan	-14258
▁osaan	-14259
▁twice	-14260
▁usual	-14261
astossa	-14262
istisen	-14263
ointiin	-14264
viously	-14265
▁Argent	-14266
▁Näissä	-14267
▁ballot	-14268
▁choose	-14269
▁endors	-14270
▁hankin	-14271
▁lentol	-14272
▁lääkär	-14273
▁miltei	-14274
▁mobile	-14275
▁määräa	-14276
▁newspa	-14277
▁nostaa	-14278
▁nuoret	-14279
▁owners	-14280
▁valvoo	-14281
▁vedota	-14282
alueilla	-14283
määrärah	-14284
▁Baldare	-14285
▁Fantuzz	-14286
▁Hollann	-14287
▁kaukana	-14288
▁korjata	-14289
▁removed	-14290
▁ulkomin	-14291
ostettava	-14292
tamisessa	-14293
▁disabled	-14294
▁halunnut	-14295
▁ilmoitti	-14296
▁jäsenyys	-14297
▁laajalti	-14298
▁luomista	-14299
▁marginal	-14300
▁missions	-14301
▁nuorille	-14302
▁recorded	-14303
▁syrjäyty	-14304
▁thanking	-14305
▁transpos	-14306
▁vaarassa	-14307
▁valinnan	-14308
▁yksipuol	-14309
tömyydestä	-14310
▁forwarded	-14311
▁kohdistuu	-14312
▁medicines	-14313
▁pidetyssä	-14314
▁suhteista	-14315
▁teknisten	-14316
▁työryhmän	-14317
▁erilaisten	-14318
▁originally	-14319
▁restricted	-14320
▁suggestion	-14321
▁tapahtuvan	-14322
▁achievement	-14323
▁hankkeisiin	-14324
▁jäsenmaissa	-14325
▁laajentumis	-14326
▁prosecution	-14327
▁puolueettom	-14328
▁recommended	-14329
▁tehokkuuden	-14330
▁toimivallan	-14331
▁vaikutuksen	-14332
politiikkojen	-14333
▁economically	-14334
▁menettelyjen	-14335
▁paikallisten	-14336
administration	-14337
▁Communication	-14338
▁approximately	-14339
▁osallistumaan	-14340
▁significantly	-14341
▁tiedonannosta	-14342
▁äänestyksessä	-14343
▁viranomaisille	-14344
▁direktiiviehdot	-14345
▁lähestymistavan	-14346
TEM	-14347
jot	-14348
koi	-14349
▁CT	-14350
▁TV	-14351
ilty	-14352
pyyn	-14353
teks	-14354
▁Leg	-14355
▁Luk	-14356
▁Pit	-14357
▁Sri	-14358
▁Tuk	-14359
▁weU	-14360
icing	-14361
illan	-14362
kalta	-14363
ostus	-14364
tellä	-14365
ulner	-14366
woman	-14367
äärää	-14368
▁Also	-14369
▁Cars	-14370
▁Kaup	-14371
▁TOIM	-14372
▁York	-14373
▁kosk	-14374
▁sala	-14375
▁vege	-14376
▁warn	-14377
aamaan	-14378
amatta	-14379
esides	-14380
inette	-14381
itusta	-14382
vuoden	-14383
▁Maced	-14384
▁etsim	-14385
▁fails	-14386
▁hetki	-14387
▁liity	-14388
▁monit	-14389
▁pääom	-14390
▁tuonn	-14391
▁töitä	-14392
aisilta	-14393
amattom	-14394
cession	-14395
etetaan	-14396
▁Lastly	-14397
▁Olette	-14398
▁commen	-14399
▁divers	-14400
▁hollan	-14401
▁inside	-14402
▁kriisi	-14403
▁laajan	-14404
▁lehden	-14405
▁nobody	-14406
▁privat	-14407
▁päästy	-14408
▁roolin	-14409
▁toivom	-14410
▁ulkora	-14411
hernobyl	-14412
ilaisten	-14413
tömyyttä	-14414
▁Berisha	-14415
▁Israeli	-14416
▁Miranda	-14417
▁Sopimus	-14418
▁Through	-14419
▁alcohol	-14420
▁avustus	-14421
▁decides	-14422
▁imagine	-14423
▁käsitys	-14424
▁notific	-14425
▁ongoing	-14426
▁playing	-14427
▁refused	-14428
▁seurann	-14429
▁tulkinn	-14430
▁tulosta	-14431
▁varmaan	-14432
▁esitetyt	-14433
▁longterm	-14434
▁olevansa	-14435
▁pääjohta	-14436
[...]
